{
  "version": "1.0",
  "truncation": null,
  "padding": null,
  "added_tokens": [
    {
      "id": 0,
      "content": "<pad>",
      "single_word": false,
      "lstrip": false,
      "rstrip": false,
      "normalized": false,
      "special": true
    },
    {
      "id": 1,
      "content": "<bos>",
      "single_word": false,
      "lstrip": false,
      "rstrip": false,
      "normalized": false,
      "special": true
    },
    {
      "id": 2,
      "content": "<eos>",
      "single_word": false,
      "lstrip": false,
      "rstrip": false,
      "normalized": false,
      "special": true
    },
    {
      "id": 3,
      "content": "<unk>",
      "single_word": false,
      "lstrip": false,
      "rstrip": false,
      "normalized": false,
      "special": true
    },
    {
      "id": 4,
      "content": "<inst>",
      "single_word": false,
      "lstrip": false,
      "rstrip": false,
      "normalized": false,
      "special": true
    },
    {
      "id": 5,
      "content": "</inst>",
      "single_word": false,
      "lstrip": false,
      "rstrip": false,
      "normalized": false,
      "special": true
    },
    {
      "id": 6,
      "content": "<reason>",
      "single_word": false,
      "lstrip": false,
      "rstrip": false,
      "normalized": false,
      "special": true
    },
    {
      "id": 7,
      "content": "</reason>",
      "single_word": false,
      "lstrip": false,
      "rstrip": false,
      "normalized": false,
      "special": true
    },
    {
      "id": 8,
      "content": "<out>",
      "single_word": false,
      "lstrip": false,
      "rstrip": false,
      "normalized": false,
      "special": true
    },
    {
      "id": 9,
      "content": "</out>",
      "single_word": false,
      "lstrip": false,
      "rstrip": false,
      "normalized": false,
      "special": true
    }
  ],
  "normalizer": {
    "type": "Sequence",
    "normalizers": [
      {
        "type": "NFKC"
      },
      {
        "type": "Strip",
        "strip_left": true,
        "strip_right": true
      }
    ]
  },
  "pre_tokenizer": {
    "type": "ByteLevel",
    "add_prefix_space": false,
    "trim_offsets": true,
    "use_regex": true
  },
  "post_processor": null,
  "decoder": {
    "type": "ByteLevel",
    "add_prefix_space": true,
    "trim_offsets": true,
    "use_regex": true
  },
  "model": {
    "type": "BPE",
    "dropout": null,
    "unk_token": "<unk>",
    "continuing_subword_prefix": null,
    "end_of_word_suffix": null,
    "fuse_unk": false,
    "byte_fallback": false,
    "ignore_merges": false,
    "vocab": {
      "<pad>": 0,
      "<bos>": 1,
      "<eos>": 2,
      "<unk>": 3,
      "<inst>": 4,
      "</inst>": 5,
      "<reason>": 6,
      "</reason>": 7,
      "<out>": 8,
      "</out>": 9,
      "!": 10,
      "\"": 11,
      "#": 12,
      "$": 13,
      "%": 14,
      "&": 15,
      "'": 16,
      "(": 17,
      ")": 18,
      "*": 19,
      "+": 20,
      ",": 21,
      "-": 22,
      ".": 23,
      "/": 24,
      "0": 25,
      "1": 26,
      "2": 27,
      "3": 28,
      "4": 29,
      "5": 30,
      "6": 31,
      "7": 32,
      "8": 33,
      "9": 34,
      ":": 35,
      ";": 36,
      "<": 37,
      "=": 38,
      ">": 39,
      "?": 40,
      "@": 41,
      "A": 42,
      "B": 43,
      "C": 44,
      "D": 45,
      "E": 46,
      "F": 47,
      "G": 48,
      "H": 49,
      "I": 50,
      "J": 51,
      "K": 52,
      "L": 53,
      "M": 54,
      "N": 55,
      "O": 56,
      "P": 57,
      "Q": 58,
      "R": 59,
      "S": 60,
      "T": 61,
      "U": 62,
      "V": 63,
      "W": 64,
      "X": 65,
      "Y": 66,
      "Z": 67,
      "[": 68,
      "\\": 69,
      "]": 70,
      "^": 71,
      "_": 72,
      "`": 73,
      "a": 74,
      "b": 75,
      "c": 76,
      "d": 77,
      "e": 78,
      "f": 79,
      "g": 80,
      "h": 81,
      "i": 82,
      "j": 83,
      "k": 84,
      "l": 85,
      "m": 86,
      "n": 87,
      "o": 88,
      "p": 89,
      "q": 90,
      "r": 91,
      "s": 92,
      "t": 93,
      "u": 94,
      "v": 95,
      "w": 96,
      "x": 97,
      "y": 98,
      "z": 99,
      "{": 100,
      "|": 101,
      "}": 102,
      "~": 103,
      "¡": 104,
      "¢": 105,
      "£": 106,
      "¤": 107,
      "¥": 108,
      "¦": 109,
      "§": 110,
      "¨": 111,
      "©": 112,
      "ª": 113,
      "«": 114,
      "¬": 115,
      "®": 116,
      "¯": 117,
      "°": 118,
      "±": 119,
      "²": 120,
      "³": 121,
      "´": 122,
      "µ": 123,
      "¶": 124,
      "·": 125,
      "¸": 126,
      "¹": 127,
      "º": 128,
      "»": 129,
      "¼": 130,
      "½": 131,
      "¾": 132,
      "¿": 133,
      "Â": 134,
      "Ã": 135,
      "Ä": 136,
      "Å": 137,
      "Æ": 138,
      "Ç": 139,
      "È": 140,
      "É": 141,
      "Ê": 142,
      "Ë": 143,
      "Ì": 144,
      "Í": 145,
      "Î": 146,
      "Ï": 147,
      "Ð": 148,
      "Ñ": 149,
      "Ò": 150,
      "Ó": 151,
      "Ô": 152,
      "Õ": 153,
      "Ö": 154,
      "×": 155,
      "Ø": 156,
      "Ù": 157,
      "Ú": 158,
      "Û": 159,
      "Ü": 160,
      "Ý": 161,
      "ß": 162,
      "à": 163,
      "á": 164,
      "â": 165,
      "ã": 166,
      "ä": 167,
      "å": 168,
      "æ": 169,
      "ç": 170,
      "è": 171,
      "é": 172,
      "ê": 173,
      "ë": 174,
      "ì": 175,
      "í": 176,
      "ï": 177,
      "ð": 178,
      "ó": 179,
      "ĉ": 180,
      "Ċ": 181,
      "č": 182,
      "Ġ": 183,
      "Ģ": 184,
      "ģ": 185,
      "Ĥ": 186,
      "ĥ": 187,
      "Ħ": 188,
      "ħ": 189,
      "Ĩ": 190,
      "ĩ": 191,
      "Ī": 192,
      "ī": 193,
      "Ĭ": 194,
      "ĭ": 195,
      "Į": 196,
      "į": 197,
      "İ": 198,
      "ı": 199,
      "Ĳ": 200,
      "ĳ": 201,
      "Ĵ": 202,
      "ĵ": 203,
      "Ķ": 204,
      "ķ": 205,
      "ĸ": 206,
      "Ĺ": 207,
      "ĺ": 208,
      "Ļ": 209,
      "ļ": 210,
      "Ľ": 211,
      "ľ": 212,
      "Ŀ": 213,
      "ŀ": 214,
      "Ł": 215,
      "ł": 216,
      "Ń": 217,
      "ĠÐ": 218,
      "Ð¾": 219,
      "Ð°": 220,
      "Ðµ": 221,
      "ÑĤ": 222,
      "Ð¸": 223,
      "Ñģ": 224,
      "Ð¾Ð": 225,
      "ÑĢ": 226,
      "Ð½": 227,
      "Ð°Ð": 228,
      "Ñĥ": 229,
      "Ð»": 230,
      "Ñı": 231,
      "ÑĮ": 232,
      "Ðº": 233,
      "ĠÐ¿": 234,
      "Ñĩ": 235,
      "Ñĭ": 236,
      "ĠÐ½": 237,
      "ÐµÐ": 238,
      "ĠÑģ": 239,
      "ĠÐ²": 240,
      "Ð´": 241,
      "ÑĤÐ¾": 242,
      "Ð¼": 243,
      "Ð²": 244,
      "ĠÐº": 245,
      "ĠÑĤ": 246,
      "ĠÐ¼": 247,
      "ÐµÐ½": 248,
      "ĠÐ¸": 249,
      "ÑĤÑĮ": 250,
      "Ñħ": 251,
      "ÐµÑĤ": 252,
      "ÑĪ": 253,
      "ĠÐ´": 254,
      "ðŁ": 255,
      "ÐĲ": 256,
      "Ñİ": 257,
      "Ð¿": 258,
      "ĠÐ¾": 259,
      "Ð¾Ð²": 260,
      "ĠÑĩ": 261,
      "Ð°Ð»": 262,
      "Ð°Ðº": 263,
      "ĠÐ±": 264,
      "ÐµÑĢ": 265,
      "Ð¾Ð»": 266,
      "ÑģÑĤ": 267,
      "ĠÐ¿ÑĢ": 268,
      "Ð½Ð¾": 269,
      "ÐµÐ»": 270,
      "ĠÐ·": 271,
      "ĠÐ½Ðµ": 272,
      "Ð±": 273,
      "Ð¾Ð¼": 274,
      "ĠÑĥ": 275,
      "ĠÑ": 276,
      "ĠÑĢ": 277,
      "Ð³": 278,
      "Ð°Ð½": 279,
      "Ð·": 280,
      "Ð¾Ð³": 281,
      "Ð¾Ð´": 282,
      "ĠÐ½Ð°": 283,
      "Ð»Ð¸": 284,
      "ÐµÐ¼": 285,
      "Ð¸ÑĤ": 286,
      "Ð°Ð²": 287,
      "Ð¾Ð±": 288,
      "Ð¹": 289,
      "ĠÑı": 290,
      "Ð°ÑĤÑĮ": 291,
      "Ð¾ÑĤ": 292,
      "Ð¾Ð¹": 293,
      "Ð¾Ð¶": 294,
      "Ð¾ÑĢ": 295,
      "Ð°Ð¼": 296,
      "..": 297,
      "Ð°Ñģ": 298,
      "Ð°ÑĤ": 299,
      "Ð¶": 300,
      "Ñī": 301,
      "Ð¾Ð½": 302,
      "Ð¾Ñģ": 303,
      "ÐĲÐ": 304,
      "ĠÐ°": 305,
      "ĠÑį": 306,
      "ÑģÑı": 307,
      "Ð¸Ðº": 308,
      "Ð¸Ð½": 309,
      "ĠÐµ": 310,
      "ðŁĺ": 311,
      "ĠÐ»": 312,
      "Ð°ÑĢ": 313,
      "Ðŀ": 314,
      "ÐĿ": 315,
      "ĠÑĩÑĤÐ¾": 316,
      "ÑĨ": 317,
      "ĠÐ³": 318,
      "Ð¸Ð¼": 319,
      "ÐµÐ½Ð¸": 320,
      "Ð°Ð·": 321,
      "Ð¸Ð»": 322,
      "Ð¾Ðº": 323,
      "Ð¯": 324,
      "ÐĴ": 325,
      "Ð½Ð°": 326,
      "Ð¸Ñģ": 327,
      "ÐµÐ´": 328,
      "Ð°Ð´": 329,
      "Ð½Ñĭ": 330,
      "Ð¾Ð»ÑĮ": 331,
      "Ñĳ": 332,
      "Ð°Ð¹": 333,
      "Ð¢": 334,
      "ÑĥÐ´": 335,
      "ĠÐ¿Ð¾": 336,
      "ÑĢÑĥ": 337,
      "ÐŁ": 338,
      "ĠĠ": 339,
      "Ð¸Ð²": 340,
      "ÐµÐ½Ñı": 341,
      "ÐµÐ¹": 342,
      "Ðļ": 343,
      "ÑĢÐ°": 344,
      "ÑĦ": 345,
      "ÑĥÑĤ": 346,
      "Ð½Ðµ": 347,
      "ÐµÐ³": 348,
      "Ð´Ð°": 349,
      "Ġ1": 350,
      "Ð¡": 351,
      "ĠÐºÐ°Ðº": 352,
      "ĠÐ¼ÐµÐ½Ñı": 353,
      "ÐµÐ±": 354,
      "Ðķ": 355,
      "ĠÐ²Ñģ": 356,
      "Ð¸ÑĤÑĮ": 357,
      "Ð¾Ð³Ð¾": 358,
      "ĠÑħ": 359,
      "ÐµÑģ": 360,
      "ĠÑģÑĤ": 361,
      "Ð°Ð°": 362,
      "ĠÐ±Ñĭ": 363,
      "ÐºÐ°": 364,
      "Ð£": 365,
      "Ðĺ": 366,
      "Ð¾Ñĩ": 367,
      "ÐĲÐ¥": 368,
      "ÐºÐ¸": 369,
      "ĠÑįÑĤÐ¾": 370,
      "ĠÑĤÐ°Ðº": 371,
      "ĠÐ²Ñĭ": 372,
      "Ð»Ñı": 373,
      "ĠÐ¾ÑĤ": 374,
      "ÐµÐº": 375,
      "ĠÐ·Ð°": 376,
      "Ð¥": 377,
      "Ðľ": 378,
      "ĠÐ¶": 379,
      "ĠÐ¾Ð±": 380,
      "Ð°Ñİ": 381,
      "ĠÑĤÐ¾": 382,
      "ĠÑģÐº": 383,
      "Ð°Ð¿": 384,
      "ÐĶ": 385,
      "ÐºÐ¾": 386,
      "ÐµÑĪ": 387,
      "Ð°Ð¶": 388,
      "ÑĥÑĩ": 389,
      "Ð°Ð±": 390,
      "Ð°Ñħ": 391,
      "ÑĤÐ¾ÑĢ": 392,
      "Ð°ÐµÑĤ": 393,
      "ĠÐ±ÑĥÐ´": 394,
      "Ð¾Ð¿": 395,
      "ÐºÑĥ": 396,
      "ĠÐµÑģ": 397,
      "00": 398,
      "Ð½Ð¸": 399,
      "Ð°Ð½Ð¸": 400,
      "ÑıÑĤ": 401,
      "ĠÑĦ": 402,
      "ĠÑĤÑĭ": 403,
      "Ð¸Ð´": 404,
      "Ġ2": 405,
      "Ð¾Ð·": 406,
      "ÐµÐ½ÑĮ": 407,
      "Ðł": 408,
      "Ð¿ÑĢ": 409,
      "ÑģÑĤÐ²": 410,
      "ĠÐ¿ÑĢÐ¾": 411,
      "...": 412,
      "ÑĨÐ¸": 413,
      "ÐµÐ·": 414,
      "ĠÑģÐ»": 415,
      "Ð¸Ñĩ": 416,
      "ĠÐ¸Ð·": 417,
      "ÐµÐ»ÑĮ": 418,
      "Ð¾Ðµ": 419,
      "Ð¸ÑĤÐµ": 420,
      "Ð¾Ð»ÑĮÐºÐ¾": 421,
      "ĠÐŁ": 422,
      "ĠÐ¼Ð¾Ð¶": 423,
      "ĠÑĢÐ°Ð·": 424,
      "ĠÑģÐ¿": 425,
      "ÐµÐ³Ð¾": 426,
      "ÐĲÐ¥ÐĲÐ¥": 427,
      "ĠÐ¼Ð½Ðµ": 428,
      "ĠÑĤÐµÐ±": 429,
      "Ð»Ð¾": 430,
      "ÐµÐ½Ð¸Ðµ": 431,
      "Ñį": 432,
      "Ð¸ÑĪ": 433,
      "ĠÑĪ": 434,
      "ÑīÐµ": 435,
      "Ð§": 436,
      "Ð»Ð°": 437,
      "ÐĽ": 438,
      "ÑĤÐµ": 439,
      "Ġ$": 440,
      "ĠÐĿ": 441,
      "ĠÐ¸Ð³": 442,
      "ĠÐĴ": 443,
      "ĠÐ²ÑģÐµ": 444,
      "ĠÑįÑĤ": 445,
      "Ð¶Ðµ": 446,
      "Ð¾Ð³Ð´Ð°": 447,
      "ÑĥÑİ": 448,
      "ÑĭÐ¹": 449,
      "ÑĥÐ¼": 450,
      "Ð¸Ð·": 451,
      "ĠÐ·Ð½Ð°": 452,
      "Ð¸ÑĢ": 453,
      "ÐµÐ½Ð¸Ñı": 454,
      "Ð°Ð»ÑĮ": 455,
      "ÑĪÐµ": 456,
      "ĠÐ¿ÐµÑĢ": 457,
      "ÑģÐº": 458,
      "Ð°Ð»Ð°": 459,
      "ĠÐ¡": 460,
      "ÐĲÐĲ": 461,
      "ÐµÐ²": 462,
      "Ġ-": 463,
      "ĠÐ¿Ð¾Ð»": 464,
      "ĠÐ¿Ð¾Ð´": 465,
      "ÐµÑĪÑĮ": 466,
      "Ð¾ÑģÑĤÐ¾": 467,
      "ĠÐ½Ð¾": 468,
      "ĠÐ´ÐµÐ»": 469,
      "ĠÑģÐ¼": 470,
      "ĠÐºÐ¾": 471,
      "Ġ(": 472,
      "Ð¾Ð¼Ñĥ": 473,
      "ĠÑģÐ¾": 474,
      "!!": 475,
      "Ð¾Ð¶Ðµ": 476,
      "ĠÐĲ": 477,
      "ar": 478,
      "ÑĢÐ¾": 479,
      "ÐŃ": 480,
      "Ð½ÑĭÐ¹": 481,
      "ÐµÑĩ": 482,
      "Ð¸Ð±": 483,
      "ÑĭÐ²": 484,
      "ðŁĴ": 485,
      "Ð°Ñı": 486,
      "ÐµÐ¿": 487,
      "ĠÑģÐ²": 488,
      "ðŁĺŃ": 489,
      "ÐĹ": 490,
      "ÑħÐ¾Ð´": 491,
      "Ð°Ð³": 492,
      "Ð½Ñı": 493,
      "Ð°Ð»Ð¸": 494,
      "ĠÐľ": 495,
      "Ð½Ð¾Ð³Ð¾": 496,
      "Ð¾Ð¾": 497,
      "Ð»Ñİ": 498,
      "ĠĠĠĠ": 499,
      "ĠÐ±ÑĥÐ´ÐµÑĤ": 500,
      "ĠÐ¿Ð¾Ð½": 501,
      "Ðĳ": 502,
      "ÑĤÐ¸": 503,
      "ĠÐ´Ð»Ñı": 504,
      "Ð´Ðµ": 505,
      "Ð°Ð°Ð°Ð°": 506,
      "ĠÐµÑģÑĤÑĮ": 507,
      "??": 508,
      "Ð½Ð¾Ð¹": 509,
      "ĠÑĢÐ¾Ð±": 510,
      "in": 511,
      "âĢ": 512,
      "Ġ=": 513,
      "Ð¸Ð³": 514,
      "Ġ3": 515,
      "ĠÐ¢": 516,
      "Ð³Ð¾": 517,
      "ĠÐ»Ñİ": 518,
      "Ð½Ñĥ": 519,
      "Ð¸Ðµ": 520,
      "ÐĿÑĥ": 521,
      "Ð¸Ð²ÐµÑĤ": 522,
      "Ð¸Ñħ": 523,
      "Ð½Ð¸Ðº": 524,
      "ĠÑĥÐ¶Ðµ": 525,
      "Ð½ÑĭÐµ": 526,
      "ĠÑĤÐ¾Ð¶Ðµ": 527,
      "ĠÐ´ÑĢÑĥ": 528,
      "ï¸": 529,
      "ï¸ı": 530,
      "ÐµÑģÑĤ": 531,
      "Ð¾ÑĤÑĢ": 532,
      "ÐµÐµ": 533,
      "ÑģÑĭ": 534,
      "ðŁ¤": 535,
      "ÑĢÐ°Ð²": 536,
      "Ð´ÐµÐ»": 537,
      "ÑģÐ¿": 538,
      "ĠÐ½Ñĥ": 539,
      "ĠÐµÑģÐ»Ð¸": 540,
      "ĠÐ¸Ð½": 541,
      "ĠÐ¾Ð´": 542,
      "ĠÐ¸Ð»Ð¸": 543,
      "ĠÐ½ÐµÑĤ": 544,
      "ĠÐļ": 545,
      "ÐĴÑģ": 546,
      "ĠÐ¿ÑĢÐ¾ÑģÑĤÐ¾": 547,
      "ro": 548,
      "ĠÑĤÐµÐ±Ñı": 549,
      "ĠÐ¾Ð½": 550,
      "Ð¸Ð¿": 551,
      "ÑĭÐµ": 552,
      "ĠÐ¶Ðµ": 553,
      "ĠÐŀ": 554,
      "ðŁ¥": 555,
      "Ð°Ð¼Ð¸": 556,
      "Ġ\\": 557,
      "ĠÐ½Ð°Ð´": 558,
      "ÑĤÐ¾Ð±": 559,
      "Ð°ÑģÑģ": 560,
      "ĠÐ¿Ð¾Ñģ": 561,
      "ĠÐ²ÑĢ": 562,
      "ÑģÑĮ": 563,
      "Ð½Ð¾Ðµ": 564,
      "ÑĥÐ¿": 565,
      "ĠÐºÑĤÐ¾": 566,
      "ĠÑĤÐ¾Ð»ÑĮÐºÐ¾": 567,
      "ÐµÐ¼Ñĥ": 568,
      "ÑīÑĳ": 569,
      "ĠÑĤÑĥÑĤ": 570,
      "ĠÑĤÐ°Ð¼": 571,
      "Ð´Ñĥ": 572,
      "ĠÐ¼Ð¾Ð¶Ð½Ð¾": 573,
      "ĠÐºÐ¾Ð½": 574,
      "ĠÐĶ": 575,
      "ĠÐºÐ¾Ð¼": 576,
      "Ðĵ": 577,
      "ĠÐºÐ¾ÑĤÐ¾ÑĢ": 578,
      "ÐµÐ½ÑĤ": 579,
      "ÐŁÑĢ": 580,
      "ĠÐ²Ð¾": 581,
      "ĠÐ½Ð°Ð¿": 582,
      "ĠÑħÐ¾Ñĩ": 583,
      "ĠÐ¯": 584,
      "Ð°ÑħÐ°Ñħ": 585,
      "ĠðŁĺ": 586,
      "Ð»Ð¾Ðº": 587,
      "Ð¸Ð»Ð°": 588,
      "Ð«": 589,
      "ĠÐ´Ð¾": 590,
      "ĠÐ¿Ð¾Ð¼": 591,
      "Ð¾Ð²Ð¾ÑĢ": 592,
      "Ð¸Ð»Ð¸": 593,
      "ĠÑģÑĤÑĢ": 594,
      "Ð°ÑĢÑĤ": 595,
      "Ð¾ÑĢÐ¼": 596,
      "ÑĤÐ¾Ð±Ñĭ": 597,
      "ĠÑģÐ°Ð¼": 598,
      "Ġ5": 599,
      "ðŁĳ": 600,
      "Ð½ÑĭÑħ": 601,
      "ÑĥÐº": 602,
      "ĠÐµÐ³Ð¾": 603,
      "Ð¾Ð³Ñĥ": 604,
      "ĠÐµÑīÑĳ": 605,
      "at": 606,
      "on": 607,
      "ĠÑĥÑĩ": 608,
      "ĠÑĩÐ°ÑĤ": 609,
      "ĠÐ¼Ñĭ": 610,
      "ĠÑģÐ´ÐµÐ»": 611,
      "ĠÐ²Ð¸Ð´": 612,
      "ĠÐ¿Ð¾Ð»ÑĥÑĩ": 613,
      "er": 614,
      "ÑĢÑĭ": 615,
      "ÐŃÑĤÐ¾": 616,
      "ÐĿÐµ": 617,
      "Ð¾Ð²Ð°ÑĤÑĮ": 618,
      "ðŁĺŃðŁĺŃ": 619,
      "an": 620,
      "Ġ\"": 621,
      "ĠÐ±ÑĭÐ»Ð¾": 622,
      "ÑĤÐµÑĢ": 623,
      "))": 624,
      "ĠÐĺ": 625,
      "Ð¸Ð¸": 626,
      "ĠÐ½Ð°Ñģ": 627,
      "ÐļÐ°Ðº": 628,
      "ĠÐ±Ð¾Ð»ÑĮ": 629,
      "ÐµÑĤÑģÑı": 630,
      "Ð¾ÑĢÐ¾": 631,
      "Ð°Ñĩ": 632,
      "art": 633,
      "ÐµÐ¶": 634,
      "ĠÐ¼Ð¾": 635,
      "Ġ+": 636,
      "ĠÐ´ÑĢÑĥÐ³": 637,
      "ÑĥÐ¹": 638,
      "ĠÐĳ": 639,
      "Ð½Ð°Ñı": 640,
      "ĠÑĤÑĢ": 641,
      "ĠÐ½Ð°Ð´Ð¾": 642,
      "ÑģÑĤÐ°Ð²": 643,
      "Ð°Ð±Ð¾ÑĤ": 644,
      "ot": 645,
      "ĠÐ¸Ð¼": 646,
      "ĠÐºÑĢ": 647,
      "....": 648,
      "ÐĶÐ°": 649,
      "ÑĥÑģ": 650,
      "ĠÐ½Ð¸Ðº": 651,
      "Ð¸Ð¹": 652,
      "Ð¾Ð»ÑĮÐ·": 653,
      "âł": 654,
      "ĠÑĩÐµÐ»": 655,
      "Ð¼Ð¸": 656,
      "ÑĥÐ±": 657,
      "Ð¿ÑĢÐ°Ð²": 658,
      "le": 659,
      "Ġ4": 660,
      "Ð¾Ð±ÑīÐµ": 661,
      "Ð°ÑİÑĤ": 662,
      "ĠÐ·Ð°Ð¿": 663,
      "ĠÐºÐ¾Ð³Ð´Ð°": 664,
      "ĠÐ·Ð½Ð°Ñİ": 665,
      "ÑĢÐ¾Ñģ": 666,
      "ÑģÑĤÐ°": 667,
      "Ð»Ð¾ÐºÑģ": 668,
      "ĠÐ¿Ð¾Ðº": 669,
      "ĠÐ»ÑİÐ±": 670,
      "ÑĤÑĭ": 671,
      "ÑĥÐ»": 672,
      "Ð°Ð½Ð¸Ðµ": 673,
      "ÐµÑĤÑĮ": 674,
      "ĠÐ¿Ð¾ÑĤ": 675,
      "Ð¾Ð±ÑĢ": 676,
      "ÐµÑĢÐ°": 677,
      "or": 678,
      "ĠÐ³Ð¾Ð²Ð¾ÑĢ": 679,
      "ÐµÑĢÑĮ": 680,
      "Ð¸ÑĤÑģÑı": 681,
      "Ð°ÐµÑĤÑģÑı": 682,
      "ĠÐ½Ð¾Ð²": 683,
      "ÑĥÐ½": 684,
      "Ð¸Ñı": 685,
      "ĠÐł": 686,
      "ĠÑĨ": 687,
      "ĠÐºÐ»": 688,
      "ĠÑĤÐµÐ±Ðµ": 689,
      "ĠÐ¾Ñĩ": 690,
      "Ð¾Ð·Ð´": 691,
      "Ð°ÑģÑĤ": 692,
      "ĠÑĩÐ°Ñģ": 693,
      "ĠÐ¿ÑĢÐµÐ´": 694,
      "ĠÐ¿ÑĢÐ¸Ð²ÐµÑĤ": 695,
      "ÐĴÑģÐµÐ¼": 696,
      "ys": 697,
      "ra": 698,
      "Ð°ÑĪ": 699,
      "Ð¾Ð±Ñī": 700,
      "me": 701,
      "ĠÐ·Ð°Ð´": 702,
      "ÐļÑĤÐ¾": 703,
      "st": 704,
      "ht": 705,
      "Ð¾Ð´Ðµ": 706,
      "â£": 707,
      "ÐºÐµ": 708,
      "ĠÐ¿ÑĢÐ°Ð²": 709,
      "ĠÐ°Ð½": 710,
      "Ð½Ð¾Ð²": 711,
      "ĠÐ³Ð´Ðµ": 712,
      "ĠÐŃ": 713,
      "ĠÐ¼Ð¾Ð¶ÐµÑĤ": 714,
      "ĠÐ¿Ð¾Ñĩ": 715,
      "ĠÑĢÐ¾Ð±Ð»Ð¾ÐºÑģ": 716,
      "ÑĩÐ°Ñģ": 717,
      "mart": 718,
      "ĠÐ½Ð°Ñĩ": 719,
      "ÑģÑĤÑĢ": 720,
      "ĠÐ²Ð¾Ð¾Ð±ÑīÐµ": 721,
      "ÐĲÐĲÐĲÐĲ": 722,
      "Ð°Ð¹ÑĤÐµ": 723,
      "ĠÑĩÑĤÐ¾Ð±Ñĭ": 724,
      "ÑİÑĤ": 725,
      "ĠÐ½ÑĥÐ¶": 726,
      "kys": 727,
      "kysmart": 728,
      "ÑģÐ»Ð¸": 729,
      "ĠÐ´Ð°": 730,
      "Ð°ÑĤÐµÐ»ÑĮ": 731,
      "ÑĥÑĪ": 732,
      "Ð¸Ð±Ð¾": 733,
      "ĠÑģÐ²Ð¾": 734,
      "Ð§ÑĤÐ¾": 735,
      "ĠĠĠ": 736,
      "ÑĢÐ°ÑĤÑĮ": 737,
      "Ð¢Ñĭ": 738,
      "ĠÑģÐ¾Ð¾Ð±Ñī": 739,
      "Ð»ÐµÐº": 740,
      "Ð»Ðµ": 741,
      "ÑĩÐ¸ÑĤ": 742,
      "ĠÐ£": 743,
      "ÑģÑĤÐ¸": 744,
      "ĠÐ¼Ð¾Ð³Ñĥ": 745,
      "ĠÐ»ÐµÑĤ": 746,
      "ĠÐ³Ð¾Ð´": 747,
      "Ð°ÑĨÐ¸": 748,
      "Ġ`": 749,
      "ÑĬ": 750,
      "ÐºÐ¸Ð¹": 751,
      "re": 752,
      "ÑĭÑħ": 753,
      "Ð²ÐµÑĤ": 754,
      "Ð¸Ð»ÑĮ": 755,
      "ĠÐ§": 756,
      "ĠÐ´Ð²": 757,
      "ĠÐ²ÑģÑĳ": 758,
      "Ð¾ÑĢÐ¾ÑĪ": 759,
      "ÐµÐ¹ÑĩÐ°Ñģ": 760,
      "Ð°Ð½Ð¸Ñı": 761,
      "Ð¬": 762,
      "ÑģÑĭÐ»": 763,
      "ÑĥÑĢ": 764,
      "ĠÑħÐ¾ÑĩÑĥ": 765,
      "ĠÐ·Ð°Ðº": 766,
      "Ð¾Ð¶Ð½Ð¾": 767,
      "//": 768,
      "th": 769,
      "ĠÐ´ÐµÐ»Ð°ÑĤÑĮ": 770,
      "Ðĸ": 771,
      "ĠÐĹ": 772,
      "âĢĶ": 773,
      "ĠÐ¿Ð»": 774,
      "ĠÑĢÐ°Ð±Ð¾ÑĤ": 775,
      "ĠÐ¾ÑĩÐµÐ½ÑĮ": 776,
      "tp": 777,
      "ĠÐ·Ð°Ð±": 778,
      "ĠÐ½Ð°Ð¿Ð¸Ñģ": 779,
      "ĠÑħÐ¾ÑĤ": 780,
      "ĠÑĢÐ°Ð²": 781,
      "ÐµÑģÑĮ": 782,
      "ĠÐºÐ°Ð¶": 783,
      "en": 784,
      "ĠÑĤÐ²": 785,
      "ĠÐ°Ð²": 786,
      "ÑģÑĤÑĮ": 787,
      "ĠÐ¿Ð¾Ð¿": 788,
      "Ð¾Ð´Ð½Ñı": 789,
      "Ð¼Ð¾ÑĤÑĢ": 790,
      "ĠÐ²ÐµÑĢ": 791,
      "Ð¾ÑģÑĮ": 792,
      "ÑĳÑĤ": 793,
      "ÐµÐ³Ð¾Ð´Ð½Ñı": 794,
      "ĠÑģÐ»Ð¾Ð²": 795,
      "http": 796,
      "ĠÐ¼Ð¸Ð½": 797,
      "ĠÐ¸Ð³ÑĢÐ°": 798,
      "Ð¸ÑģÑĤ": 799,
      "ÐľÐ½Ðµ": 800,
      "ĠÑĥÑĤ": 801,
      "ĠÑģÐºÐ°Ð·": 802,
      "ÑıÑĤÑĮ": 803,
      "ĠÐ²ÑĢÐµÐ¼": 804,
      "ĠÐ¿Ð¸Ñģ": 805,
      "Ð´Ð¸": 806,
      "ÐºÑĤ": 807,
      "Ð¸ÑĪÑĮ": 808,
      "://": 809,
      "Ð¾Ð¶Ð°Ð»": 810,
      "Ð°ÑģÑĮ": 811,
      "ĠÐ±ÑĭÐ»": 812,
      "li": 813,
      "ĠÐºÐ»Ð°ÑģÑģ": 814,
      "$.": 815,
      "ĠÐ²ÑģÐµÐ¼": 816,
      "ĠÐ´ÑĥÐ¼": 817,
      "lo": 818,
      "Ð°Ð¶Ðµ": 819,
      "ĠÑĩÐµÐ»Ð¾Ð²": 820,
      "Ð¢Ð°Ðº": 821,
      "ĠÑĢÐ°Ñģ": 822,
      "ĠÐ¸ÑģÐ¿": 823,
      "âĿ": 824,
      "ĠÐ±ÑĥÐ´Ñĥ": 825,
      "ĠÐ´Ð¾Ð»": 826,
      "ðŁĻ": 827,
      "ĠÐ²Ð¾ÑĤ": 828,
      "Ð¸Ð½Ð°": 829,
      "ĠÐ¾ÑĤÐ¿ÑĢÐ°Ð²": 830,
      "Ġ:": 831,
      "ÑĢÐ°Ð·": 832,
      "ĠÐ¸Ñħ": 833,
      "ÐµÑħ": 834,
      "Ġ10": 835,
      "Ð¸ÐºÐ°": 836,
      "ÐµÐ±ÑıÑĤ": 837,
      "ĠÑįÑĦ": 838,
      "Ð°Ð°Ð°Ð°Ð°Ð°Ð°Ð°": 839,
      "ĠÐ²Ð¾Ð·": 840,
      "ĠÐ±Ð¾Ð»ÑĮÑĪÐµ": 841,
      "Ð°Ð½Ð´": 842,
      "ĠÐ¾Ð¿": 843,
      "ÑĳÐ¼": 844,
      "ÑĢÐ°ÑĤ": 845,
      "âłĢ": 846,
      "Ð°Ð»Ð»": 847,
      "ÑģÑĤÐ²Ð¾": 848,
      "Ġ0": 849,
      "Ð¥ÐĲÐ¥ÐĲÐ¥": 850,
      "Ð°Ð»ÑĮÐ½Ð¾": 851,
      "co": 852,
      "ĠÐ¿ÐµÑĢÐ²": 853,
      "ĠÑģÐµÐ¹ÑĩÐ°Ñģ": 854,
      "ðŁı": 855,
      "ĠÐ°ÑĢ": 856,
      "ĠÐºÐ°ÑĢÑĤ": 857,
      "Ð°ÑģÐ¸Ð±Ð¾": 858,
      "Ð»ÑİÑĩ": 859,
      "Ð»Ð¸Ð½": 860,
      "ri": 861,
      "ĠÑĥÐ¼": 862,
      "ĠÐĽ": 863,
      "Ð»ÐµÐ½": 864,
      "ĠÑĥÐ´": 865,
      "ĠÐ³ÑĢÑĥ": 866,
      "ÐµÐ»Ð¸": 867,
      "ĠÐķ": 868,
      "ÐµÑĨ": 869,
      "ĠÐ¿Ð¸ÑĪ": 870,
      "ÑĥÐ´Ð°": 871,
      "ĠÐ¾Ð½Ð°": 872,
      "ĠÑģÐ¼Ð¾ÑĤÑĢ": 873,
      "ĠÐ¾Ñģ": 874,
      "ÐµÐ½Ð¸Ð¹": 875,
      "Ð°ÑĤÑĮÑģÑı": 876,
      "Ġ6": 877,
      "Ð¿Ð¿": 878,
      "ĠÐ»ÑĥÑĩ": 879,
      "Ð»ÐµÐºÑģ": 880,
      "ĠÐ´ÐµÐ½ÑĮ": 881,
      "ĠÐ²Ð°Ñģ": 882,
      "10": 883,
      "ÐµÐ¿ÐµÑĢÑĮ": 884,
      "99": 885,
      "ÑĨÐ°": 886,
      "ÑĤÐ°": 887,
      "Ð²ÐµÑĢ": 888,
      "ĠÐ¼Ð¾Ð´": 889,
      "ĠÐ´Ð¾Ð±": 890,
      "ÐŀÐŀ": 891,
      "++": 892,
      "ĠÑģÑģÑĭÐ»": 893,
      "ÑıÐ¼": 894,
      "ĠÐ¼Ð½Ð¾Ð³Ð¾": 895,
      "ÐºÐ¾Ð»": 896,
      "ÑĥÐ¶": 897,
      "ÐµÐ»Ð°": 898,
      "ÐµÑģÑı": 899,
      "ĠÑĩÐ¸Ñģ": 900,
      "Ð¸ÑĢÐ¾Ð²": 901,
      "ĠÐ½Ð°Ð·": 902,
      "ÑĢÐ°Ð¼": 903,
      "ĠÐºÑĢÑĥ": 904,
      "ĠÐ¸Ð½ÑĤÐµÑĢ": 905,
      "Ð»ÐµÐ´": 906,
      "ĠÐ·Ð°Ð²": 907,
      "ÑĮÑİ": 908,
      "ĠÐ°Ð´": 909,
      "20": 910,
      "ÑĢÐ¾Ðº": 911,
      "Ð¾Ð¶Ð°Ð»ÑĥÐ¹": 912,
      "ĠÑĩÐµÑĢ": 913,
      "Ð¸Ð½Ñĥ": 914,
      "ĠÑĤÐ¾Ñĩ": 915,
      "Ð¸ÑĤÐµÐ»ÑĮ": 916,
      "ĠÐ½Ð¾Ñĩ": 917,
      "ÑĢÐ°Ð½": 918,
      "ÑĦÐ¾Ð½": 919,
      "â£¿": 920,
      "Skysmart": 921,
      "ĠÐ±ÑĭÑĤÑĮ": 922,
      "âĸ": 923,
      "ĠÑĤÐ¸Ð¿": 924,
      "ĠÐ¿ÑĢÐ¸": 925,
      "ĠÐ´Ð½": 926,
      "ĠÐ¾Ð½Ð¸": 927,
      "ĠÐ»Ð¸": 928,
      "ĠÐ´Ð°Ð¶Ðµ": 929,
      "ĠÑħÐ¾ÑĢÐ¾ÑĪ": 930,
      "https": 931,
      "Ð¾Ð¶Ð°Ð»ÑĥÐ¹ÑģÑĤÐ°": 932,
      "ĠÐ¸ÑģÐ¿Ð¾Ð»ÑĮÐ·": 933,
      "ĠÐ±ÐµÐ·": 934,
      "ÑģÑĤÐ°ÑĤ": 935,
      "ĠÑĢÐ¾Ð±ÑĥÐº": 936,
      "ĠÐ·Ð½": 937,
      "ti": 938,
      "}{": 939,
      "Ð°Ð¹ÑĤÐ¸": 940,
      "ĠÑģÐµÐ±": 941,
      "Ð¢Ðŀ": 942,
      "rac": 943,
      "Ð½ÑĥÑİ": 944,
      "ÑĥÑĥ": 945,
      "ĠÑģÐµÐ³Ð¾Ð´Ð½Ñı": 946,
      "ĠÑģÐ¾Ð·Ð´": 947,
      "ĠÑī": 948,
      "ĠÐĵ": 949,
      "ðŁĶ": 950,
      "ĠÐ²Ð°ÑĢ": 951,
      "ÑĢÐµ": 952,
      "ĠÐ½ÑĥÐ¶Ð½Ð¾": 953,
      "ĠÐºÐ¾Ð³Ð¾": 954,
      "ĠÑĤÐµÐ»": 955,
      "ÐµÑĤÐµ": 956,
      "el": 957,
      "ĠÐ¿Ð°ÑĢ": 958,
      "Ð¡Ð¿": 959,
      "ĠÑįÑĤÐ¾Ð³Ð¾": 960,
      "Ġ?": 961,
      "Ð¼Ð¸Ð½": 962,
      "ÑĥÐ³": 963,
      "Ð½ÑĭÐ¼": 964,
      "Ð¿Ð¾Ð»": 965,
      "Ġs": 966,
      "Ġ,": 967,
      "ÑĢÐ¸": 968,
      "ÐºÑĨÐ¸": 969,
      "frac": 970,
      "ĠÑģÑĤÑĢÐ¸Ð¼": 971,
      "ĠÐ¸Ñģ": 972,
      "Ð·Ñı": 973,
      "ĠÑģÐ´ÐµÐ»Ð°ÑĤÑĮ": 974,
      "Ġ7": 975,
      "ĠÐºÐ°ÐºÐ¾Ð¹": 976,
      "ĠÐŃÑĤÐ¾": 977,
      "Ð¤": 978,
      "al": 979,
      "ÑıÐ²": 980,
      "ĠÐ½Ð°Ð²": 981,
      "Ð¸ÑģÑĮ": 982,
      "Ð¸ÑĩÐµÐ³Ð¾": 983,
      "ĠÐ²ÑĢÐ¾Ð´Ðµ": 984,
      "ÐµÐ´ÐµÐ»": 985,
      "as": 986,
      "ĠÐ²ÑģÐµÑħ": 987,
      "Ð¾Ð¾Ð¾Ð¾": 988,
      "ÑĤÑĢÐ°": 989,
      "Ð·Ð°": 990,
      "ĠÐ±Ð¾ÑĤ": 991,
      "Ð¸ÑĤÑĮÑģÑı": 992,
      "ÑįÑĤ": 993,
      "à£": 994,
      "âłĢâłĢ": 995,
      "ĠÐºÐ¾ÑĢ": 996,
      "ĠÐ½Ð°ÑĪ": 997,
      "Ð¾Ð¿ÑĢÐ¾Ñģ": 998,
      "ÐµÐ½Ð½Ð¾": 999,
      "Ð¨": 1000,
      "ĠÐ½Ð¾ÑĢÐ¼": 1001,
      "Ð°ÐµÐ¼": 1002,
      "ĠÐ¼Ð°ÑĤ": 1003,
      "Ð¸ÐºÐ¸": 1004,
      "ĠÐºÐ°Ð¶Ð´": 1005,
      "ĠÑĪÐºÐ¾Ð»": 1006,
      "ĠÑģÐºÐ¾Ð»ÑĮÐºÐ¾": 1007,
      "Ð½Ð¾Ð¼": 1008,
      "ĠÐ¾Ð±ÑĬ": 1009,
      "ĠÑĩÐµÐ¼": 1010,
      "ĠÐºÐ¾Ð»": 1011,
      "ĠÐµÑīÐµ": 1012,
      "ĠÑģÐ»ÐµÐ´": 1013,
      "ĠÐ¼Ð¾Ð¹": 1014,
      "âĿ¤": 1015,
      "Ð¸Ð¶": 1016,
      "Ð¸ÑĩÐµÑģ": 1017,
      "ĠÐ¿Ð¾Ð¶Ð°Ð»ÑĥÐ¹ÑģÑĤÐ°": 1018,
      "Ð°Ð´Ð½Ð¾": 1019,
      "ĠÑĢÐµÑĪ": 1020,
      "ÑįÑĤÐ¾": 1021,
      "à¹": 1022,
      "ÐµÑĢÐ¶": 1023,
      "ðŁį": 1024,
      "ĠÐ´Ð¾Ð¼": 1025,
      "ĠÐ´Ð¾Ð»Ð¶": 1026,
      "âĺ": 1027,
      "Ð·Ñĭ": 1028,
      "Ð½Ñİ": 1029,
      "ĠÐ¿Ð¾ÑĤÐ¾Ð¼": 1030,
      "ÐŁÑĢÐ¸Ð²ÐµÑĤ": 1031,
      "ÑıÑĤÐ½Ð¾": 1032,
      "ĠÑĤÐ°ÐºÐ¾Ðµ": 1033,
      "Ð¼Ñĥ": 1034,
      "ĠÐ¾ÑĤÐº": 1035,
      "!!!!": 1036,
      "ĠÐ´Ð°Ð²": 1037,
      "it": 1038,
      "ĠÐ¼ÐµÑģÑı": 1039,
      "Ġ8": 1040,
      "Ð¸ÑĢÐ°": 1041,
      "Ð°ÐµÑĪÑĮ": 1042,
      "Ð°ÑĢÐ¼": 1043,
      "ÑģÑĤÐ°ÑĤÐ¸": 1044,
      "ĠÐ¾Ð´Ð¸Ð½": 1045,
      "ÑįÑĤÐ¾Ð¼Ñĥ": 1046,
      "ÐķÑģÐ»Ð¸": 1047,
      "âģ": 1048,
      "0000": 1049,
      "ĠÐ¿Ð¾Ð½Ñı": 1050,
      "ÑĩÑĤÐ¾": 1051,
      "Ð¾ÐºÐ¾Ð¹": 1052,
      "ĠÐ¾Ð±Ñī": 1053,
      "Ð°Ð»Ð¾": 1054,
      "ĠÑĩÐµÐ»Ð¾Ð²ÐµÐº": 1055,
      "ÐĿÐµÑĤ": 1056,
      "ĠÐºÐ¾Ð¼Ð¿": 1057,
      "Ð¾Ñī": 1058,
      "ĠÐ²Ð°Ð¼": 1059,
      "ÐºÑĤÐ¸Ð²": 1060,
      "ĠÐ³Ð¾ÑĢ": 1061,
      "Ð°Ð»ÑģÑı": 1062,
      "Ġ|": 1063,
      "ÑĥÐ´ÑĮ": 1064,
      "ÑĢÐ¸Ñģ": 1065,
      "ÐĻ": 1066,
      "ĠÐ¿Ð¾ÐºÐ°": 1067,
      "Ð¡Ðº": 1068,
      "ÑĢÐ¾Ð²": 1069,
      "$,": 1070,
      "ÐĴÐ¥": 1071,
      "ĊĠĠĠĠ": 1072,
      "ĠÐ±Ð°Ð½": 1073,
      "Ð²Ñģ": 1074,
      "ĠÐ¿Ð¾Ð½Ð¸Ð¼": 1075,
      "ĠÐ³ÑĢÑĥÐ¿Ð¿": 1076,
      "ÑħÐ¾Ð´Ð¸ÑĤ": 1077,
      "ch": 1078,
      "ðŁĺį": 1079,
      "ÐµÑİ": 1080,
      "ĠÐ¾ÑĤÐ²ÐµÑĤ": 1081,
      "ĠÐ¶Ð¸Ð²": 1082,
      "â£¿â£¿": 1083,
      "ĠÑĩÐµÑĢÐµÐ·": 1084,
      "ĠÑĢÐµ": 1085,
      "ĠÑįÑĤÐ¾Ð¼": 1086,
      "ÐºÐ°Ðº": 1087,
      "ðŁĺĤ": 1088,
      "ĠÐ¿Ð¾ÑĢ": 1089,
      "rob": 1090,
      "ĠÐ²Ð¸Ð´Ðµ": 1091,
      "ĠÐ¿Ð¾ÑĩÐµÐ¼Ñĥ": 1092,
      "ĠÐ¸Ð½ÑĤÐµÑĢÐµÑģ": 1093,
      "ÑģÐ¾Ð²": 1094,
      "ÐºÐ¾Ð¹": 1095,
      "ðŁĴĢ": 1096,
      "ĠÑĤÐ¾Ð³Ð´Ð°": 1097,
      "ĠÐ¥": 1098,
      "ÑģÐºÐ¸Ð¹": 1099,
      "ĠÐ¿ÑĢÐ¾Ð³": 1100,
      "Ð¾ÑĦ": 1101,
      "ĠÐ»ÑĥÑĩÑĪÐµ": 1102,
      "ĠÐ²Ð¾Ð¿ÑĢÐ¾Ñģ": 1103,
      "ĠÐ¾Ðº": 1104,
      "ĠÐ³Ð¾Ð»": 1105,
      "Ð½Ð°Ñĩ": 1106,
      "ou": 1107,
      "ÑĢÐ°ÑĪ": 1108,
      "Ġ9": 1109,
      "ĠÐ²ÑĢÐµÐ¼Ñı": 1110,
      "ÑĢÐ¾Ð±": 1111,
      "ĠÐºÐ¾ÑĤÐ¾ÑĢÑĭÐ¹": 1112,
      "ĠÑģÐºÑĢ": 1113,
      "Ġb": 1114,
      "Ð¸Ð¼ÐµÑĢ": 1115,
      "ÑĤÐ¾ÑĢÐ°": 1116,
      "ĠÐ½Ð¸ÑĩÐµÐ³Ð¾": 1117,
      "ĠÑģÐ¾Ð±": 1118,
      "ÐµÐºÑĤ": 1119,
      "Ð°Ð¹ÑĤ": 1120,
      "ĠÐ´Ð¾Ð±Ð°Ð²": 1121,
      "ÐºÐ¾Ð¼": 1122,
      "pro": 1123,
      "Ġ20": 1124,
      "ÑĢÐ°Ð»": 1125,
      "ĠÐ½Ð¾ÑĩÐ¸": 1126,
      "âĿ¤ï¸ı": 1127,
      "ĊĠĠĠ": 1128,
      "ĠÑģÐ»ÑĥÑĩ": 1129,
      "Ġ$\\": 1130,
      "ÑıÐ·": 1131,
      "Ð¾ÑĩÐµÐ¼Ñĥ": 1132,
      "ðŁ¥°": 1133,
      "ĠÐ´Ð°Ð½": 1134,
      "ĠÐ³Ð»": 1135,
      "Ð¿Ñħ": 1136,
      "Ð½Ð¾ÑģÑĤÑĮ": 1137,
      "ÑĭÐ¼": 1138,
      "ÑĥÑģÑĤ": 1139,
      "ĠÑīÐ°Ñģ": 1140,
      "ĠÐ±ÑĭÐ»Ð°": 1141,
      "Ġd": 1142,
      "ĠÐ¼Ð¸Ð½ÑĥÑĤ": 1143,
      "ÑĥÐ»ÑĮ": 1144,
      "ab": 1145,
      "Ð¾Ñĥ": 1146,
      "Bot": 1147,
      "ĠA": 1148,
      "áħ": 1149,
      "áħł": 1150,
      "ĠÐ¿Ð¶": 1151,
      "ĠÐ¿Ð»Ð¾": 1152,
      "ĠÑĤÐ²Ð¾": 1153,
      "ÐµÐ»ÑĮÐ·Ñı": 1154,
      "ĠÐ¸Ð³ÑĢÑĥ": 1155,
      "ÐĲÐĽ": 1156,
      "ÐķÐķ": 1157,
      "ĠÑįÑĤÐ¾ÑĤ": 1158,
      "ĠÐ¿ÑĢÐ¾ÑĪ": 1159,
      "ÐµÐ½Ñĭ": 1160,
      "ÑĥÐ½ÐºÑĨÐ¸": 1161,
      "ĠâĢĶ": 1162,
      "ĠÐ¿Ð¾Ð²": 1163,
      "ĠÐ±ÑĥÐ´ÑĥÑĤ": 1164,
      "âķ": 1165,
      "ĠÑĩÐ°ÑĤÐµ": 1166,
      "ĠÐ±Ð¾Ð»": 1167,
      "ÑģÑĤÑĢÐ¾": 1168,
      "ðŁĴĭ": 1169,
      "ÐĿÐ°": 1170,
      "11": 1171,
      "ĠÐ»Ñģ": 1172,
      "ÐłÐµÐ±ÑıÑĤ": 1173,
      "ÐĴÑĭ": 1174,
      "ĠÑĥÐ²": 1175,
      "Ð»ÐµÐ¼": 1176,
      "ĠÐ·Ð´": 1177,
      "ĠÐ¿Ð¾ÑģÐ¼Ð¾ÑĤÑĢ": 1178,
      "ĠÐ¶Ð¸Ð·": 1179,
      "ÑĥÑħ": 1180,
      "ĠÑĤÐµÐ¿ÐµÑĢÑĮ": 1181,
      "Ġi": 1182,
      "Ġf": 1183,
      "Ð¼Ð¾Ð¶Ð½Ð¾": 1184,
      "((": 1185,
      "Ġn": 1186,
      "ĠÐ±Ð°Ð»Ð»": 1187,
      "ĠP": 1188,
      "ĠÑģÑĤÑĢÐ¾": 1189,
      "ĠÐ½Ð°Ð¹ÑĤÐ¸": 1190,
      "ww": 1191,
      "ĠÐ·Ð°Ð½": 1192,
      "Ð¸Ð»ÑģÑı": 1193,
      "ĠÑģÐµÑĢ": 1194,
      "ĠÑĤÐ°ÐºÐ¾Ð¹": 1195,
      "and": 1196,
      "ÑģÑĤÐ°Ð½": 1197,
      "Ġt": 1198,
      "ÑıÑģ": 1199,
      "ÐĴÐ¾ÑĤ": 1200,
      "ÐµÐ³Ð´Ð°": 1201,
      "Ð½ÐµÐµ": 1202,
      "ðŁŁ": 1203,
      "áħłáħł": 1204,
      "ĠÑĥÑĢÐ¾Ðº": 1205,
      "ÑģÐ»": 1206,
      "Ð¼Ð°": 1207,
      "Ð²Ð°ÑĤ": 1208,
      "ÐºÐ»ÑİÑĩ": 1209,
      "Ð¸ÑĦ": 1210,
      "Ð°ÑĢÐ°": 1211,
      "ÐĿÐ¾": 1212,
      "ÑĭÐ»": 1213,
      "ÑĨÐµÐ½": 1214,
      "Ġp": 1215,
      "ĠÐ·Ð½Ð°Ñĩ": 1216,
      "50": 1217,
      "ÑıÐ´": 1218,
      "ĠÐºÐ¾Ð´": 1219,
      "Ð½ÐµÑĤ": 1220,
      "ĠÐ¿Ð¾Ð·": 1221,
      "et": 1222,
      "ĠÑĢÐ°Ð²Ð½Ð¾": 1223,
      "Ð°ÑĢÐ¼Ð¸Ð»": 1224,
      "ĠÐ½ÐµÐ³Ð¾": 1225,
      "ĠÑĩÐ¾": 1226,
      "Ð¸ÑĤÐµÐ»": 1227,
      "ĠÑģÑĤÐ°ÑĢ": 1228,
      "Ð¸Ñİ": 1229,
      "ĠÑĤÐ¾Ð³Ð¾": 1230,
      "ĠÐ¿ÑĢÐ¾Ð²": 1231,
      "ĠÐŁÑĢ": 1232,
      "ĠÐ»ÑİÐ´": 1233,
      "ÑĭÑĩ": 1234,
      "ĠÑĤÐµÐ¼": 1235,
      "ÐĲÐĹ": 1236,
      "ĠÐ¿Ð¸ÑģÐ°ÑĤÑĮ": 1237,
      "Ð¾Ð±ÑĢÐ¾Ðµ": 1238,
      "ÑĩÐ¸Ðº": 1239,
      "Ġ'": 1240,
      "Ð¼Ð½Ðµ": 1241,
      "Ð¼Ñĭ": 1242,
      "ÐķÐĿ": 1243,
      "ĠÐ²ÑĭÐ±": 1244,
      "Ð¾ÑģÐº": 1245,
      "ÑĤÑĢ": 1246,
      "ÑĮÑı": 1247,
      "ĠÐºÐ°Ð½": 1248,
      "ĠÑĤÐµÐ»Ðµ": 1249,
      "ĠÐºÐ¾ÑĤÐ¾ÑĢÑĭÐµ": 1250,
      "ĠÐ½ÐµÐ»ÑĮÐ·Ñı": 1251,
      "Ð°Ð¹Ð½": 1252,
      "ĠÐºÐ²": 1253,
      "ĠÐ»Ð°Ð³": 1254,
      "ĠÐ°Ð´Ð¼Ð¸Ð½": 1255,
      "Ð°Ð½ÑĤ": 1256,
      "000": 1257,
      "Ð½Ð¸Ð¼": 1258,
      "ÑıÑı": 1259,
      "ĠÐ±ÐµÑģ": 1260,
      "ĠÐ°Ð½Ð³": 1261,
      "ÑģÐ°": 1262,
      "ĠÑĦÑĥÐ½ÐºÑĨÐ¸": 1263,
      "Ð¥ÐĲÐ¥": 1264,
      "ðŁ«": 1265,
      "Ġc": 1266,
      "Ð³ÑĢ": 1267,
      "ĠÐ¿Ð¾Ð¹": 1268,
      "âģł": 1269,
      "ĠÐ½Ð°Ð¼": 1270,
      "ÐµÐ½Ð°": 1271,
      "ÑĥÑİÑī": 1272,
      "ĠÑĤÐµÐ»ÐµÑĦÐ¾Ð½": 1273,
      "????": 1274,
      "ĠÑĥÑĩÐ°ÑģÑĤ": 1275,
      "Ð½ÐµÐ½Ð¸Ðµ": 1276,
      "ÐµÑĢÑĭ": 1277,
      "ĠÐºÐ¾Ð¼Ð°Ð½": 1278,
      "mat": 1279,
      "ÐŀÐ½": 1280,
      "ĠÑĥÑĤÑĢÐ¾": 1281,
      "ÑĤÐ°Ðº": 1282,
      "ĠÐ´ÐµÐ²": 1283,
      "ÐµÑĩÐ½Ð¾": 1284,
      "ĠÐºÐ¾ÑĤ": 1285,
      "Ð¿Ð¸Ñģ": 1286,
      "ðŁĮ": 1287,
      "ru": 1288,
      "âĢ£": 1289,
      "ĠÑįÑĦÐ¸ÑĢ": 1290,
      "ĠÐ±Ð¾Ð»ÑĮÑĪ": 1291,
      "Ð»Ð°Ð´": 1292,
      "ĠÑģÐ¿Ð°Ð¼": 1293,
      "ÑĭÐ²Ð°ÑĤÑĮ": 1294,
      "ĠÐ¿ÑĢÐ¸Ðº": 1295,
      "ĠÐ¿ÑĢÐ¾Ð±": 1296,
      "ĠÐºÑĢÐ°Ñģ": 1297,
      "ÑĮÑĤÐµ": 1298,
      "ĠÐ¿ÑĢÐ¾Ð³ÑĢÐ°Ð¼": 1299,
      "ðŁĺ¡": 1300,
      "ÑĳÐ»": 1301,
      "ĠÑģÑĤÐ¸Ðº": 1302,
      "Ð¾ÐºÐ¾Ð¹Ð½Ð¾Ð¹": 1303,
      "ĠÑģÐºÐ¸Ð½": 1304,
      "ĠÐ¼Ð¾Ð³": 1305,
      "ĠÐ·Ð°Ð²ÑĤÑĢÐ°": 1306,
      "ÑĥÐµÑĤ": 1307,
      "âľ": 1308,
      "ĠÐ°ÐºÑĤÐ¸Ð²": 1309,
      "ÐºÑĥÑĢ": 1310,
      "Ð»ÑıÑĤÑĮ": 1311,
      "ĠÐ»ÐµÐ³": 1312,
      "ÑĨÐ¸Ð¸": 1313,
      "ĠÐ¿Ð¾Ð»ÑĮÐ·": 1314,
      "ĠÑĩÐµÐ³Ð¾": 1315,
      "ing": 1316,
      "ĠÐĿÐķ": 1317,
      "Ð¿ÑĢÐµÐ´ÐµÐ»": 1318,
      "ĠÑĢÐ¸Ñģ": 1319,
      "ĠÐ´ÑĢÑĥÐ·": 1320,
      "ÑĢÐ°ÑĦ": 1321,
      "ĠÐ¿ÑĢÐ¸Ð·": 1322,
      "com": 1323,
      "ame": 1324,
      "Ð©": 1325,
      "ĠÐ¿Ð¾Ð¼Ð¾Ñī": 1326,
      "Ð¾ÑģÑĤ": 1327,
      "ĠÐ·Ð°Ð¼": 1328,
      "ĠÐ½Ð°Ð²ÐµÑĢ": 1329,
      "ĠÑĢÐ±": 1330,
      "ÑĥÑĢÐ°": 1331,
      "ĠÐ¿ÑĢÐ¾Ð´": 1332,
      "?!": 1333,
      "ĠÑģÐ¾Ð²": 1334,
      "lox": 1335,
      "ĠÐ¿Ð¾ÑįÑĤÐ¾Ð¼Ñĥ": 1336,
      "ÑĨÐµ": 1337,
      "ÑĭÑĤ": 1338,
      "Ð¸ÑĩÐµ": 1339,
      "ĠÐ¿ÑĢÐ¸Ð´": 1340,
      "ĠÑıÐ²": 1341,
      "Ġx": 1342,
      "ðŁĺŃðŁĺŃðŁĺŃðŁĺŃ": 1343,
      "ĠS": 1344,
      "ĠÐ²ÑģÐµÐ³Ð¾": 1345,
      "Ð¸Ð¼Ð¸": 1346,
      "ÑĦÐ¾ÑĢÐ¼": 1347,
      "ik": 1348,
      "ĠÐ¿Ð¾ÑģÐ»ÐµÐ´": 1349,
      "ĠÐ½ÐµÐ¹": 1350,
      "Ð°Ð¼Ð°": 1351,
      "ĠÐŁÐŀ": 1352,
      "ÑĢÑĥÐ³": 1353,
      "Ġa": 1354,
      "ÑħÐ°ÑħÐ°Ñħ": 1355,
      "ĠÑģÐ»Ð¾Ð²Ð¾": 1356,
      "Ð¸ÑĢÑĥ": 1357,
      "Ð²ÐµÐ´": 1358,
      "ĠÐ²Ð¸Ð´ÐµÐ¾": 1359,
      "ĠÑĩÐ¸ÑĤ": 1360,
      "Ð¾Ð¶Ð´": 1361,
      "Ð¸Ð»Ð¾ÑģÑĮ": 1362,
      "ÑģÐ¼": 1363,
      "Ð°ÑĤÐµÐ»ÑĮÐ½Ð¾": 1364,
      "ĠÐ²ÑĭÐ¸Ð³": 1365,
      "``": 1366,
      "ĠÐ¿Ð¾ÑĤÐ¾Ð¼Ñĥ": 1367,
      "Ð»Ð¸Ðº": 1368,
      "Ð¾Ð¶ÐµÑĤ": 1369,
      "ĠÑģÑĤÐ¾": 1370,
      "ĠÐ¢Ð°Ðº": 1371,
      "Ġ12": 1372,
      "ĠÑĥÐ´Ð°Ð»": 1373,
      "ÑĨÑĭ": 1374,
      "Ð°ÑİÑģÑĮ": 1375,
      "ÐĲÐĲÐĲÐĲÐĲÐĲÐĲÐĲ": 1376,
      "**": 1377,
      "âĢį": 1378,
      "ÐºÑĤÐ¾": 1379,
      "ÐµÑĢÐ²": 1380,
      "ĠÐ¿ÑĢÐ¾Ñģ": 1381,
      "Ġ13": 1382,
      "ÑĤÐ°ÑĤ": 1383,
      "ĠÑĨÐµÐ»": 1384,
      "ĠÐ±Ð°Ð±": 1385,
      "ĠÑĥÐ±": 1386,
      "ĠÐ¿Ð»Ð¾Ñħ": 1387,
      "ĠÐ¿ÑĢÑıÐ¼": 1388,
      "ĠÐ¿Ð¾Ð»ÑĥÑĩÐ¸ÑĤÑĮ": 1389,
      "ÑĭÑĪ": 1390,
      "ĠÐ¸Ð´": 1391,
      "ĠÐ¿ÑĢÐ¸Ð½": 1392,
      "ðŁĺ±": 1393,
      "ÐĲÐļ": 1394,
      "),": 1395,
      "Ġm": 1396,
      "ĠÐ¼Ð¾Ð»": 1397,
      "ĠÐ¿Ð¾Ð±": 1398,
      "Ð¾ÑĢÑĤ": 1399,
      "Ð¾ÑĪ": 1400,
      "ĠÐ¸Ð³ÑĢÐ°ÑĤÑĮ": 1401,
      "Ð»Ð¸Ñĩ": 1402,
      "ĠÑģÑģÑĭÐ»ÐºÑĥ": 1403,
      "Ð¸Ð¶Ñĥ": 1404,
      "ÑįÑį": 1405,
      "ĠÐ¸Ð³ÑĢÑĭ": 1406,
      "Ð¾ÑĤÐ¾Ð²": 1407,
      "ĠÐ²ÑĤÐ¾ÑĢ": 1408,
      "ÑĢÐµÑĤ": 1409,
      "ĠÑħÐ¾ÑĢÐ¾ÑĪÐ¾": 1410,
      "ĠÐ»ÑİÐ±Ð»Ñİ": 1411,
      "ĠÐ¿ÑĢÐ¾Ð¸Ñģ": 1412,
      "ÐĲÐ¥ÐĲÐ¥ÐĲÐ¥ÐĲÐ¥": 1413,
      "ĠÐķÑģÐ»Ð¸": 1414,
      "ÑĢÐµÐ´": 1415,
      "Ð´Ð¸Ð½": 1416,
      "ĠÐ·Ð½Ð°ÑĩÐ¸ÑĤ": 1417,
      "ðŁĺİ": 1418,
      "ĠÐ½ÑĢÐ°Ð²": 1419,
      "ÐµÑĢÐµ": 1420,
      "ðŁĶ¥": 1421,
      "ÑģÑĤÑĥÐ¿": 1422,
      "ĠÐ¼ÐµÑģÑıÑĨ": 1423,
      "go": 1424,
      "ÐŁÐ¥": 1425,
      "he": 1426,
      "ðŁĻĦ": 1427,
      "12": 1428,
      "Ð°Ð½Ð¾": 1429,
      "ĠÐ·Ð°ÑĢ": 1430,
      "ÐºÐ¸Ðµ": 1431,
      "Ð½ÑĥÐ»": 1432,
      "ÑĩÐ¸": 1433,
      "ÐµÑģÑĤÑĮ": 1434,
      "ĠÑģÐ¿Ð°ÑģÐ¸Ð±Ð¾": 1435,
      "ĠI": 1436,
      "ĠðŁ¤": 1437,
      "ĠÑĥÑģÐ¿": 1438,
      "ĠÑģÑİ": 1439,
      "ĠÐ½ÐµÐ¼": 1440,
      "Ġw": 1441,
      "ĠÐ½ÐµÐ´": 1442,
      "ĠÐĲÐ»ÐµÐºÑģ": 1443,
      "ĠC": 1444,
      "ĠÑĤÐ¾Ð¿": 1445,
      "Skysmartpro": 1446,
      "ĠÐ¿Ð¾ÑģÐ»Ðµ": 1447,
      "SkysmartproBot": 1448,
      "Ð¢Ð°Ð¼": 1449,
      "ĠÑģÐ¾Ð¾Ð±ÑīÐµÐ½Ð¸Ñı": 1450,
      "Ð½Ð¸Ð¹": 1451,
      "???": 1452,
      "ĠÑıÐ²Ð»Ñı": 1453,
      "ĠÑĢÐ¾Ð±ÑĥÐºÑģÑĭ": 1454,
      "ÑĤÐ¾ÑĢÐ°Ñı": 1455,
      "Ð»Ð¸Ð²": 1456,
      "Ð½Ð¾ÑģÑĤÐ¸": 1457,
      "de": 1458,
      "Ð°Ð½Ð°": 1459,
      "ĠÑģÐºÐ°Ð¶": 1460,
      "Ð»ÐµÐ½Ð¸Ðµ": 1461,
      "ÐµÑģÑĤÐ¾": 1462,
      "ĠÐ±Ð°Ð»Ð»Ð¾Ð²": 1463,
      "ÑĢÐ°Ñģ": 1464,
      "Ð°Ð»Ð°ÑģÑĮ": 1465,
      "ÐŁÐ¾": 1466,
      "ÑĥÐ·": 1467,
      "ÐŀÑĤ": 1468,
      "ÐķÐł": 1469,
      "ÑģÑĤÐ²Ð°": 1470,
      "ĠÐ½Ð¸": 1471,
      "ĠÐ¿ÑĢÐ¸ÑĪ": 1472,
      "Ð¼ÐµÑĤ": 1473,
      "Ð¾Ð´Ð°": 1474,
      "Ġ15": 1475,
      "ĠÑģÐµÐ±Ðµ": 1476,
      "ĠÐºÑĥÐ¿": 1477,
      "ĠÑģÐ²Ð¾Ð¹": 1478,
      "!!!": 1479,
      "Ð®": 1480,
      "Ġ11": 1481,
      "ĠB": 1482,
      "ÑĪÑĮ": 1483,
      "ĠÑĤÐ¾Ð¼": 1484,
      "Ð½ÑĭÐ¼Ð¸": 1485,
      "ÑĥÐ¹ÑĤÐµ": 1486,
      "ĠÑĢÐ°Ð´": 1487,
      "ÐľÑĭ": 1488,
      "ðŁİ": 1489,
      "âĶ": 1490,
      "ÐµÑī": 1491,
      "ĠÐ´ÐµÑĤ": 1492,
      "ĠÐ¾ÑģÑĤ": 1493,
      "ĠÑģÐµÐ±Ñı": 1494,
      "ĠÐ°Ðº": 1495,
      "ÐµÐ½Ð¸Ð¸": 1496,
      "ĠÐµÑĳ": 1497,
      "ÐĺÐĺ": 1498,
      "ĠÐ¿Ð¾Ð½Ð¸Ð¼Ð°Ñİ": 1499,
      "ĠÐ¿ÑĢÐ¸Ñģ": 1500,
      "um": 1501,
      "ðŁĹ": 1502,
      "Ð¾Ð½Ñĩ": 1503,
      "ÐºÑĥÑģ": 1504,
      "ĠÐºÐ¾Ð½ÐºÑĥÑĢ": 1505,
      "ĠÑģÐ°Ð¹ÑĤ": 1506,
      "Ð°Ð°Ð°Ð°Ð°Ð°Ð°Ð°Ð°Ð°Ð°Ð°Ð°Ð°Ð°Ð°": 1507,
      "Ð¸Ð¾": 1508,
      "Ð¾Ð¶Ñĥ": 1509,
      "ĠÑįÐº": 1510,
      "da": 1511,
      "ĠÐ¤": 1512,
      "Ð»Ð°Ñģ": 1513,
      "ĠÐ·Ð²": 1514,
      "ÐłÐŀ": 1515,
      "ĠÐºÐ¾Ð»Ð¸ÑĩÐµ": 1516,
      "ÐŁÐ¾ÑĩÐµÐ¼Ñĥ": 1517,
      "ĠÐ¿ÑĢÐ¸Ð²": 1518,
      "Ð¾ÐºÐ°": 1519,
      "ÑĤÐ¾ÑĢÐ¾Ð½": 1520,
      "ÑĢÐ°Ð´": 1521,
      "ÐµÐµÐµÐµ": 1522,
      "ĠÐ³Ð¾Ð´Ð°": 1523,
      "Ð¸Ð»ÑĮÐ½Ð¾": 1524,
      "rt": 1525,
      "ĠÐ¿Ð¾Ð½ÑıÐ»": 1526,
      "ÐĲÐĴ": 1527,
      "ÐµÑģÑģ": 1528,
      "ÐµÐ½Ð´": 1529,
      "ÐĲÐ¡": 1530,
      "ĠÑıÐ·Ñĭ": 1531,
      "ÐºÐ°Ñı": 1532,
      "ÑģÐºÐ°Ð·": 1533,
      "ÐĲÐ¢": 1534,
      "ĠÐ»ÑİÐ´ÐµÐ¹": 1535,
      "Ð¿Ð»": 1536,
      "se": 1537,
      "ÑĤÑĥ": 1538,
      "ĠÐ¾ÑģÐ½Ð¾Ð²": 1539,
      "__": 1540,
      "ĠÑģÐµÐº": 1541,
      "ÑħÐ°Ñħ": 1542,
      "ĠÐ²Ð·": 1543,
      "ĠR": 1544,
      "ĠÐ²Ð°ÑĢÐ½": 1545,
      "Ð»Ð¸Ð¹": 1546,
      "++++": 1547,
      "ðŁĺĺ": 1548,
      "ĠÐ¾Ð±ÑĢÐ°Ð·": 1549,
      "ĠÐ´ÑĥÐ¼Ð°Ñİ": 1550,
      "Â»": 1551,
      "Ð°Ð¹Ð´": 1552,
      ");": 1553,
      "ĠÐ¿Ð¾Ð»ÑĮÐ·Ð¾Ð²": 1554,
      "ĠÐ¿ÑĢÐ¾Ð¸ÑģÑħÐ¾Ð´Ð¸ÑĤ": 1555,
      "te": 1556,
      "Â«": 1557,
      "ĠÑģÐ¾Ð¾Ð±ÑīÐµÐ½Ð¸Ð¹": 1558,
      "ĠÐ²Ð°ÑĪ": 1559,
      "Ð»Ð¾Ð¶": 1560,
      "ÑĥÑĤÑĮ": 1561,
      "ÐµÑģÑĤÐµ": 1562,
      "ÐĲÐĿ": 1563,
      "Ð°ÑĨÐ¸Ñı": 1564,
      "ÑĩÐµÐ¼": 1565,
      "ĠÑĢÐ¾Ð´": 1566,
      "Ð²Ñĭ": 1567,
      "ÑĢÐ°Ñī": 1568,
      "ĠÐ±ÑĭÐ»Ð¸": 1569,
      "ÐĿÐŀ": 1570,
      "ĠD": 1571,
      "ĠÑģÑĤÐ¾ÑĢÐ¾Ð½": 1572,
      "ĠÑĢÑĥÑģ": 1573,
      "ĠÐ²ÑģÐµÐ³Ð´Ð°": 1574,
      "ĠÐ½ÐµÑĤÑĥ": 1575,
      "ÐµÐºÐ°": 1576,
      "à£§": 1577,
      "ÑģÑĤÐ²ÐµÐ½": 1578,
      "ĠÑħÐ¾ÑĩÐµÑĤ": 1579,
      "ĠÐ¿Ð¾Ð¼Ð½Ñİ": 1580,
      "ĠÑĥÐ·": 1581,
      "ĠÑģÐ¿Ð°ÑĤÑĮ": 1582,
      "Ð½ÐµÐ¹": 1583,
      "ĠÑĩÐ°ÑĤÐ°": 1584,
      "Ð°ÑĨÐ¸Ð¸": 1585,
      "à£§à£§": 1586,
      "Ð³Ð°": 1587,
      "yth": 1588,
      "Ð£ÑĢÐ°": 1589,
      "ĠÐµÐµ": 1590,
      "ĠÑĥÐ³": 1591,
      "ÐĺÐ¢": 1592,
      "ad": 1593,
      "Ð°ÑĤÐµÐ»": 1594,
      "Ġ100": 1595,
      "ve": 1596,
      "ĠÐ¸ÑģÑĤÐ¾ÑĢ": 1597,
      "ĠÐ¼Ð½Ð¾Ð¹": 1598,
      "Ð¸ÐºÑĥ": 1599,
      "Ð°ÑĩÐµ": 1600,
      "Ġy": 1601,
      "Ð²Ð¾Ð´": 1602,
      "ĠÑģÐ¿Ð¸Ñģ": 1603,
      "ĠÑģÑĤÑĥÐ´": 1604,
      "Ð¾ÑĩÐºÐ°": 1605,
      "il": 1606,
      "ÐµÑĢÑı": 1607,
      "ĠÐ»Ð¸Ñĩ": 1608,
      "Ð¸ÑĢÐ¾Ð²Ð°ÑĤÑĮ": 1609,
      "ĠÐ´Ð²Ð°": 1610,
      "ĠÑĥÐº": 1611,
      "Ð»Ð°Ð³": 1612,
      "ĠÑģÐºÐ¸Ð½Ñĥ": 1613,
      "ĠÐºÑģÑĤÐ°ÑĤÐ¸": 1614,
      "ĠÑĢÐ°Ð·ÑĢ": 1615,
      "ĠÑįÑĤÐ¾Ð¹": 1616,
      "ython": 1617,
      "ÑĤÐ¾Ñĩ": 1618,
      "ĠÐ¼Ð½": 1619,
      "ĠÑĢÐµÐº": 1620,
      "â¬": 1621,
      "ĠÑĥÑĢÐ°Ð²": 1622,
      "Ð°Ð½ÑĮ": 1623,
      "Ð°Ð¹ÑģÐ¼": 1624,
      "ĠÐ´ÑĢ": 1625,
      "Ð¾Ð½Ð°": 1626,
      "ĠÐ²ÑĭÐ¿Ð¾Ð»": 1627,
      "Ð»ÑıÑİ": 1628,
      "202": 1629,
      "ĠÐ¿Ð¾ÑıÐ²": 1630,
      "Ð¿Ð¾Ð¼": 1631,
      "15": 1632,
      "ÐºÐ¾Ð²": 1633,
      "ðŁĳį": 1634,
      "ÑĩÐµÑĢÐ°": 1635,
      "ce": 1636,
      "ĠÐ¿Ð¾ÑĪ": 1637,
      "ĠÑĦÐ¾ÑĢÐ¼": 1638,
      "Ã«": 1639,
      "ĠÐ¿ÑĢÐ¾Ð¿": 1640,
      "ĠÐ¿ÑĢÐ¾Ð¸Ð·": 1641,
      "Ð½Ð¸ÑĤÐµ": 1642,
      "ÑĢÐ¾Ð¼": 1643,
      "Ġ:)": 1644,
      "ĠÐµÐ¼Ñĥ": 1645,
      "ĠÑĩÐ°ÑģÐ°": 1646,
      "Ð°ÐµÑĤÐµ": 1647,
      "ĠÑĥÑĩÐ°ÑģÑĤÐ½Ð¸Ðº": 1648,
      "Ð¼Ð¼": 1649,
      "ðŁ¥³": 1650,
      "Ġth": 1651,
      "math": 1652,
      "skysmart": 1653,
      "ĠÐ½Ð°Ð±": 1654,
      "ÐĳÐ»Ð¸Ð½": 1655,
      "op": 1656,
      "un": 1657,
      "\",": 1658,
      "Ð¡Ð¿Ð°ÑģÐ¸Ð±Ð¾": 1659,
      "ĠÐ³Ð¾Ð»Ð¾Ñģ": 1660,
      "ĊĠĠĠĠĠĠĠ": 1661,
      "ĠÐ¾Ð¿ÑĢÐµÐ´ÐµÐ»": 1662,
      "Ð½Ð°Ðº": 1663,
      "ÑħÑħ": 1664,
      "ðŁ¤£": 1665,
      "ĠĠĠĠĠĠĠĠ": 1666,
      "ĠÐ¼ÐµÑĤ": 1667,
      "ÐºÐ°Ñĩ": 1668,
      "ĠÂ«": 1669,
      "ĠÐ¨": 1670,
      "ðŁĺ¨": 1671,
      "16": 1672,
      "Ð±Ð°": 1673,
      "Ġ16": 1674,
      "ĠÐ°Ð½Ð³Ð»Ð¸Ð¹": 1675,
      "ðŁĺ°": 1676,
      "ux": 1677,
      "ÐŁÐ¾Ð½": 1678,
      "ĠÐ»ÑİÐ´Ð¸": 1679,
      "aa": 1680,
      "sq": 1681,
      "ĠÐ½Ð¸Ñħ": 1682,
      "ĠÑĩÐ°ÑģÐ¾Ð²": 1683,
      "Ð³Ð¸": 1684,
      "ÐķÐ¢": 1685,
      "Ð¸Ð½Ñĭ": 1686,
      "ow": 1687,
      "ĠÐºÐ°ÐºÐ¸Ðµ": 1688,
      "ĠÑĤÐ°ÐºÐ¸Ðµ": 1689,
      "ĠÑģÐºÑĢÐ¸Ð¿": 1690,
      "ĠÑĤÐµÐº": 1691,
      "ĠÐ·Ð½Ð°ÐµÑĤ": 1692,
      "ĠÐ·Ð´ÐµÑģÑĮ": 1693,
      "ÑĦÐ¸Ð³": 1694,
      "ðŁĴĢðŁĴĢ": 1695,
      "ĠÐ¿Ð¾ÑģÑĤÐ°Ð²": 1696,
      "ĠÑĢÐ°Ð±Ð¾ÑĤÐ°ÐµÑĤ": 1697,
      "Ġ14": 1698,
      "ĠÐ·Ð°ÑĩÐµÐ¼": 1699,
      "lex": 1700,
      "Ð¾Ð»Ð¾Ð³": 1701,
      "ĠÐĿÐ¾": 1702,
      "ĠÑħÐ¾ÑĤÑı": 1703,
      "ĠÐ¿Ð¾Ð¼Ð¾ÑīÑĮÑİ": 1704,
      "ĠÐ²Ð¼": 1705,
      "Ð±Ð¸": 1706,
      "ĠÑģÐ»ÐµÐ´ÑĥÑİÑī": 1707,
      "lik": 1708,
      "ss": 1709,
      "Ð¼ÐµÑĢ": 1710,
      "ĠÐºÐ¾ÑĤÐ¾ÑĢÐ°Ñı": 1711,
      "Ð°ÐºÑĤ": 1712,
      "ÐµÑģÑĤÐ¸": 1713,
      "ĠÑģÐ´ÐµÐ»Ð°Ð»": 1714,
      "ĠÐºÐ°ÑĢÑĤÑĥ": 1715,
      "ÐĴÐĴ": 1716,
      "Ð¾ÑĩÐµ": 1717,
      "ĠÑģÐ»Ð¾Ð²Ð°": 1718,
      "Ð¸Ð²Ð°ÑĤÑĮ": 1719,
      "ĠÐ½Ð°Ð¿Ð¸ÑģÐ°Ð»": 1720,
      "ma": 1721,
      "Ð°Ð»Ðµ": 1722,
      "Ð°Ð»Ð¾ÑģÑĮ": 1723,
      "ÑģÐºÐ°Ð¶": 1724,
      "ÐľÐ¾Ð¶Ð½Ð¾": 1725,
      "ĠÐ¸Ð½ÑĤÐµÑĢÐµÑģÐ½Ð¾": 1726,
      "ĠÑģÐºÐ°Ð·Ð°Ð»": 1727,
      "ĠÐ²Ð°": 1728,
      "ÑĥÐ²": 1729,
      "ĠÐ²ÐµÐ´": 1730,
      "Ð¸Ð¼Ð¾": 1731,
      "ĠÑģÐºÐ°Ð·Ð°ÑĤÑĮ": 1732,
      "ÐµÑĢÐ°ÑĤÐ¾ÑĢ": 1733,
      "ct": 1734,
      "ĠÑĥÐ¶": 1735,
      "ĠÑįÑĤÐ¸": 1736,
      "Ð°Ð¹ÑģÐ¼Ð°ÑĢÑĤ": 1737,
      "Ð»ÑĮ": 1738,
      "Ð»ÐµÐ½Ð¸Ñı": 1739,
      "ÐµÐ½Ð¸Ñİ": 1740,
      "ðŁĺĤðŁĺĤ": 1741,
      "Ġ)": 1742,
      "ÐľÐµÐ½Ñı": 1743,
      "ĠÑĢÐ¾Ð±ÑĥÐºÑģÐ¾Ð²": 1744,
      "ÑĨÑĥ": 1745,
      "Ð½ÑĥÑĤÑĮ": 1746,
      "ÐµÑĤÐ°": 1747,
      "sqrt": 1748,
      "ĠÐ¸Ð´Ðµ": 1749,
      "ĠÑĤÐ¾ÑĩÐ½Ð¾": 1750,
      "ĠÐ½ÑĢÐ°Ð²Ð¸ÑĤÑģÑı": 1751,
      "ĠÐºÐ¾Ð½ÐµÑĩÐ½Ð¾": 1752,
      "ÑİÑģÑĮ": 1753,
      "ÑĥÐ¼ÐµÐ½ÑĤ": 1754,
      "ÑĢÐ°Ð·Ñĥ": 1755,
      "Ð¸Ð»Ð°ÑģÑĮ": 1756,
      "robux": 1757,
      "ĠÐ½Ð°Ð¿Ð¸ÑĪ": 1758,
      "ĠÐºÐ¾Ð»Ð¸ÑĩÐµÑģÑĤÐ²Ð¾": 1759,
      "ÐµÐ¶Ð´": 1760,
      "ĠÑĪÑĥÑĤ": 1761,
      "ĠÐºÐ°Ð¶ÐµÑĤÑģÑı": 1762,
      "ÐĹÐ°": 1763,
      "ĠÑįÑĤÑĥ": 1764,
      "ĠÑģÑİÐ´Ð°": 1765,
      "Ð²Ðµ": 1766,
      "ÑĩÐµ": 1767,
      "ĠÐºÑĢÑĥÑĤ": 1768,
      "ĠÑģÐ¾Ð¾Ð±ÑīÐµÐ½Ð¸Ðµ": 1769,
      "Ð¾ÑģÑĤÑĮ": 1770,
      "ÑĢÐ°Ð¶": 1771,
      "ĠÑģÐ´": 1772,
      "Ð°ÑİÑĤÑģÑı": 1773,
      "ÐºÐ¸Ñħ": 1774,
      "Ð»Ð¸ÑĪ": 1775,
      "Ð°Ð°Ð°": 1776,
      ").": 1777,
      "of": 1778,
      "Ð°ÐºÑģ": 1779,
      "ĠÑĢÐµÐ·": 1780,
      "ĠÐ¾ÑĤÐ²": 1781,
      "ĠÐĴÑĭ": 1782,
      "ÑĥÐ³Ð¾Ð»ÑĮ": 1783,
      "mp": 1784,
      "game": 1785,
      "ĠT": 1786,
      "Ð¿ÐµÑĢ": 1787,
      "Ð¾ÑĤÐ¾Ð¼Ñĥ": 1788,
      "ÐķÐĽ": 1789,
      "ĠÐ¿Ð¾ÑĩÑĤÐ¸": 1790,
      "ÑĦÑĦ": 1791,
      "Ð¾ÑĩÐ¸ÑĤ": 1792,
      "ĠÑıÐ²Ð»ÑıÐµÑĤÑģÑı": 1793,
      "ĠÐ´Ð½Ñı": 1794,
      "Ð¾Ð²Ð°": 1795,
      "Ġ18": 1796,
      "ĠÐ±ÑĥÐ´ÐµÐ¼": 1797,
      "ge": 1798,
      "tu": 1799,
      "ðŁı»": 1800,
      "ĠÑĪÐ¾Ñĥ": 1801,
      "--": 1802,
      "Ġ.": 1803,
      "ĠÐ½Ð¸Ð±": 1804,
      "ĠÐ´Ð¾ÑĢ": 1805,
      "ÑĭÐ²Ð°ÐµÑĤÑģÑı": 1806,
      "ÑĪÐ¸Ð±": 1807,
      "ÐµÐ¹Ð¼": 1808,
      "ÐĲÐ»ÐµÐºÑģ": 1809,
      "ÑģÐµ": 1810,
      "roblox": 1811,
      "Ð¡Ð¢": 1812,
      "Ð°ÑİÑī": 1813,
      "ÐĴÑģÐµ": 1814,
      "ed": 1815,
      "ĠÑĤÐ¸Ð¿Ð¾": 1816,
      "ÑģÑĤÐ°Ð½Ð¾Ð²": 1817,
      "ĠÐ¿Ð¾ÐºÐ°Ð·": 1818,
      "):": 1819,
      "ĠÑģÑĩÐ¸ÑĤ": 1820,
      "Ð²Ð¾": 1821,
      "Ð°Ð»Ð»Ñĭ": 1822,
      "ÑĥÑī": 1823,
      "........": 1824,
      "dot": 1825,
      "ðŁĺĪ": 1826,
      "ÐĵÐŀ": 1827,
      "ĠÐ¿ÑĢÐ¾Ð±Ð»ÐµÐ¼": 1828,
      "Ð¾ÑĤÑĮ": 1829,
      "Ð²Ð¸Ð½": 1830,
      "ĠÐ¿Ð¾Ñħ": 1831,
      "ĠÐ¾Ð±ÑĭÑĩ": 1832,
      "Ð¸ÐºÐµ": 1833,
      "ĠÐ·Ð°Ð¿Ð¸Ñģ": 1834,
      "ÐµÑĩÐ°ÑĤ": 1835,
      "Ġ30": 1836,
      "ĠÐ²ÑĢÐµÐ¼ÐµÐ½Ð¸": 1837,
      "Ð¡ÑĤ": 1838,
      "ĠÐ¸Ð½ÑĦÐ¾ÑĢÐ¼": 1839,
      "ĠÐŀÐ±": 1840,
      "ĠÐ±Ð¾Ð»ÐµÐµ": 1841,
      "Ð¾ÑĤÐ¸Ð²": 1842,
      "ÐĺÐĽ": 1843,
      "ĠÐ½Ð¸Ð±ÑĥÐ´ÑĮ": 1844,
      "ĠÑĦÐ¾ÑĤ": 1845,
      "ĠÐ¸ÑģÐ¿Ð¾Ð»ÑĮÐ·Ð¾Ð²Ð°ÑĤÑĮ": 1846,
      "ÑīÐµÐµ": 1847,
      "ĠÑĢÐ¾Ð±Ð»Ð¾ÐºÑģÐµ": 1848,
      "ĠÑĤÐ¸Ð¿Ð°": 1849,
      "ĠÐ¿Ð»Ð°Ð½": 1850,
      "ÐĽÐ°Ð´Ð½Ð¾": 1851,
      "be": 1852,
      "Ð°Ð´Ð¾": 1853,
      "Ġin": 1854,
      "ÐµÑĤÐ¸": 1855,
      "ĠÐ§ÑĤÐ¾Ð±Ñĭ": 1856,
      "kk": 1857,
      "ÐµÑİÑģÑĮ": 1858,
      "Alex": 1859,
      "bf": 1860,
      "ÐµÐ¹ÑģÑĤÐ²": 1861,
      "ĠÐºÐ°Ð¿": 1862,
      "Ð¾ÑĤÐ¾": 1863,
      "ĠÐ¿Ð¾Ð½ÑıÑĤÐ½Ð¾": 1864,
      "ÑĥÐ»Ñı": 1865,
      "Ð²Ð¾Ð»": 1866,
      "ĠÐ¼Ð°Ð»": 1867,
      "ĠÑĩÐµÑĤ": 1868,
      "ÐµÑģÐ»Ð¸": 1869,
      "Ð¿ÑĢÐ¾Ñģ": 1870,
      "ĠÐºÐ¾Ð¼Ð°Ð½Ð´Ñĥ": 1871,
      "ĠÐ½ÐµÐ¿": 1872,
      "ÐĶÐ¾Ð±ÑĢÐ¾Ðµ": 1873,
      "ĠÑĩÑĳ": 1874,
      "ĠÐ¶Ð´": 1875,
      "ĠÐ½Ð°Ð·Ð²": 1876,
      "ĠÑĤÐµ": 1877,
      "ÑģÑĤÑĢÐ¾Ð¹": 1878,
      "ĠÐ¸Ñİ": 1879,
      "ÐĺÐĿ": 1880,
      "ĠÑĤÐ°ÐºÐ¶Ðµ": 1881,
      "ÑīÐµÑģÑĤÐ²": 1882,
      "ÑģÐºÐ¾Ð»ÑĮÐºÐ¾": 1883,
      "?)": 1884,
      "ĠÑĪÐ°ÑĢ": 1885,
      "ĠÐ¸Ð³ÑĢ": 1886,
      "ĠÐ»Ð°Ð´Ð½Ð¾": 1887,
      "Ð»Ð°ÑģÑģ": 1888,
      "ĠÐĳÐ°Ð»Ð»Ñĭ": 1889,
      "à¹Ĭ": 1890,
      "Ð¿Ð¾": 1891,
      "ÐµÐµÑĤ": 1892,
      "Ð´Ð°ÑĩÐ¸": 1893,
      "ĠÑģÐºÐ¾ÑĢÐ¾": 1894,
      "ÑĭÐ²Ð°ÐµÑĤ": 1895,
      "ĠÐ´ÐµÐ»Ð°": 1896,
      "ĠÑģÑĢÐµÐ´": 1897,
      "ĠÐºÐ½Ð¸": 1898,
      "ĠÑĢÐ°Ð·Ð±": 1899,
      "ĠÐ²ÑĩÐµÑĢÐ°": 1900,
      "ĠÐ¾Ð±ÑĢÐ°Ð·Ð¾Ð¼": 1901,
      "ĠÑĦÐ¸Ð·": 1902,
      "ÑĥÐ¿ÑĢ": 1903,
      "à¹Ĭà¹Ĭ": 1904,
      "ÐĺÐļ": 1905,
      "mathbf": 1906,
      "ĠÑģÐ¸Ð´": 1907,
      "Ð½Ð¸ÐºÐ¸": 1908,
      "ĠÐºÑĢÐ°ÑģÐ¸Ð²": 1909,
      "23": 1910,
      "ĠÐºÑĥÐ´Ð°": 1911,
      "Ð½ÑĮ": 1912,
      "ÐĴÐŀ": 1913,
      "ĠÑģÑĤÑĢÐ¾Ðº": 1914,
      "âĺł": 1915,
      "ĠÐ½Ð°Ð²ÐµÑĢÐ½Ð¾Ðµ": 1916,
      "13": 1917,
      "ĠÐ¼Ð¾Ñı": 1918,
      "ĠÑħÐ¾ÑĤÐµÐ»": 1919,
      "ĠÐ¾ÑĪÐ¸Ð±": 1920,
      "ÐŁÑĢÐ¾ÑģÑĤÐ¾": 1921,
      "ĠÑģÐºÐ°Ñĩ": 1922,
      "ĠÐ¸Ð³ÑĢÐ°ÐµÑĤ": 1923,
      "ÐµÐ±Ðµ": 1924,
      "ĠÐ¸Ð³ÑĢÐ°Ñİ": 1925,
      "ÑĢÐ°Ðº": 1926,
      "Ð°Ð²Ð°ÑĤÑĮ": 1927,
      "ĠÑģÑĥÐ¼": 1928,
      "ÐµÐ½Ð¸ÐµÐ¼": 1929,
      "ĠÑģÑĤÐ°Ð²": 1930,
      "ĠÑĤÐ°ÐºÐ°Ñı": 1931,
      "ĠÐ½Ð°Ð¿Ð¸ÑģÐ°ÑĤÑĮ": 1932,
      "Ð°Ð½Ð¸Ð¸": 1933,
      "Ð°Ð»Ð¸Ð·": 1934,
      "ĠÐ¼Ð¾Ð¶ÐµÑĪÑĮ": 1935,
      "Ð½Ð¸ÐºÐ°": 1936,
      "ĠÐ²Ð¾Ð·Ð¼Ð¾Ð¶Ð½Ð¾": 1937,
      "Ġre": 1938,
      "Ð¿Ð»Ð°ÑĤ": 1939,
      "ĠÑİÑĤ": 1940,
      "ĠÐ¿Ð¾ÑģÐ¼Ð¾ÑĤÑĢÐµÑĤÑĮ": 1941,
      "Ð¾Ð·Ð´ÑĢÐ°Ð²": 1942,
      "la": 1943,
      "Ð°Ð½Ð³": 1944,
      "Ġ<": 1945,
      "ĠÐ¾ÑĤÐ´": 1946,
      "end": 1947,
      "ĠÑĩÐµ": 1948,
      "ÐĹÐ´": 1949,
      "ĠÑģÑĤÑĢÐ°Ð½": 1950,
      "ate": 1951,
      "90": 1952,
      "ĠÐ²ÐºÑĥÑģ": 1953,
      "ÐĲÐĶ": 1954,
      "Ð°ÑĨÐ¸Ñİ": 1955,
      "ĠÑĤÐ¾ÑĤ": 1956,
      "ĠÑģÐºÐ°Ð¹ÑģÐ¼Ð°ÑĢÑĤ": 1957,
      "ĠÐºÐ°ÑĢ": 1958,
      "Ð»Ð¾Ð¼": 1959,
      "ĠÐ²ÐºÐ»ÑİÑĩ": 1960,
      "Įà¹": 1961,
      "Ð°Ð»Ð¸ÑģÑĮ": 1962,
      "ĠÐ±Ð¾ÑĤÐµ": 1963,
      "di": 1964,
      "ĠÐ½Ð°Ðº": 1965,
      "ĠÐ·Ð°Ð³": 1966,
      "ĠÐºÐ¾Ð¼Ð°Ð½Ð´": 1967,
      "ĠÐºÐ°Ð¶Ð´ÑĭÐ¹": 1968,
      "ĠÐ¼Ð¾Ð¸": 1969,
      "ĠÑģÑĢÐ°Ð·Ñĥ": 1970,
      "ÑħÐ¾Ð´Ð¸ÑĤÑĮ": 1971,
      "ÑģÑĤÐ°Ð²Ð»Ñı": 1972,
      "ÑĢÐµÐ¿": 1973,
      "ĠÐ¿ÑĢÐ¸Ð¼ÐµÑĢ": 1974,
      "ÐĶÐ°Ð²": 1975,
      "ĠÐ¿Ð¾Ð±ÐµÐ´": 1976,
      "Ð¦": 1977,
      "ĠÐ³Ð»Ð°Ð²": 1978,
      "ÑĩÐµÑĤ": 1979,
      "ðŁ¥²": 1980,
      "ĠÐ´Ð°Ð²Ð½Ð¾": 1981,
      "ÑĥÐ»ÑĮÑĤÐ°ÑĤ": 1982,
      "Įà¹Įà¹": 1983,
      "`.": 1984,
      "Ð»ÐµÑĤ": 1985,
      "ĠÑħÐ¾ÑĩÐµÑĪÑĮ": 1986,
      "ĠÐ¿Ð¾Ð¼Ð¾Ð³": 1987,
      "ĠÐ³Ð¾ÑĤÐ¾Ð²": 1988,
      "ÑģÑĤÐ²Ðµ": 1989,
      "ÑĨÐ¸Ñı": 1990,
      "ĠÑĩÐµÐ»Ð¾Ð²ÐµÐºÐ°": 1991,
      "55": 1992,
      "ĠÐºÐ°ÐºÐ°Ñı": 1993,
      "ĠÑģÑĤÑĢÐ°ÑĪ": 1994,
      "ĠÐ¾ÑĤÐºÑĢÑĭ": 1995,
      "ÐµÐ½ÑĮÑĪÐµ": 1996,
      "ĠÐ»ÑİÐ±Ð¸Ð¼": 1997,
      "ĠÐºÐ»Ð°ÑģÑģÐµ": 1998,
      "ðŁĵ": 1999,
      "ĠÑģÐ²Ð¾Ð¸": 2000,
      "9999": 2001,
      "Ð°ÑĢÐ¸": 2002,
      "ĠÐ½Ð¾Ð²ÑĭÐ¹": 2003,
      "www": 2004,
      "ĠÑģÐ²Ð¾Ñİ": 2005,
      "ÑĢÐµÑī": 2006,
      "ÑĢÑı": 2007,
      "ÐĲÐľ": 2008,
      "Ð¸Ð½ÑĮ": 2009,
      "ĠÐĲÐ½": 2010,
      "Ð¥ÐĲÐ¥ÐĲÐ¥ÐĲÐ¥": 2011,
      "Ð°Ð½ÑĮÑĪÐµ": 2012,
      "ÑĳÐ½": 2013,
      "ÑĢÐ¸Ð¼ÐµÑĢ": 2014,
      "ĠÐ·Ð¾Ð²": 2015,
      "ĠÑģÐ¼Ñĭ": 2016,
      "Ð²Ð°": 2017,
      "ĠÐºÐ²Ð°Ð´": 2018,
      "Ð¾Ð³Ð»Ð°Ñģ": 2019,
      "Ð²Ð°ÑĤÐ¸ÑĤ": 2020,
      "ĠÑĤÐ³": 2021,
      "ĠÐ¸ÑģÐº": 2022,
      "ĠÐ»ÑĥÑĩÑĪ": 2023,
      "ÐŀÐŀÐŀÐŀ": 2024,
      "Ð½Ð¸Ð±": 2025,
      "ĠÐļÐ°Ðº": 2026,
      "Ð¾ÑĩÑĥ": 2027,
      "Ð³ÑĥÐ¼ÐµÐ½ÑĤ": 2028,
      "Ð°ÑĤÐµÐ¼": 2029,
      "ÐļÐ¾Ð³Ð´Ð°": 2030,
      "ĠÐ¾Ð¿ÑıÑĤÑĮ": 2031,
      "ÐĽÑİ": 2032,
      "ÐµÐ¶Ð´Ñĥ": 2033,
      "qu": 2034,
      "ĠÐ¿ÐµÑĢÐµÐ´": 2035,
      "ĠÑģÑĤÑĢÐ¾Ð¸ÑĤÑĮ": 2036,
      "ĠÐ¼ÐµÑģÑĤÐ¾": 2037,
      "áħłáħłáħłáħł": 2038,
      "ĠÐ¼Ð¾Ð³ÑĥÑĤ": 2039,
      "ÑıÐ½": 2040,
      "Ð¿Ð¶": 2041,
      "ĠÐ½Ð¸ÐºÑĤÐ¾": 2042,
      "ĠÐ°Ð½Ð¸Ð¼": 2043,
      "om": 2044,
      "ut": 2045,
      "ÐŀÐ±": 2046,
      "ÑĢÑĥÐ¶": 2047,
      "ÑĥÑĥÑĥÑĥ": 2048,
      "ĠÑİÑĤÑĥÐ±": 2049,
      "up": 2050,
      "Ġ[": 2051,
      "Ġh": 2052,
      "ĠÐ¿ÑĢÐ¾ÑģÑĤ": 2053,
      "ĠÑĤÐµÑħ": 2054,
      "ðŁĺ¡ðŁĺ¡": 2055,
      "ĠÐ¶ÐµÐ»": 2056,
      "Ð½Ð¸Ð±ÑĥÐ´ÑĮ": 2057,
      "ÐºÐ¾ÑĢ": 2058,
      "ÑĥÐ¿ÑĢÐµÐ¶Ð´": 2059,
      "Ð°Ð½Ð°Ñģ": 2060,
      "ĠÑĢÐµÐ±ÑıÑĤ": 2061,
      "ÐŀÐ¹": 2062,
      "ðŁŁ¥": 2063,
      "ĠðŁĳ": 2064,
      "ĠÑİ": 2065,
      "ĠÑĩÐ¸ÑģÐ»Ð°": 2066,
      "ÐŀÐ½Ð°": 2067,
      "ĠÐ²ÑĭÐ¹": 2068,
      "âłĢâłĢâłĢâłĢ": 2069,
      "id": 2070,
      "Ð¾Ð»Ð¾Ñģ": 2071,
      "ĠÐ´ÑĢÑĥÐ·ÑĮÑı": 2072,
      "Ð½Ð¸Ñĩ": 2073,
      "ĠÐ±ÑĢÐ°ÑĤ": 2074,
      "Ð¾Ð»Ð½": 2075,
      "ĠÐ´Ð¾Ðº": 2076,
      "ĠÐ±Ð»Ð¸Ð½": 2077,
      "ĠÐĿÐµ": 2078,
      "ĠÐ¿ÑĢÐ¾Ð³ÑĢÐ°Ð¼Ð¼": 2079,
      "ĠÐºÐ¾Ð¼Ñĥ": 2080,
      "Ð°ÑĤÑĭ": 2081,
      "ĠÑĢÑĥÐ±": 2082,
      "ÑģÐºÐ¾ÑĢ": 2083,
      "ðŁ§": 2084,
      "ÐĶÐĲ": 2085,
      "ĠÐ·Ð°ÐºÐ¾Ð½Ñĩ": 2086,
      "ĠÐ¼Ð¸Ð»": 2087,
      "Ð¸ÑĤÐµÐ»ÐµÐ¹": 2088,
      "ĠÐºÐµÐ¼": 2089,
      "Ð°Ð½Ñģ": 2090,
      "ÐĵÐ´Ðµ": 2091,
      "ĠÐ·Ð½Ð°ÑĩÐµÐ½Ð¸Ðµ": 2092,
      "ĠÑħÐ¾Ð´": 2093,
      "00000000": 2094,
      "cdot": 2095,
      "ic": 2096,
      "Ð°ÑĩÐµÐ¼": 2097,
      "ĠÐ¶Ð¸Ð·Ð½Ð¸": 2098,
      "«ï¸ı": 2099,
      "ÐºÐ°Ð¼Ð¸": 2100,
      "ĠÐ¸Ð·Ð¼": 2101,
      "ĠÑĥÐ²Ð¸Ð´": 2102,
      "ĠÐ´Ð¾Ð¼Ð°": 2103,
      "sh": 2104,
      "ĠM": 2105,
      "Ġâ": 2106,
      "()": 2107,
      "ĠÑĢÐµÐºÐ»": 2108,
      "\\]": 2109,
      "Ġ*": 2110,
      "ĠÑĢÐ°ÑģÑģ": 2111,
      "ĠÐĿÐ°": 2112,
      "ĠÑįÑĦÐ¸ÑĢÐ°": 2113,
      "ĠÐ¼Ñĥ": 2114,
      "ÑĥÑĤÐ±": 2115,
      "Ð¸Ð»Ð¸ÑģÑĮ": 2116,
      "ÑİÑĤÑģÑı": 2117,
      "ĠÐ´Ð½ÐµÐ¹": 2118,
      "ĠÐ·Ð°Ð½Ð¸Ð¼": 2119,
      "ÐĲÐł": 2120,
      "Ð°Ð½Ð¸ÐµÐ¼": 2121,
      "ĠÐ·Ð½Ð°Ðº": 2122,
      "ĠÐ½Ð¾ÑĢÐ¼Ð°Ð»ÑĮÐ½Ð¾": 2123,
      "â¬ľ": 2124,
      "Ð»Ð¸ÑĪÐºÐ¾Ð¼": 2125,
      "Ð¸ÑĨ": 2126,
      "Ð¢ÑĥÑĤ": 2127,
      "ws": 2128,
      "ÑģÑĤÑĢÑĥ": 2129,
      "ÐºÐ¾ÑĤÐ¾ÑĢ": 2130,
      "ĠÐ°Ð»": 2131,
      "ĠÐ½Ð°ÑĩÐ¸Ð½": 2132,
      "ĠÐ¿Ð¾Ð´Ð°ÑĢ": 2133,
      "14": 2134,
      "Ð¾Ð½Ð¸Ðº": 2135,
      "ĠÐ¾Ð±ÑĬÑıÑģ": 2136,
      "Ġst": 2137,
      "ĠÑĩÐ¸ÑģÐ»Ð¾": 2138,
      "ĠÑģÐ¾Ð·Ð´Ð°ÑĤÑĮ": 2139,
      "ĠÐ½ÐµÐ¼Ð½Ð¾Ð³Ð¾": 2140,
      "ÑĳÑĪÑĮ": 2141,
      "ĠÐºÑĢÑĥÑĤÐ¾": 2142,
      "ĠÑĪÐºÐ¾Ð»Ðµ": 2143,
      "ĠÐ¼ÑĥÑĤ": 2144,
      "ĠÐ»Ð¸Ð±Ð¾": 2145,
      "ĠÑĢÐµÐ·ÑĥÐ»ÑĮÑĤÐ°ÑĤ": 2146,
      "ĠÐĸ": 2147,
      "ĠÑģÐºÐ¾ÑĢ": 2148,
      "ÐĲÐ¥ÐĲÐ¥ÐĲÐ¥": 2149,
      "ĠÐ¿ÐµÑĢÐ²ÑĭÐ¹": 2150,
      "Ð³Ñĥ": 2151,
      "Ð°Ð½Ñĭ": 2152,
      "ðŁĴĶ": 2153,
      "ÐĺÐ·": 2154,
      "ÑĢÑĥÑİ": 2155,
      "ÐºÐ°Ñħ": 2156,
      "Ð½Ð¸Ðµ": 2157,
      "ĠÑĢÐ°Ð·Ð³": 2158,
      "ĠÑģÐ¼ÐµÐ½": 2159,
      "ĠÑģÑĤÐ¾Ð¸ÑĤ": 2160,
      "ul": 2161,
      "Ġ17": 2162,
      "ĠÐ¼ÐµÑģÑıÑĨÐ°": 2163,
      "ĠÐ¸ÑĢÐ¸Ñģ": 2164,
      "Ð¾Ð»ÑĮÐ½Ð¾": 2165,
      "ÐļÑģÑĤÐ°ÑĤÐ¸": 2166,
      "â£¿â£¿â£¿â£¿": 2167,
      "Ð¾Ñħ": 2168,
      "Ð¸ÑĨÐ¸": 2169,
      "ÐµÐ»Ð¾": 2170,
      "ĠÐºÐ¾Ñģ": 2171,
      "Ð¾Ð²Ð¾Ðµ": 2172,
      "ĠÐ·Ð°ÑĪ": 2173,
      "ĠÐ¾Ð´Ð½": 2174,
      "Ð°ÑĤÐ°": 2175,
      "ÑģÐºÐ¾Ð¼": 2176,
      "ĠÐ¾ÑĢ": 2177,
      "âŃ": 2178,
      "ĠÑģÑĤÐ°Ð½": 2179,
      "ĠÐºÐ²Ð°Ð´ÑĢÐ°ÑĤ": 2180,
      "Ð°Ð¹Ð»": 2181,
      "ĠÐ¼Ð¸ÑĢ": 2182,
      "ÐļÐŀ": 2183,
      "\\\\": 2184,
      "ĠÐ³Ð¾Ð²Ð¾ÑĢÐ¸ÑĤÑĮ": 2185,
      "ÑĭÑĭ": 2186,
      "Ð¾ÑĢÐ°": 2187,
      "ĠÐ·Ð½Ð°ÐµÑĪÑĮ": 2188,
      "ĠÐ¼Ð¾Ð¶ÐµÑĤÐµ": 2189,
      "ĠÐ¿Ð¾Ð½ÑıÐ»Ð°": 2190,
      "Ð¥Ð¾ÑĤ": 2191,
      "ĠÐ²Ð°ÑĢÐ¸": 2192,
      "ÐµÐºÑģ": 2193,
      "Ð½Ð¾Ð²Ð°": 2194,
      "Ð¾Ð¶Ð´ÐµÐ½Ð¸Ñı": 2195,
      "ĠÐºÐ°ÑĩÐµ": 2196,
      "ĠÐ¾ÑģÐ¾Ð±": 2197,
      "ÐłÐµÐ±ÑıÑĤÐ°": 2198,
      "ĠÐ·Ð¾Ð²ÑĥÑĤ": 2199,
      "ÐŁÐ¾Ñģ": 2200,
      "ðŁĶ¥ðŁĶ¥": 2201,
      "ĠÑħÐ¾ÑĤÑĮ": 2202,
      "ĠÐºÑĥÑĢ": 2203,
      "ĠÐ±ÑĥÐº": 2204,
      "ÐµÑģÑĤÐ½Ð¾": 2205,
      "Ð°Ðµ": 2206,
      "ĠÐ¿ÑĢÐ¸Ñĩ": 2207,
      "til": 2208,
      "ðŁĺįðŁĺį": 2209,
      "ÑĤÐ°Ð¼": 2210,
      "ÑıÑī": 2211,
      "ðŁĹ¿": 2212,
      "ÐµÐ½Ð¾": 2213,
      "ĠÐ·Ð°Ð¹ÑĤÐ¸": 2214,
      "ĠÐ¿Ð¾Ð¸Ð³": 2215,
      "Ð°Ð½Ð¸Ð¹": 2216,
      "ĠÐ°ÑĢÐ³ÑĥÐ¼ÐµÐ½ÑĤ": 2217,
      "ĠÑģÑĥ": 2218,
      "ĠÐ¼Ð¾ÑĢ": 2219,
      "ĠÐµÐ´Ð¸Ð½": 2220,
      "Ð½ÑĥÑĤ": 2221,
      "ap": 2222,
      "Ð´Ð¶": 2223,
      "ĠÑĥÐ·Ð½": 2224,
      "ÑħÐ°": 2225,
      ")))": 2226,
      "Ð²ÑģÐµÐ¼": 2227,
      "Ġto": 2228,
      "ĠÑģÐ¼Ð¾ÑĤÑĢÐµÑĤÑĮ": 2229,
      "ĠÑģÐ¸Ð¼": 2230,
      "ÐµÑĢÐ¸": 2231,
      "ĠÑĤÐ°ÐºÐ¾Ð³Ð¾": 2232,
      "ÑĢÐ°Ð²ÑģÑĤÐ²": 2233,
      "ÐµÐ´Ð¸Ð½": 2234,
      "ĠÑģÑĤÑĥÐ´Ð¸Ð¾": 2235,
      "ĠÐ¿ÐµÑģ": 2236,
      "ĠÐ¿Ð¾Ð¹Ð´Ñĥ": 2237,
      "Ġ{": 2238,
      "Ð°ÐºÑģÐ¸Ð¼": 2239,
      "ĠÑĤÑĥ": 2240,
      "Ð¾Ð²Ð°Ð»": 2241,
      "od": 2242,
      "ĠÐ¿ÑĢÐ¾ÑĤÐ¸Ð²": 2243,
      "Ð¥ÐĲ": 2244,
      "ÐĽÐŀ": 2245,
      "ĠÑģÐ²ÑıÐ·": 2246,
      "ĠÐ¸Ð¼Ñı": 2247,
      "Ð¡Ð¿Ð¾ÐºÐ¾Ð¹Ð½Ð¾Ð¹": 2248,
      "Ð¾Ð»Ð¶": 2249,
      "ĠÑģÐ¼ÐµÐ½Ñĭ": 2250,
      "ÐŁÐ¾Ð´": 2251,
      "ĠÑĦÐ¸Ð³": 2252,
      "ĠÐ·Ð°Ð¿ÑĢÐµÑī": 2253,
      "âľ¨": 2254,
      "}$.": 2255,
      "ĠÐ²ÐµÑĩ": 2256,
      "ĠÐ²Ð¸Ð´ÐµÐ»": 2257,
      "ĠÐ¸Ð¼ÐµÐ½Ð½Ð¾": 2258,
      "ĠÐ²Ð°Ð¶": 2259,
      "ĠÐ´ÐµÐ¹ÑģÑĤÐ²": 2260,
      "ĠÐ½Ð°ÑĥÑĩ": 2261,
      "ĠÐ²Ð°ÑīÐµ": 2262,
      "ĠÐ¿ÑĢÐ¸Ð»": 2263,
      "Ð¼Ð¾": 2264,
      "ĠÐ´ÐµÐ»Ð°Ñİ": 2265,
      "ĠÐ´ÑĢÑĥÐ³Ð¾Ð¹": 2266,
      "Ð»ÐµÐ¼ÐµÐ½ÑĤ": 2267,
      "is": 2268,
      "ĠÑģÐ»Ð¾Ð¶": 2269,
      "ĠÑĢÐ°ÑģÐ¿Ð¸Ñģ": 2270,
      "Ġe": 2271,
      "ĠÑĢÐ°Ð½ÑĮÑĪÐµ": 2272,
      "ĠÐ²ÐµÐ´ÑĮ": 2273,
      "ÑģÐµÐ¼": 2274,
      "ĠÑĦÐ¾ÑĤÐ¾": 2275,
      "ĠÑĢÐ°Ð²Ð½Ð°": 2276,
      "ÑĥÑģÑĮ": 2277,
      "Ð¾Ð½ÐµÑĨ": 2278,
      "ĠÐ¿ÑĢÐ°Ð²Ð¸Ð»Ð°": 2279,
      "ĠÐºÐ¾Ð½ÐºÑĥÑĢÑģ": 2280,
      "ĠÐ»Ð°Ð¹": 2281,
      "ĠÐ·Ð°ÑıÐ²": 2282,
      "Ð°ÑħÐ°ÑħÐ°Ñħ": 2283,
      "ĠÐ¿Ð¾Ð¿ÑĢÐ¾Ð±": 2284,
      "ĠÐ°ÑĢÑĤ": 2285,
      "Ð°ÑĢÐ°ÑĦÐ¾Ð½": 2286,
      "ðŁĺ±ðŁĺ±": 2287,
      "Ð°ÑģÑĤÐ²": 2288,
      "ĠÐ·Ð°Ñħ": 2289,
      "ĠÑģÐ¿Ð¾ÐºÐ¾Ð¹Ð½Ð¾Ð¹": 2290,
      "ĠÐ³Ð¾Ð´Ñĥ": 2291,
      "ĠÑĢÐ°ÑģÑģÐºÐ°Ð·": 2292,
      "ĠÑģÐ»ÑĥÑĩÐ°Ð¹": 2293,
      "ĠÐ¿ÑĢÐ¾Ð²ÐµÑĢ": 2294,
      "`,": 2295,
      "Ð¡Ð»": 2296,
      ".$": 2297,
      "ĠÐ¿ÑıÑĤ": 2298,
      "ĠÐ¿ÑĭÑĤ": 2299,
      "ĠPython": 2300,
      "ĠÑĩÑĥÑĤÑĮ": 2301,
      "ÐļÐ°ÐºÐ¾Ð¹": 2302,
      "ĠÐ´ÑĥÐ¼Ð°Ð»": 2303,
      "ĠÑĤÐ²Ð¾Ð¹": 2304,
      "ob": 2305,
      "ĠÐ¿ÐµÑĢÐµÐ²": 2306,
      "tilda": 2307,
      "ol": 2308,
      "ÐµÐ¶Ð¸Ð¼": 2309,
      "Ð¿ÑħÐ¿Ñħ": 2310,
      "ĠÐ·Ð°Ð½ÑıÑĤ": 2311,
      "ÑģÐºÐ¾ÑĢÐ±": 2312,
      "ĠÑģÐ¿ÑĢÐ¾Ñģ": 2313,
      "Ð¾ÑģÐ¾Ð±": 2314,
      "ÐķÐľ": 2315,
      "ĠÐ¾ÑĤÐ½Ð¾": 2316,
      "Ð«ÐĴ": 2317,
      "ĠÐ¾ÑĤÐ²ÐµÑĩ": 2318,
      "(\"": 2319,
      "ĠÑĤÐ¾Ð±": 2320,
      "Ð¾Ð²Ð¾": 2321,
      "ÐµÑĢÐµÐ²": 2322,
      "ĠÑģÑĤÐ¸ÐºÐµÑĢÑĭ": 2323,
      "ir": 2324,
      "Ð½Ð´": 2325,
      "ÐµÐ¼ÐµÐ½": 2326,
      "Ð¾ÑĤÐ°": 2327,
      "Ð¾Ð¾Ð¾": 2328,
      "ðŁĺİðŁĺİ": 2329,
      "Ð½ÐµÐ½Ð¸Ñı": 2330,
      "ĠÐ½Ð°Ð¶": 2331,
      "ÐºÐ¾Ðµ": 2332,
      "ĠÐ½Ð°Ð·Ð°Ð´": 2333,
      "ðŁĲ": 2334,
      "ĠÐ·Ð°Ð´Ð°Ñĩ": 2335,
      "ðŁŁ¥ðŁŁ¥": 2336,
      "ÑĭÐ³": 2337,
      "ÐµÐ¼Ð°ÑĤ": 2338,
      "Ð¢Ð¾Ð»ÑĮÐºÐ¾": 2339,
      "ĠÐºÐ°ÐºÐ¾Ð¼": 2340,
      "ĠÐ²ÑĭÐ·": 2341,
      "âĸ«ï¸ı": 2342,
      "ĠÑĥÐºÐ°Ð·": 2343,
      "ĠÐ¿Ð¸ÑģÐ°Ð»": 2344,
      "ĠÐ¼Ð°ÑģÑģ": 2345,
      "ĠÐ¾ÑĨÐµÐ½": 2346,
      "Ġ50": 2347,
      "ÑĢÑĭÐ²": 2348,
      "ĠÑĤÐ¾Ðº": 2349,
      "Ð¸ÐºÐ¾Ð²": 2350,
      "ĠÐ¾Ð·": 2351,
      "ĠÑĪÐºÐ¾Ð»Ñĥ": 2352,
      "ðŁ«ł": 2353,
      "ÐĴÐ¾": 2354,
      "ĠÐ³Ð¾ÑĢÐ¾Ð´": 2355,
      "ĠÐ¼Ð°Ð»Ð¾": 2356,
      "Ð¢Ð¾Ð³Ð´Ð°": 2357,
      "Ð°Ð»ÑĮÐ½ÑĭÐµ": 2358,
      "Ð²Ð¾ÑĤ": 2359,
      "ĠÐ¼ÑĥÐ¶": 2360,
      "Ð¥Ð¾ÑĢÐ¾ÑĪ": 2361,
      "ĠÐ´ÑĢÑĥÐ·ÐµÐ¹": 2362,
      "ðŁĩ": 2363,
      "ÐľÐ¾Ð¶ÐµÑĤ": 2364,
      "ÑĨÐ¸Ñİ": 2365,
      "ÑģÐ¾ÑĢ": 2366,
      "ĠÐ¿Ð»Ð¾ÑħÐ¾": 2367,
      "Ð¸Ð½Ð³": 2368,
      "ĠÐ²Ð¼ÐµÑģÑĤÐµ": 2369,
      "ĠÑįÐ»ÐµÐ¼ÐµÐ½ÑĤ": 2370,
      "ĠÐ¼Ð¾ÐµÐ¹": 2371,
      "ĠÐ½ÐµÐ´ÐµÐ»": 2372,
      "ĠÐ·Ð°Ñģ": 2373,
      "ĠÑĤÐ¾Ð±Ð¾Ð¹": 2374,
      "Ġk": 2375,
      "ĠÐ»ÐµÐ½ÑĮ": 2376,
      "Ð¸ÑĤÐ°": 2377,
      "Ð¸Ð²Ð°ÐµÑĤ": 2378,
      "ÐºÐ¸Ð´": 2379,
      "ĠÐ¾Ð±ÑıÐ·": 2380,
      "âŃĲ": 2381,
      "ĠÐºÐ½": 2382,
      "ĠÐ½ÐµÑģÐºÐ¾Ð»ÑĮÐºÐ¾": 2383,
      "Ð¾ÑģÑģ": 2384,
      "ĠÐĲÑĢ": 2385,
      "ĠÐ¼ÐµÐ´": 2386,
      "ÐŁÑĢÐ¾": 2387,
      "Ð½Ð¾Ð¶": 2388,
      "ĠÐ½Ð¸Ð¼": 2389,
      "ĠÐ´Ð°Ð»ÑĮ": 2390,
      "ĠÐŁÐ¾": 2391,
      "âĸĪ": 2392,
      "ĠÐ´Ð¾Ð»Ð¶ÐµÐ½": 2393,
      "ver": 2394,
      "ĠÐ³ÑĢ": 2395,
      "ĠÐ²ÑĤÐ¾ÑĢÐ¾Ð¹": 2396,
      "ĠÐ´Ð·": 2397,
      "ĠÐºÐ¾ÑĤÐ¾ÑĢÐ¾Ðµ": 2398,
      "ĠÑģÑĤÐ¸ÐºÐµÑĢ": 2399,
      "ĠÐ²ÑģÑĤÑĢ": 2400,
      "ĠÐ¼ÐµÐ¶Ð´Ñĥ": 2401,
      "ĠÐ¾Ð±Ð½Ð¾Ð²": 2402,
      "ĠðŁĴĭ": 2403,
      "ÐĿÐ¸Ðº": 2404,
      "ĠÐ²Ð¾Ð´": 2405,
      "Ð¾Ð²ÑĭÐ¹": 2406,
      "ĠÐ²ÑĭÑģ": 2407,
      "ĠÐ½ÐµÐ¾Ð±": 2408,
      "bot": 2409,
      "ĠÑĥÑĢÐ¾Ð²": 2410,
      "ÐłÐĺ": 2411,
      ",$": 2412,
      "Ð¸ÑĤÐµÐ»Ð¸": 2413,
      "ÑĥÑģÑĤÑĮ": 2414,
      "ĠÑĤÐµÐºÑģÑĤ": 2415,
      "ĠÑĤÑĥÐ´Ð°": 2416,
      "Ð¯Ð¯": 2417,
      "Ð¾Ð»ÑĮÑĪ": 2418,
      "ĠÐ³Ð¾Ð²Ð¾ÑĢÑİ": 2419,
      "Ġg": 2420,
      "ĠÐ½ÐµÐºÐ¾ÑĤÐ¾ÑĢ": 2421,
      "ðŁ¤¯": 2422,
      "Ð¾Ð¾Ð¾Ð¾Ð¾Ð¾Ð¾Ð¾": 2423,
      "ĠÐ¼Ð¾Ð¼": 2424,
      "ĠÐ¼ÐµÐ½ÑĮÑĪÐµ": 2425,
      "Ð°Ð²Ð½Ð¾": 2426,
      "ĠÑģÐ¿ÑĢÐ°ÑĪ": 2427,
      "int": 2428,
      "ĠÑĪÐ¾Ðº": 2429,
      "âĿ¤ï¸ıâĿ¤ï¸ı": 2430,
      "Ð±ÑĥÐ·": 2431,
      "Ð³Ð»Ñı": 2432,
      "ðŁĺŃðŁĺŃðŁĺŃ": 2433,
      "Ð°Ð»ÑĮÐ½ÑĭÐ¹": 2434,
      "ĠÐ¢Ð°ÐºÐ¸Ð¼": 2435,
      "ĠÐ²ÐµÑģ": 2436,
      "Ð¾Ð½Ð°ÑĤ": 2437,
      "ÐĲÐŃ": 2438,
      "ĠÑģÐºÑĥÑĩ": 2439,
      "ĠÐ´Ð²ÑĥÑħ": 2440,
      "ĠÐ¿ÑĢÐ¾ÑĨ": 2441,
      "ÐķÐķÐķÐķ": 2442,
      "ÐĿÐķ": 2443,
      "ĠÐ²ÑģÐ¿Ð¾Ð¼": 2444,
      "ĠÐ¸ÑģÐ¿Ð¾Ð»ÑĮÐ·Ñĥ": 2445,
      "ng": 2446,
      "ĠÑģÐ»ÑĥÑĪ": 2447,
      "ÑĥÐ¿ÐµÑĢ": 2448,
      "ĠÑģÐ°Ð¼Ð¾Ðµ": 2449,
      "ÑıÑĤÑģÑı": 2450,
      "ĠÑģÐ¼ÐµÑĪ": 2451,
      "ĠÐ¼Ð°ÑĤÐµÐ¼Ð°ÑĤ": 2452,
      "ĠÐ¿ÐµÑĢÐµÐ¿": 2453,
      "ÑĢÐ°Ð²ÑģÑĤÐ²ÑĥÐ¹ÑĤÐµ": 2454,
      "ÐºÐ¾Ð»ÑĮ": 2455,
      "ÐµÐ½Ð´Ð°": 2456,
      "ĠÑįÑĤÐ¸Ð¼": 2457,
      "ðŁ¥µ": 2458,
      "ĠÑĤÑĢÐ¸": 2459,
      "ÐµÐ½Ð¸ÑĤÑĮ": 2460,
      "Ð°Ð´ÑĮ": 2461,
      "Ð¼ÐµÐ½ÑĤ": 2462,
      "Ð°Ð½Ð¸Ñİ": 2463,
      "ĠÐ¾Ð´Ð½Ð°": 2464,
      "Ð¼ÐµÐ½Ñı": 2465,
      "ĠÑģÐ¾Ð¾ÑĤ": 2466,
      "ðŁĺħ": 2467,
      "Ð¸Ð»Ð¾": 2468,
      "ĠÐºÐ°Ð½Ð°Ð»": 2469,
      "Ð°ÑĤÑĥ": 2470,
      "ĠÑħÐ·": 2471,
      "âĻ": 2472,
      "ĠÐ¼Ð¾Ð´ÐµÑĢ": 2473,
      "22": 2474,
      "ðŁĻĦðŁĻĦ": 2475,
      "ĠÐ¿Ð¾Ð³": 2476,
      "ĠÑģÐ»Ð¸ÑĪÐºÐ¾Ð¼": 2477,
      "ÐµÑĢÐµÐ·": 2478,
      "ÐĲÐŁ": 2479,
      "ĠÐ¾Ð±Ñģ": 2480,
      "ĠÐ´ÑĢÑĥÐ¶": 2481,
      "ĠÐĶÐ»Ñı": 2482,
      "ĠÐ´ÐµÑĢÐ¶": 2483,
      "ðŁ¤Ķ": 2484,
      "ĠÐ¾Ð±ÑĬÐµÐºÑĤ": 2485,
      "ĠÐ¿Ð¾Ð»ÑĮÐ·Ð¾Ð²Ð°ÑĤÐµÐ»": 2486,
      "Ð±Ñĭ": 2487,
      "Ð°ÑĤÐ°ÑĢ": 2488,
      "ĠÑģÐºÐ°Ð·Ð°Ð»Ð°": 2489,
      "ok": 2490,
      "va": 2491,
      "ÑıÐ»": 2492,
      "ĠÐ¼Ð°Ð³": 2493,
      "ĠÐŀÑĤ": 2494,
      "ĠÐ´ÑĢÑĥÐ³Ð¸Ñħ": 2495,
      "ĠÐ¾ÑĤÐ¿ÑĢÐ°Ð²Ð¸ÑĤÑĮ": 2496,
      "ĠÐ¼ÑĥÐ·Ñĭ": 2497,
      "ÑģÑģ": 2498,
      "ÑĤÐµÑĢÐµÑģ": 2499,
      "ĠÐ´Ð°Ð½Ð½ÑĭÑħ": 2500,
      "nt": 2501,
      "ĠÐ¾ÑģÐºÐ¾ÑĢÐ±": 2502,
      "ÐĲÐĻ": 2503,
      "ĠÐµÐ¹": 2504,
      "ðŁ¥³ðŁ¥³": 2505,
      "ĠÐ²ÐµÑģÑĮ": 2506,
      "ÐĲÑĢ": 2507,
      "ĠÑĥÐ´Ð°ÑĩÐ¸": 2508,
      "ĠÑģÐµÑģÑĤ": 2509,
      "ĠÑģÑĬ": 2510,
      "ðŁĺĶ": 2511,
      "Ð½Ð°ÑĩÐ°Ð»Ð°": 2512,
      "Ð»ÐµÐ¹": 2513,
      "Ð´ÐµÑĢÐ¶": 2514,
      "ĠÐ¢Ðŀ": 2515,
      "77": 2516,
      "ĠÐ²ÑĭÐ¿": 2517,
      "Ð§ÑĤÐ¾Ð±Ñĭ": 2518,
      "Ġ$(": 2519,
      "30": 2520,
      "Ð¾Ð¶ÐµÑĤÐµ": 2521,
      "ÐŀÐº": 2522,
      "ĠÐ±ÑĥÐ´ÐµÑĪÑĮ": 2523,
      "ĠÐ°Ð½Ð°Ð½Ð°Ñģ": 2524,
      "Ð½Ð¸ÑĤÑĮ": 2525,
      "ĠÐ¸ÑİÐ½Ñı": 2526,
      "ght": 2527,
      "ÐµÐ»Ð¸Ð½Ð°": 2528,
      "ÑĤÐ¾Ð¼": 2529,
      "ðŁĳģ": 2530,
      "ĠÐ·Ð°ÐºÑĢÐµÐ¿": 2531,
      "ÑıÑıÑıÑı": 2532,
      "ĠÑģÑĥÑīÐµÑģÑĤÐ²": 2533,
      "ÑĢÐµÑģ": 2534,
      "Ð³Ð¾ÑĢ": 2535,
      "Ð·Ð´": 2536,
      "ĠÐ°Ð²Ñĥ": 2537,
      "âĺº": 2538,
      "ĠÐ¼Ð¾Ð¼ÐµÐ½ÑĤ": 2539,
      "ĠÐ´Ð¾Ð¿": 2540,
      "Ð¾Ð²Ð°Ð½Ð¸Ñı": 2541,
      "Ð»Ð¸Ð·": 2542,
      ".....": 2543,
      "Ð¸ÐºÑģ": 2544,
      "ĠÑįÑĤÐ°": 2545,
      "ĠÑģÐ°Ð¼Ð°": 2546,
      "ĠÑģÑģÑĭÐ»ÐºÐ°": 2547,
      "ĠÐ¾Ð½Ð¾": 2548,
      "Ð°Ð¶Ð´": 2549,
      "ĠÐ¼Ð½Ð¾Ð³": 2550,
      "ĠÑĩÐ°ÑģÑĤ": 2551,
      "ĠÐľÐŀ": 2552,
      "ĠÐ¿Ð¾Ð½ÑĢÐ°Ð²": 2553,
      "ÐĴÑģÑĳ": 2554,
      "ĠÐ¿Ð¾Ð»ÑĥÑĩÐ°ÐµÑĤÑģÑı": 2555,
      "))))": 2556,
      "Alik": 2557,
      "ĠÐ²ÑģÑı": 2558,
      "ĠÐ³ÐµÐ½": 2559,
      "ĠÐ½Ð¾Ð¼": 2560,
      "Ð¸Ð¼Ð°": 2561,
      "â¡": 2562,
      "Ð¿Ð¾Ð´": 2563,
      "Ð¸Ð½Ðµ": 2564,
      "Ð¾Ð±ÑĢÐ°Ð¶": 2565,
      "ðŁĺ³": 2566,
      "ĠÐ¾Ð´Ð½Ð¾": 2567,
      "Ð½ÑĥÐ»ÑģÑı": 2568,
      "ĠÐ²Ð´": 2569,
      "ĠÐ²Ð²": 2570,
      "ĠÑĢÐ¾Ð¶Ð´ÐµÐ½Ð¸Ñı": 2571,
      "ÐķÐĳ": 2572,
      "ĠÐ²ÑĭÑĪ": 2573,
      "ĠÑģÐ°Ð¼ÑĭÐ¹": 2574,
      "ĠÐ¾Ð¿Ð¸Ñģ": 2575,
      "ĠÑģÑĤÑĢÐ¸Ð¼Ðµ": 2576,
      "ĠÐ¿ÑĢÐ¸Ð´ÑĥÐ¼": 2577,
      "ĠÑģÐºÐ¸Ð½ÑĥÑĤÑĮ": 2578,
      "ĠÐ½Ð°Ð¿Ð¸ÑģÐ°Ð½Ð¾": 2579,
      "ðŁ«łðŁ«ł": 2580,
      "ĠÐ¿ÑĥÐ¿": 2581,
      "ÐŁÐ¾Ð¼": 2582,
      "ĠÐ»Ð°Ð³ÐµÑĢÑĮ": 2583,
      "ĠÐ¼ÐµÑģÑĤ": 2584,
      "ĠÐ´Ð¾Ð±ÑĢ": 2585,
      "ĠÑĥÑģÐ»": 2586,
      "ĠÑĢÐµÐ¶Ð¸Ð¼": 2587,
      "ĠÐ§Ð¢Ðŀ": 2588,
      "ris": 2589,
      "ft": 2590,
      "ÐĲÐ½": 2591,
      "Ð°Ð²ÐµÑĢ": 2592,
      "Ð¸Ð¼Ð¾ÑĦ": 2593,
      "ÑĢÐ°ÑģÑĤ": 2594,
      "Ð¾ÑĩÐºÐ¸": 2595,
      "Ð±ÐµÑĢ": 2596,
      "ĠÐ³ÑĢÑĥÐ¿Ð¿Ðµ": 2597,
      "es": 2598,
      "ĠE": 2599,
      "ĠÑĤÑĥÐ¿": 2600,
      "Ð¾Ð²Ð°Ð½Ð¸Ðµ": 2601,
      "ðŁ¥°ðŁ¥°": 2602,
      "ĠÐ½ÐµÐ¹ÑĢÐ¾Ñģ": 2603,
      "Ð°Ð²ÑĤÑĢÐ°": 2604,
      "ĠÐ³Ð¾Ð²Ð¾ÑĢÐ¸Ð»": 2605,
      "ÑīÑĥ": 2606,
      "Ð¾Ð½Ðµ": 2607,
      "ÐŁÐ¾ÑĤÐ¾Ð¼Ñĥ": 2608,
      "Ġ24": 2609,
      "ĠÐ³Ð¾Ð²Ð¾ÑĢÐ¸ÑĤ": 2610,
      "Ð²ÐµÑĤÑģÑĤÐ²": 2611,
      "ĠÐ¶Ð¸Ð·Ð½ÑĮ": 2612,
      "ĠðŁĺŃ": 2613,
      "Ð½Ð¸ÑĨÐ°": 2614,
      "Ð½Ð¸ÐºÐ¾Ð²": 2615,
      "ĠÑĩÐ°ÑģÑĤÑĮ": 2616,
      "Ð°Ð¾": 2617,
      "ĠÐ¼Ð°Ð¼": 2618,
      ")^": 2619,
      "Ð»Ñĭ": 2620,
      "ĠÐ´Ð»Ð¸": 2621,
      "ĠÐºÐ°ÐºÐ¾Ðµ": 2622,
      "ĠÐ¼Ð°ÑģÑģÐ¸Ð²": 2623,
      "ck": 2624,
      "Ð´ÐµÑĢ": 2625,
      "ĠÐ¿ÑĢÐ¾ÑĩÐ¸ÑĤ": 2626,
      "ĠÐ¾ÑĤÐ¼ÐµÑĤ": 2627,
      "ĠÐŀÐ½": 2628,
      "ĠÐ±ÐµÑģÐ¿Ð»Ð°ÑĤ": 2629,
      "à£§à£§à£§à£§": 2630,
      "ĠÐ¾Ð³ÑĢ": 2631,
      "Ðģ": 2632,
      "ÐĺÐ»Ð¸": 2633,
      "ĠÐ½Ð¾Ð²ÐµÐ½ÑĮ": 2634,
      "ĠÐ¿ÑĢÐµÐ´Ð»Ð¾Ð¶": 2635,
      "ðŁ¤£ðŁ¤£": 2636,
      "ĠÐ¿Ð»ÐµÐ¹": 2637,
      "ĠÑĢÐ¾ÑĦ": 2638,
      "Ð²ÐµÑĢÐ¶": 2639,
      "time": 2640,
      "ÐķÐĿÐ¯": 2641,
      "Ð½ÐµÐ¼": 2642,
      "ĠÐ²ÐµÐ±": 2643,
      "Ð¾Ð²Ð°ÑĢ": 2644,
      "ĠÐºÐ°ÑĢÑĤÑĭ": 2645,
      "ĠÑĢÐµÐ°Ð»ÑĮÐ½Ð¾": 2646,
      "ĠÐ·Ð½Ð°ÑĩÐµÐ½Ð¸Ñı": 2647,
      "mar": 2648,
      "ĠÐ°Ð¹": 2649,
      "ĠÑĥÑĢÐ°Ð²Ð½ÐµÐ½Ð¸Ðµ": 2650,
      "ĠÐ´Ð°Ð»ÑĮÑĪÐµ": 2651,
      "ÑıÐ±": 2652,
      "Ð²Ñħ": 2653,
      "ĠÑģÐ¿Ð¾ÑģÐ¾Ð±": 2654,
      "ort": 2655,
      "ĠÑģÐ¾Ð³Ð»Ð°Ñģ": 2656,
      "ÑĢÑĥÑĪ": 2657,
      "ÐŁÐµÑĢÐ²": 2658,
      "ÐļÐ¾ÑĢ": 2659,
      "ðŁĴ¥": 2660,
      "ÑĢÑĥÑĤ": 2661,
      "ĠÑĢÐ¾Ð±Ð°Ðº": 2662,
      "pa": 2663,
      "ĠÐ½ÐµÐ²": 2664,
      "ĠÐ¸ÑĤ": 2665,
      "Ð¾Ð»ÑĮÑĪÐµ": 2666,
      "ĠN": 2667,
      "ĠÐ²Ð¸Ð¶Ñĥ": 2668,
      "ĠÑĤÑı": 2669,
      "ent": 2670,
      "Ġthe": 2671,
      "ash": 2672,
      "ĠÑģÐµÑĢÐ²ÐµÑĢ": 2673,
      "25": 2674,
      "Ø§": 2675,
      "ĠÐ±Ð¾": 2676,
      "ĠÐ¿ÑĢÐµÐ´Ð¿Ð¾Ð»": 2677,
      "ĠÐ¿Ð¸ÑĪÐµÑĤ": 2678,
      "ĠÐ³Ð»Ð°Ð·": 2679,
      "}$": 2680,
      "ĠÐ¼Ð°ÐºÑģÐ¸Ð¼": 2681,
      "Ð¥ÐĴ": 2682,
      "Ð°Ð»ÑĮÐ½Ð¾Ðµ": 2683,
      "ĠÐ¿ÑĢÐ°Ð²Ð´Ð°": 2684,
      "ĠÑĢÐ°Ð·ÑĢÐµÑĪ": 2685,
      "Ð¿Ð¾Ð½": 2686,
      "ĠÐ¿ÑĢÐ¸Ð³": 2687,
      "Ð¿ÑĢÐ¸Ð²ÐµÑĤ": 2688,
      "ÑĩÐ¾": 2689,
      "Ġ23": 2690,
      "ÑħÑĢÐ°Ð½": 2691,
      "ĠÑģÐ¿Ð¾ÑĢ": 2692,
      "ĠÐŃÐ¢Ðŀ": 2693,
      "ĠÐ¿Ð»Ð°ÑĤ": 2694,
      "im": 2695,
      "ÑģÐ¾Ð½": 2696,
      "ĠÑģÑĤÐ°ÑĤÑĮ": 2697,
      "ĠÐ±ÑĭÐ²": 2698,
      "ÐĺÐ½": 2699,
      "ĠÐ²Ð¾Ð·Ð²": 2700,
      "ĠÑĨÐ²ÐµÑĤ": 2701,
      "ĠÐ·Ð°Ð´Ð°Ð½Ð¸Ðµ": 2702,
      "ĠÑĢÐµÐ°Ðº": 2703,
      "Ì®": 2704,
      "cos": 2705,
      "ĠÐºÐ½Ð¾Ð¿": 2706,
      "ÑģÑĤÑĢÑĥÐºÑĨÐ¸": 2707,
      "ĠÑģÐ¾Ð¾ÑĤÐ²ÐµÑĤÑģÑĤÐ²": 2708,
      "ĠÐ¿Ð¾Ð´ÑĥÐ¼": 2709,
      "ÑĤÑĥÑĤ": 2710,
      "ĠÐºÐ¸Ð´": 2711,
      "ĠÐ´Ð¾Ð»Ð¶Ð½Ñĭ": 2712,
      "ĠÑģÐ»ÑĥÑĩÐ°Ðµ": 2713,
      "Ð»Ð°Ð¹Ð½": 2714,
      "ðŁĺĬ": 2715,
      "ðŁĹ¿ðŁĹ¿": 2716,
      "ĠÑĤÐ°": 2717,
      "ĠÑģÐ¼Ð¾ÑĤÑĢÑİ": 2718,
      "ÐłÐ°Ð·": 2719,
      "Ð¾Ð·Ð´ÑĢÐ°Ð²Ð»ÑıÑİ": 2720,
      "Ð²ÑģÐµ": 2721,
      "Ġ19": 2722,
      "ĠÐ²ÑĭÑĢÐ°Ð¶": 2723,
      "ĠÑģÐ¼Ð¾Ð³Ñĥ": 2724,
      "ĠÐ¿Ð¸ÑĪÐ¸": 2725,
      "ÑĥÐ²ÑģÑĤÐ²": 2726,
      "àº": 2727,
      "ĠÑĤÐ°Ð±": 2728,
      "ĠÐ´Ð¸": 2729,
      "ĠÐ»Ð¾Ð³": 2730,
      "ÐķÑģÑĤÑĮ": 2731,
      "Ð£Ð£": 2732,
      "ĠÐ¾ÑĤÐ»Ð¸Ñĩ": 2733,
      "ĠÐ´ÐµÐ»Ð°ÐµÑĤ": 2734,
      "ĠÑĩÐ¸ÑģÐµÐ»": 2735,
      "ĠÐ±Ð¾ÑĤÐ°": 2736,
      "ĠÐ±Ð¸": 2737,
      "Ð¡Ðļ": 2738,
      "ĠÐ¿ÑĢÐ°Ð²Ð¸Ð»ÑĮÐ½Ð¾": 2739,
      "ÑĳÑĤÑģÑı": 2740,
      "ĠÐ´Ð¾Ð±Ð°Ð²Ð¸ÑĤÑĮ": 2741,
      "âĺºï¸ı": 2742,
      "Ð¿Ð¸": 2743,
      "ĠÐļÐŀ": 2744,
      "ĠÐ¼Ð¾Ð´ÐµÑĢÐ°ÑĤÐ¾ÑĢ": 2745,
      "Ð¸ÑĢÐ¾Ð²Ð°Ð½": 2746,
      "Ì¤": 2747,
      "ĠÐ¶Ð°Ð»": 2748,
      "Ð¸ÑĤÐµÐ»Ñı": 2749,
      "ĠÐ¿ÑĢÐ¾Ð¸Ð·Ð²ÐµÐ´": 2750,
      "âĺłï¸ı": 2751,
      "â¢": 2752,
      "Ð²Ð°Ð»": 2753,
      "ðŁıĲ": 2754,
      "ĠÐºÐ°ÑĢÑĤÐ¸Ð½": 2755,
      "ĠÐ»Ð¸ÑĨ": 2756,
      "ion": 2757,
      "ÑĩÐµÐ½ÑĮ": 2758,
      "ĠÐ¿ÑĢÐ¾Ð¹": 2759,
      "ĠÑĦÐ°Ð½": 2760,
      "ĠÑģÐºÑĢÐ¸Ð¿ÑĤ": 2761,
      "ĠÐ¿ÑĢÐ¸Ð»Ð¾Ð¶": 2762,
      "us": 2763,
      "ĠÐ¾Ð³": 2764,
      "ĠÐ³Ð¾": 2765,
      "ĠÐ½Ð°ÑĩÐ°Ð»Ð°": 2766,
      "ĠÐ·Ð°Ð¼ÐµÑĤ": 2767,
      "ĠÑģÐ°Ð¹": 2768,
      "ĠÑģÐµÑĤÐ¸": 2769,
      "ĠÑĤÑĢÐµ": 2770,
      "ĠÐ³ÑĢÑĥÐ¿Ð¿Ñĥ": 2771,
      ")(": 2772,
      "Ð¿Ðµ": 2773,
      "ÑĢÑĥÐ·": 2774,
      "ĠðŁĺį": 2775,
      "ĠÐ°ÐºÐºÐ°": 2776,
      "ĠÑģÐµÐºÑĢÐµÑĤ": 2777,
      "Ð»Ð°Ð²": 2778,
      "ĠÐľÐ½Ðµ": 2779,
      "ĠÐ¾ÑĤÐ¿ÑĢÐ°Ð²Ð»ÑıÑĤÑĮ": 2780,
      "ĠÑģÐ¼ÑĭÑģ": 2781,
      "ĠÐ·Ð°Ð¹": 2782,
      "ĠÐºÐ°Ð¶Ð´Ð¾Ð³Ð¾": 2783,
      "++++++++": 2784,
      "ĠÐ´Ð¶": 2785,
      "ÐĹÐ½Ð°": 2786,
      "elp": 2787,
      "ĠÑĥÑĩÐ°ÑģÑĤÐ²": 2788,
      "ÑĮÑİÑĤÐµÑĢ": 2789,
      "ĠÐ¿ÑĢÐ¾Ð´Ð¾Ð»Ð¶": 2790,
      "ĠÐºÐ¾Ð¼Ð°Ð½Ð´Ñĭ": 2791,
      "ĠÐ¼Ð°ÑĪ": 2792,
      "Ð¾Ð´Ð½Ð¾": 2793,
      "ĠÐ³ÐµÐ¹Ð¼": 2794,
      "ĠÐľÐ¾ÑģÐº": 2795,
      "Ð¸Ð¸Ð¸Ð¸": 2796,
      "ĠÐ½Ð¸ÐºÐ°Ðº": 2797,
      "ĠÐ¾Ð´Ð½Ð¾Ð³Ð¾": 2798,
      "ĠÑĦÑĥÐ½ÐºÑĨÐ¸Ð¸": 2799,
      "ur": 2800,
      "ĠÑĤÐµÑĢ": 2801,
      "ĠÐ´Ð°ÑĤÑĮ": 2802,
      "Ð¿Ð¾ÑĩÐµÐ¼Ñĥ": 2803,
      "ĠF": 2804,
      "ÐµÑĤÑĭ": 2805,
      "Ð°Ð½Ð´Ð°": 2806,
      "Ð°Ð´ÐµÑİÑģÑĮ": 2807,
      "ðŁĻı": 2808,
      "Ð°Ð°Ð°Ð°Ð°Ð°Ð°Ð°Ð°Ð°Ð°Ð°Ð°Ð°Ð°Ð°Ð°Ð°Ð°Ð°Ð°Ð°Ð°Ð°Ð°Ð°Ð°Ð°Ð°Ð°Ð°Ð°": 2809,
      "games": 2810,
      "you": 2811,
      "ĠÐºÐ°ÑĤ": 2812,
      "ĠÐ¿ÑĢÐ¾ÑĦ": 2813,
      "ĠÐ¿Ð¾Ð´ÑĢÑĥÐ³": 2814,
      "ĠÑĩÐ°ÑģÑĤÐ¾": 2815,
      "ĠÐºÐ°ÑĩÐµÑģÑĤÐ²Ðµ": 2816,
      "ÑĩÑĥ": 2817,
      "ĠÑĥÑģÑĤÐ°Ð½Ð¾Ð²": 2818,
      "ĠÐ¿Ð¾ÐºÑĥÐ¿": 2819,
      "ĠÐ½ÑĥÐ¶ÐµÐ½": 2820,
      "Ġ...": 2821,
      "ĠÐ¿Ð°Ð¿": 2822,
      "Ð¾Ð¼Ðµ": 2823,
      "Ð¾Ð³ÑĢÐ°ÑĦ": 2824,
      "ĠÑģÐ»Ð¾Ð¶Ð½Ð¾": 2825,
      "ĠÐ¼Ð¾Ð¶ÐµÐ¼": 2826,
      "ĠÐ¿ÐµÑĢÐµ": 2827,
      "ĠÐ¿ÑĢÐ¾Ð³ÑĢÐ°Ð¼Ð¼Ð¸ÑĢÐ¾Ð²": 2828,
      "^{": 2829,
      "ĠÑģÐ½Ð¾Ð²Ð°": 2830,
      "ĠÐ´Ð¸Ñģ": 2831,
      "Ð¿Ð°": 2832,
      "ĠÑĥÑĪ": 2833,
      "ĠÑĢÑĥ": 2834,
      "ĠÐ³Ðµ": 2835,
      "ĠÑģÑĤÐ¾Ð»": 2836,
      "ÑĥÑİÑĤ": 2837,
      "ĠĠĠĠĠĠĠ": 2838,
      "Ġfor": 2839,
      "ĠÐ¼ÐµÑĤÐ¾Ð´": 2840,
      "ĠÑĤÑĢÐµÑĥÐ³Ð¾Ð»ÑĮ": 2841,
      "ÐºÐ¾Ð½": 2842,
      "ÑĪÐ°": 2843,
      "Ð°Ð¿Ð¸ÑĪ": 2844,
      "ĠÐ´ÐµÐ»Ð°Ð»": 2845,
      "ĠÐ´Ð¾ÑģÑĤÑĥÐ¿": 2846,
      "ĠÑģÑĤÐ¾ÑĢÐ¾Ð½Ñĭ": 2847,
      "24": 2848,
      "Ð½ÐµÐ³Ð¾": 2849,
      "ĠÐ²ÐµÑī": 2850,
      "Ð°Ð»Ð¾Ð³": 2851,
      "Ð°ÐºÐ°": 2852,
      "ĠÐĲÐ»Ð¸": 2853,
      "Ì¤Ì®": 2854,
      "Ð¼Ð¾Ð¶": 2855,
      "Ð¼Ð°ÑĢÐ¼Ð¸Ð»": 2856,
      "ĠÐ½Ð°ÑģÑĤÑĢÐ¾": 2857,
      "100": 2858,
      "ĠÐ¿ÑĥÑĤ": 2859,
      "ĠÐ±Ð°Ð·": 2860,
      "Ð°Ð´ÑĥÑĤ": 2861,
      "ÐµÐ³Ð¸": 2862,
      "ĠÐ¿Ð¾Ð´Ð¿Ð¸Ñģ": 2863,
      "Ð½ÑıÑĤÑĮ": 2864,
      "ĠÐ´ÑĢÑĥÐ³Ð¸Ðµ": 2865,
      "ĠÐ¿ÑĢÐ¾ÑĪÐ»": 2866,
      "ĠÑĥÐ¶Ð°Ñģ": 2867,
      "ĠÐ½Ð°ÑħÐ¾Ð´": 2868,
      "Ð¸Ð²Ð°Ñİ": 2869,
      "ÑģÐºÐ¾Ð³Ð¾": 2870,
      "ÑĥÐ¶Ð´": 2871,
      "ÐµÑĩÐ°ÑĤÐ°ÐµÑĤ": 2872,
      "ÑĢÑĢ": 2873,
      "Ð¸ÑĤÐ¸": 2874,
      "ÐľÐ¾": 2875,
      "ðŁ¥º": 2876,
      "ÑĩÐ°ÑģÑĤ": 2877,
      "ĠÑĦÑĥÑĤÐ±": 2878,
      "ĠÐĿÑĥ": 2879,
      "ord": 2880,
      "tion": 2881,
      "ĠÐºÐ¾Ð¼Ð¿ÑĮÑİÑĤÐµÑĢ": 2882,
      "eta": 2883,
      "ĠÑĩÐ¸ÑĤÐ°ÑĤÑĮ": 2884,
      "```": 2885,
      "Ð°ÑĢÑĥ": 2886,
      "ÐĹÐ°ÑĩÐµÐ¼": 2887,
      "Ð£Ð¢": 2888,
      "Ġ25": 2889,
      "ĠÐ´Ð½ÑĳÐ¼": 2890,
      "ĠÐ¼Ð°Ð»ÐµÐ½ÑĮ": 2891,
      "Ð¼Ð°ÑĤ": 2892,
      "ĠÐĿÐĲ": 2893,
      "ĠÑĥÑĩÐ°ÑģÑĤÐ½Ð¸ÐºÐ¾Ð²": 2894,
      "ĠÐ¼Ð°Ð»ÑĮ": 2895,
      "ĠÐ´Ð°Ð»": 2896,
      "ĠÐ´Ð¾Ð±ÑĢÐ¾Ðµ": 2897,
      "Ð¾Ð½Ð¸": 2898,
      "Ð¢Ð¾": 2899,
      "Ð¾ÑĩÑĮ": 2900,
      "Ð¸Ð´Ñĥ": 2901,
      "ĠÐ½Ð°Ð¿ÑĢÐ¸Ð¼ÐµÑĢ": 2902,
      "ĠÑĨÐ¸ÑĦ": 2903,
      "!!!!!!!!": 2904,
      "ĠÐ·Ð½Ð°ÐºÐ¾Ð¼": 2905,
      "mit": 2906,
      "Ð¾Ð²ÑĭÐµ": 2907,
      "ÐľÐ¾Ð¹": 2908,
      "ĠÐ¾Ð´Ð½Ð¾Ð¹": 2909,
      "ĠÐ¼Ð¾Ñİ": 2910,
      "ÑģÑĤÐ°Ð²Ð¸ÑĤÑĮ": 2911,
      "ĠÐ²Ð¾Ñģ": 2912,
      "ÑĳÑĢ": 2913,
      "âĢ¢": 2914,
      "âľħ": 2915,
      "ĠÑģÐ¿Ð¸ÑģÐ¾Ðº": 2916,
      "ĠÐ´ÐµÑĢÐµÐ²": 2917,
      "ĠÐ¾Ð±ÑĢÐ°ÑĤ": 2918,
      "ĠÐĶÐ¶": 2919,
      "ĠÐ¸Ð¼ÐµÐµÑĤ": 2920,
      "ĠÑĦÑĥÐ½ÐºÑĨÐ¸Ñİ": 2921,
      "lab": 2922,
      "ĠÑĦÐ°Ðº": 2923,
      "ÐĲÐ¢Ð¬": 2924,
      "ðŁĺĪðŁĺĪ": 2925,
      "ĠÐ½ÐµÐ¾Ð±ÑħÐ¾Ð´": 2926,
      "ÐºÑĢÐ°ÑĦ": 2927,
      "ÑĤÐ¾ÑĢÑĥÑİ": 2928,
      "ĠÑĢÐµÐ´": 2929,
      "ĠÑħÐ¾ÑĤÐµÐ»Ð°": 2930,
      "Ð¸ÑĤÐµÐ»ÑĮÐ½Ð¾": 2931,
      "\".": 2932,
      "ĠÑĥÑģÑĤ": 2933,
      "ĠÐ½Ð°ÑĢÐ¸Ñģ": 2934,
      "ÑĥÐ´Ð¸Ðº": 2935,
      "Ð§Ð¾": 2936,
      "ÐŁÐ¥ÐŁÐ¥": 2937,
      "ÑĢÐ¾Ð´": 2938,
      "ine": 2939,
      "Ð½Ð¾Ð¼Ñĥ": 2940,
      "ĠÑģÐºÐ¸Ð´": 2941,
      "ĠÐ¾ÑĨ": 2942,
      "ĠÑįÑĤÐ¸Ñħ": 2943,
      "ĠÐ·Ð°Ð±Ð°Ð½": 2944,
      "ĠÐ¿Ð¾Ð»ÑĮÐ·Ð¾Ð²Ð°ÑĤÐµÐ»ÑĮ": 2945,
      "ÐĿÐ°Ð´Ð¾": 2946,
      "ĠÐ²ÑĭÑħÐ¾Ð´": 2947,
      "Ð½Ð°ÑĩÐ°ÐµÑĤ": 2948,
      "ne": 2949,
      "ĠÐľÐķÐĿÐ¯": 2950,
      "ĠÐ¿Ð¾Ð¼ÐµÐ½Ñı": 2951,
      "ÑĥÐ»Ñĭ": 2952,
      "ĠÑĥÑĤÑĢÐ¾Ð¼": 2953,
      "ĠÐ¼Ð°ÑĢÐ¼Ð¸Ð»": 2954,
      "ðŁĺ¢": 2955,
      "Ð£Ð¶Ðµ": 2956,
      "ĠÑģÐ²Ð¾Ð±": 2957,
      "ĠÑĢÐ°Ð²ÐµÐ½": 2958,
      "ĠÐ²ÐµÑĩÐµÑĢ": 2959,
      ":)": 2960,
      "iris": 2961,
      "ya": 2962,
      "Ð¡ÐµÐ³Ð¾Ð´Ð½Ñı": 2963,
      "ÐĶÐ»Ñı": 2964,
      "ĠÑĤÑĢÐµÐ±": 2965,
      "ÑĩÐ¸Ñģ": 2966,
      "ĠÐ¼ÑģÐº": 2967,
      "ÐµÑĤÑĢ": 2968,
      "ĠÐ·Ð°ÑħÐ¾Ð´": 2969,
      "Ð°Ð½Ð¸Ñĩ": 2970,
      "ĠÐ´Ð¾Ð»Ð¶Ð½Ð°": 2971,
      "ĠÐ±ÐµÐ»": 2972,
      "Ð¢ÐµÐ±Ðµ": 2973,
      "âģ¬": 2974,
      "17": 2975,
      "ĠÑĤÐ¾Ð¶": 2976,
      "ÐµÑĢÐ¾": 2977,
      "ĠÑĥÐ¿": 2978,
      "Ð°Ð½Ñı": 2979,
      "Ð¾Ð½Ñı": 2980,
      "ĠÐ¼ÐµÐ½": 2981,
      "ĠÐ½ÐµÑĳ": 2982,
      "ĠÑĥÐ¿ÑĢ": 2983,
      "Ð¹ÑĤÐµ": 2984,
      "Ð¢ÐµÐ¿ÐµÑĢÑĮ": 2985,
      "ĠÑĦÐ¸Ð»ÑĮ": 2986,
      "',": 2987,
      "ĠÑĥÑĢÐ°": 2988,
      "ĠÐºÑĢÐ¾Ð¼Ðµ": 2989,
      "ĠÐ¿Ð¸ÑĪÑĥ": 2990,
      "ÑĥÐ¿ÑĢÐµÐ¶Ð´ÐµÐ½Ð¸Ðµ": 2991,
      "ĠÐ²Ð°Ð¼Ð¸": 2992,
      "Ð²Ð°ÑĢ": 2993,
      "ĠÐ¿Ð¾ÑģÑĤÑĢÐ¾Ð¹": 2994,
      "ĠÐ½Ð¸ÐºÐ¾Ð³Ð´Ð°": 2995,
      "ÐĴÐĴÐĴÐĴ": 2996,
      "ĠÑģÐ¸Ð¼Ð²Ð¾Ð»": 2997,
      "ĠÐ¼Ð°Ð¼Ð°": 2998,
      "ĠÑĤÐ°ÐºÐ¸Ñħ": 2999,
      "ÐĽÐ¬": 3000,
      "ĠÐ¡ÑĤ": 3001,
      "The": 3002,
      "ÑĪÐºÐ°": 3003,
      "Ð°ÑĤÐ¸Ð²": 3004,
      "Ð¸Ð¼ÑģÑı": 3005,
      "Ð¥Ð¾ÑĩÑĥ": 3006,
      "ĠÐŁÐ¾Ð´": 3007,
      "ĠÑģÐ¾ÑħÑĢÐ°Ð½": 3008,
      "ĠÐ½Ð°ÑĩÐ°Ð»": 3009,
      "ĠÐ´Ð¾Ð»Ð³Ð¾": 3010,
      "Ð¿Ð¶Ð¿Ð¶": 3011,
      "ÐµÑĤÐ¾": 3012,
      "Ð¾ÑĤÐ¾Ð¼": 3013,
      "ĠÐ·Ð°Ð¿Ð¸ÑģÑĮ": 3014,
      "ĠÐ½Ð°Ð²Ñģ": 3015,
      "ĠÐ¶Ð¸Ð²Ñĥ": 3016,
      "ĠÐ½Ð°Ð¿Ð¸ÑģÐ°Ð»Ð°": 3017,
      "ĠÑĤÐµÐ»ÐµÑĦÐ¾Ð½Ðµ": 3018,
      "ĠÐ¿ÑĢÐ¸ÐºÐ¾Ð»": 3019,
      "ĠÐ¼Ð°Ð³Ð°Ð·": 3020,
      "ĠÐ¼Ð°ÑĢÐ°ÑĦÐ¾Ð½": 3021,
      "ĠÐ¶ÐµÐ½": 3022,
      "ĠÑģÐ»ÑĭÑĪ": 3023,
      "ÐĹÐ´ÑĢÐ°Ð²ÑģÑĤÐ²ÑĥÐ¹ÑĤÐµ": 3024,
      "ÑĢÐ¾Ð½": 3025,
      "ÐĲÐ³Ð°": 3026,
      "Ð¾Ð·Ð¼Ð¾Ð¶Ð½Ð¾": 3027,
      "ÑĭÐ²Ð°Ñİ": 3028,
      "ĠÐ¿ÑĢÐ¾Ð¿ÑĥÑģÑĤ": 3029,
      "ĠÑģÐ¾Ð´": 3030,
      "ĠÑģÐ¸ÑģÑĤ": 3031,
      "ðŁ¦": 3032,
      "ĠÐ¼Ð¾ÐµÐ³Ð¾": 3033,
      "ÑĢÐ¾Ð´Ðµ": 3034,
      "ĠÐ±Ð»Ð¾Ðº": 3035,
      "ðŁĺģ": 3036,
      "ÑĭÐ¼Ð¸": 3037,
      "Ð±Ñĥ": 3038,
      "ĠÐĿÐµÑĤ": 3039,
      "ÑģÐºÐ¾Ð¼Ñĥ": 3040,
      "ĠÐ¾Ð±ÑīÐ°ÑĤÑĮÑģÑı": 3041,
      "ĠÐ½Ð¾Ð¼ÐµÑĢ": 3042,
      "xt": 3043,
      "ĠÑģÐ¾ÑģÑĤÐ¾": 3044,
      "ÐŀÐ³Ð¾": 3045,
      "ĠÑģÑĤÐ°Ð»": 3046,
      "ĠÐ¾Ð±Ð±Ð¸": 3047,
      "ðŁ¤©": 3048,
      "ĠÐºÐ¾Ð½ÑĦ": 3049,
      "ĠÐ´ÑĢÑĥÐ³Ð°": 3050,
      "ÑģÐºÐ¾Ð¹": 3051,
      "oblox": 3052,
      "âĥ": 3053,
      "ĠÐ½ÐµÐ½": 3054,
      "ÐŁÐŀ": 3055,
      "ĠðŁĺĤ": 3056,
      "ĠÐ²Ð°ÑĢÐ¸Ð°Ð½ÑĤ": 3057,
      "ĠÐ´Ð°ÐµÑĤ": 3058,
      "ðŁĺ¶": 3059,
      "Ð¥ÐĲÐ¥ÐĲÐ¥ÐĲÐ¥ÐĲÐ¥": 3060,
      "ĠÐ¿Ð¸ÑĪÐ¸ÑĤÐµ": 3061,
      "ĠÐ¿ÑĢÐ¸Ð½Ð¸Ð¼": 3062,
      "pe": 3063,
      "Ð¸ÑĤÑĥ": 3064,
      "Ð°Ð»ÑĮÐ½Ð°Ñı": 3065,
      "ÐĳÑĥÐ´": 3066,
      "ĠÐºÐ¾Ð½ÑĨÐµ": 3067,
      "Ð°ÑħÐ°ÑħÐ°ÑħÐ°Ñħ": 3068,
      "ĠÑģÐµÐºÑĥÐ½": 3069,
      "Ð¢Ð¸Ð¿": 3070,
      "Ð½Ð¾ÑģÑĤÑĮÑİ": 3071,
      "ĠG": 3072,
      "ĠÑģÐ²Ð¾ÐµÐ¹": 3073,
      "ĠÐ´Ð¾Ð»Ð¶Ð½Ð¾": 3074,
      "ĠÐ¾Ð±ÑĭÑĩÐ½Ð¾": 3075,
      "ĠÐ²Ð¾Ð·Ð²ÑĢÐ°Ñī": 3076,
      "ÑĥÐ¶Ðµ": 3077,
      "ĠÐ¿Ñģ": 3078,
      "ĠÐ¼ÐµÐ¼": 3079,
      "ĠÐ½Ð°ÑĢÑĥÑĪ": 3080,
      "ĠÐ¿ÑĢÐ¾ÐµÐºÑĤ": 3081,
      "Ð³Ð»ÑıÐ´": 3082,
      "ÐµÐ´Ð¸": 3083,
      "Ð¸ÑģÑĤÑĢÐ°": 3084,
      "ĠÑĩÑĤÐ¾Ð±": 3085,
      "ĠÐ²ÑĭÐ²Ð¾Ð´": 3086,
      "ÐµÐºÑĤÑĭ": 3087,
      "Ð°Ð¶Ð¸": 3088,
      "Ð°ÑĪÐ°": 3089,
      "ĠÐ¼ÐµÑģÑıÑĨÐµÐ²": 3090,
      "ĠÑģÐºÐ¾ÑĢÐµÐµ": 3091,
      "ðŁįķ": 3092,
      "ĠÐ½ÐµÐ·": 3093,
      "Ð²Ð¾ÑĢ": 3094,
      "ĠÐ¿Ð¾ÑģÑĤÑĢÐ¾": 3095,
      "Ð¡Ð°Ð¼": 3096,
      "ĠÐ¿Ð¾Ð´Ð´ÐµÑĢÐ¶": 3097,
      "ĠÐ¿ÑĢÐµÐ´Ð¼ÐµÑĤ": 3098,
      "ĠÐºÐ°Ð½Ð¸Ðº": 3099,
      "ĠÐ´Ð¾Ð²": 3100,
      "ĠÐ¿ÑĢÐµÐ¼": 3101,
      "ĠÑĢÐ°Ð±Ð¾ÑĤÑĭ": 3102,
      "ÑģÐºÐ°Ð¶Ð¸ÑĤÐµ": 3103,
      "vi": 3104,
      "¨à£": 3105,
      "Ð°Ð¹Ð½ÐºÑĢÐ°ÑĦ": 3106,
      "ĠÐ¿ÑĥÐ¿Ñģ": 3107,
      "ÙĦ": 3108,
      "ĠÑģÐ¾ÑĢ": 3109,
      "ĠÐĴÐ¡": 3110,
      "ĠÑģÐ´ÐµÐ»Ð°Ð»Ð°": 3111,
      "ĠÑıÐ·ÑĭÐº": 3112,
      "Ð¥Ð¾ÑĢÐ¾ÑĪÐ¾": 3113,
      "cm": 3114,
      "ry": 3115,
      "ÐºÐ¾Ð³Ð¾": 3116,
      "ĠÑĢÑĥÐº": 3117,
      "Ð°Ð´Ð°Ð´": 3118,
      "ĠÐ¶Ð´Ñĥ": 3119,
      "ĠÐ·Ð°ÐºÑĢÑĭ": 3120,
      "ĠÐ³ÑĢÑĥÐ¿Ð¿Ñĭ": 3121,
      "ĠÑĤÐ°Ð½": 3122,
      "Ð´Ð°Ñİ": 3123,
      "ĠÐ¿ÐµÑĢÐµÐ¼ÐµÐ½": 3124,
      "â¬ľï¸ı": 3125,
      "ÑĢÐ°Ð±Ð¾ÑĤ": 3126,
      "ĠÐ¿ÑĢÐµÐº": 3127,
      "ÐķÐļ": 3128,
      "ĠÑĢÐ°Ð·Ð°": 3129,
      "ĠÐ¿Ð»Ð¾Ñī": 3130,
      "ĠÐ¾Ð±ÑıÐ·Ð°ÑĤÐµÐ»ÑĮÐ½Ð¾": 3131,
      "ĠÐ°ÐºÐºÐ°ÑĥÐ½": 3132,
      "ĠÑģÐ½": 3133,
      "ĠÐ´Ð°Ð»Ð¸": 3134,
      "ĠÑĩÐ»ÐµÐ½": 3135,
      "ĠÐ¾Ð±Ð¸Ð´": 3136,
      "âĢĵ": 3137,
      "ĠÐ¸Ð½Ð¾Ð³Ð´Ð°": 3138,
      "ĠÐ´Ð²Ðµ": 3139,
      "ĠÑĥÑĤÑĢÐ°": 3140,
      "Ýħ": 3141,
      "ÐŀÐĴ": 3142,
      "otik": 3143,
      "ĠÐºÐ¾ÑģÐ¼": 3144,
      "ĠÐ¾Ð·Ð½Ð°ÑĩÐ°ÐµÑĤ": 3145,
      "ĠÑģÐ¾Ð´ÐµÑĢÐ¶": 3146,
      "ĠÑģÑĩÐµÑĤ": 3147,
      "Ð°Ð½Ð¸Ð»Ð¸": 3148,
      "Ð¸Ð·Ð°": 3149,
      "ĠÑģÐºÐ°Ð·Ð°Ð»Ð¸": 3150,
      "Ð¼Ðµ": 3151,
      "ĠÐºÐ¾Ð¿": 3152,
      "ĠÐŁÐłÐŀ": 3153,
      "à¹ĭ": 3154,
      "ÑĥÐ»ÑĮÑĤ": 3155,
      "ĠÐ´ÐµÐ²Ð¾ÑĩÐºÐ°": 3156,
      "¨à£¨à£": 3157,
      "ĠSkysmart": 3158,
      "Ġâľ¨": 3159,
      "ĠÐ¿Ð°Ñģ": 3160,
      "ĠÑģÐ¾Ð»": 3161,
      "ĠÑĩÐµÑģÑĤÐ½Ð¾": 3162,
      "ĠÐ¸Ð³ÑĢÐ°Ð»": 3163,
      "ÑĭÐ²Ð°ÑİÑĤ": 3164,
      "ĠÐºÐ¾Ð´Ð¾Ð²Ð¾Ðµ": 3165,
      "âĢįâĻ": 3166,
      "Ð¾ÐºÐ¾": 3167,
      "ĠÐ¾Ð±Ðµ": 3168,
      "ĠÐ³Ð¾Ð»Ð¾Ð²": 3169,
      "ÐŀÐ½Ð¸": 3170,
      "ÐĺÑĢÐ¸Ñģ": 3171,
      "ĠÐ¼Ð¸Ð½Ð¸Ð¼": 3172,
      "sin": 3173,
      "Ġand": 3174,
      "Ð°Ð¼ÐµÐ½": 3175,
      "ĠÐ²ÑģÑİ": 3176,
      "ĠÐľÑĭ": 3177,
      "ĠðŁĺİ": 3178,
      "ĠÑĥÐ¼ÐµÑİ": 3179,
      ":**": 3180,
      "Ð±ÑĢÐ°Ð½": 3181,
      "ÐļÐ¾Ð¼Ñĥ": 3182,
      "ĠÑħÐ²Ð°ÑĤÐ¸ÑĤ": 3183,
      "âłĦ": 3184,
      "ÑģÑĤÐ°Ð²Ð»ÑıÐµÑĤ": 3185,
      "19": 3186,
      "ĠÐ½Ð°Ð¹Ð´": 3187,
      "à£©": 3188,
      "ÐĲÐĲÐĲÐĲÐĲÐĲÐĲÐĲÐĲÐĲÐĲÐĲÐĲÐĲÐĲÐĲ": 3189,
      "à¹Ĭà¹Ĭà¹Ĭà¹Ĭ": 3190,
      "ĠÑĦÑĥÑĤÐ±Ð¾Ð»": 3191,
      "ÑĢÐµÐ¼": 3192,
      "ÑĢÐ°Ð»Ð°": 3193,
      "ÑĢÐ°Ð»Ð¸": 3194,
      "ĠÐ½ÐµÑĩ": 3195,
      "ÐĺÐ¡": 3196,
      "ĠÐ¿Ð¾ÑĢÑĤ": 3197,
      "ÑĨÐµÐ½Ð¸ÑĤÐµ": 3198,
      "ÝħÝħ": 3199,
      "ÐŀÑĩÐµÐ½ÑĮ": 3200,
      "ðŁĳ¤": 3201,
      "ÑĥÑĪÐºÐ°": 3202,
      "ĠÑģÑĤÑĢÐ°ÑĪÐ½Ð¾": 3203,
      "ĠÐ·Ð½Ð°Ð»": 3204,
      "ĠÐºÐ¾Ð¼Ð°Ð½Ð´Ð°": 3205,
      "ĠL": 3206,
      "ÐºÐ¾Ð³Ð´Ð°": 3207,
      "ĠÑģÐµÐ¼": 3208,
      "Ð¸ÑĤÐµÑĢ": 3209,
      "ĠÐ°Ð»ÐµÐºÑģ": 3210,
      "ĠÑĦÐ»": 3211,
      "Ð°Ð½Ð´ÐµÑĢ": 3212,
      "Ð½Ð°ÐºÐ¾": 3213,
      "ĠH": 3214,
      "ĠÑģÐ¸Ð»ÑĮÐ½Ð¾": 3215,
      "Ð¢Ð°": 3216,
      "ÑĢÑĥÑĤÐ¾": 3217,
      "ðŁĻĤ": 3218,
      "Ġyou": 3219,
      "à¹ĭà¹ĭ": 3220,
      "18": 3221,
      "gin": 3222,
      "ÑĢÐµÐ±ÑıÑĤ": 3223,
      "ĠÐºÐ¸Ð½Ñĥ": 3224,
      "ÐµÐ»Ð¸Ñĩ": 3225,
      "ÐĺÐľ": 3226,
      "ĠÐ½Ð°Ð²ÐµÑĢÐ½Ð¾": 3227,
      "ĠÐ½ÐµÐ´ÐµÐ»Ñİ": 3228,
      "Ð´ÐµÑĤ": 3229,
      "ĠÑĥÐ»Ð¸": 3230,
      "Ð¡Ð¯": 3231,
      "ĠÐ¿Ð¾Ð»Ð¾Ð¶": 3232,
      "ĠÑģÐ¾Ð¾": 3233,
      "Ð¾Ð´ÐµÑĨ": 3234,
      "ĠÐ½Ð°Ð·ÑĭÐ²Ð°ÐµÑĤÑģÑı": 3235,
      "ÐµÐ½Ð½ÑĭÐµ": 3236,
      "ÐĲÐķ": 3237,
      "ĠÐ¿ÑĢÐµÐ´ÑģÑĤÐ°Ð²": 3238,
      "âŃĲâŃĲ": 3239,
      "ĠÐ®": 3240,
      "ĠÑģÐ¸Ð¶Ñĥ": 3241,
      "ĠÑĩÑĤ": 3242,
      "Ð¸Ð½ÑĮÑĤÐµ": 3243,
      "Ġ1000": 3244,
      "ĠÑĢÐ°Ð·Ð²": 3245,
      "ĠÐ¸Ð³ÑĢÐµ": 3246,
      "Ð°Ð¹ÑģÑı": 3247,
      "ĠÐ¸Ð·ÑĥÑĩ": 3248,
      "ĠÑģÐ¼Ð¾Ð³": 3249,
      "ĠÐ§ÑĤÐ¾": 3250,
      "ub": 3251,
      "ĠU": 3252,
      "Ġ×": 3253,
      "Ð²Ð°Ð½": 3254,
      "ĠÐ±Ð¾Ð³": 3255,
      "Ð°Ð»ÑĮÐ½Ð¾Ð¹": 3256,
      "ĠÐ¸Ð½ÑģÑĤÑĢÑĥÐºÑĨÐ¸": 3257,
      "ĠÐ½Ð¾Ð²ÑĭÐµ": 3258,
      "ĠÐ°Ð²Ð°ÑĤÐ°ÑĢ": 3259,
      "Ð½Ð¸Ð»": 3260,
      "ĠÐ¼ÐµÑĢ": 3261,
      "ÑĪÐ¸Ð¹": 3262,
      "ĠÐ´Ð¾Ð½Ð°ÑĤ": 3263,
      "Ð¾Ð²Ð°ÑĤÐµÐ»ÑĮÐ½Ð¾": 3264,
      "ÐĲÐĳ": 3265,
      "ĠÑģÐ»ÑĥÑĩÐ°Ð¹Ð½Ð¾": 3266,
      "ey": 3267,
      "ka": 3268,
      "ĠÑģÑĥÐ¿ÐµÑĢ": 3269,
      "ĠÐ·Ð°Ð±ÑĭÐ»": 3270,
      "ĠÑĥÑĢÐ¾ÐºÐ¸": 3271,
      "ÐĺÐĺÐĺÐĺ": 3272,
      "____": 3273,
      "ĠÐ¾Ð´Ð½Ð¾Ðº": 3274,
      "ĠÐ¿Ð¾Ð¸Ð³ÑĢÐ°ÑĤÑĮ": 3275,
      "ĠÐ½Ð°Ð²ÑģÐµÐ³Ð´Ð°": 3276,
      "ĠÐºÐ°ÐºÑĥÑİ": 3277,
      "ĠÑģÐ°Ð¼Ð¾Ð¼": 3278,
      "ĠÑĤÐµÐ»ÐµÐ³": 3279,
      "ĠÐ²ÑĭÐ¸Ð³ÑĢÐ°Ð»": 3280,
      "ĠÐ¼Ð¾Ð»Ñĩ": 3281,
      "\\[": 3282,
      "ÑıÐµÑĤ": 3283,
      "ÐŀÐ¢": 3284,
      "ðŁĴ¬": 3285,
      "ðŁı¿": 3286,
      "ome": 3287,
      "ÐµÑĢÑĪ": 3288,
      "Ð¸ÑĤÐµÑģÑĮ": 3289,
      "ĠÐ¾Ð½Ð»Ð°Ð¹Ð½": 3290,
      "Ð¡ÐºÐ¾Ð»ÑĮÐºÐ¾": 3291,
      "ĠÐ²Ð¿": 3292,
      "ĠÐ´Ð°Ð½Ð½ÑĭÐµ": 3293,
      "ÐļÐ¾ÑĢÐ¾ÑĩÐµ": 3294,
      "ðŁįķðŁįķ": 3295,
      "ĠÐ¿Ð¾Ð¶": 3296,
      "ĠÐ²ÑħÐ¾Ð´": 3297,
      "ĠÐ¼ÐµÑĩ": 3298,
      "ÐµÐ»ÐµÐ½": 3299,
      "Ð°Ð½Ð½ÑĭÐ¹": 3300,
      "ĠÐ¿Ð¾ÑģÑĤ": 3301,
      "Ġ:(": 3302,
      "ĠÐ·Ð°Ð²Ð¸Ñģ": 3303,
      "ĠÑĪÐºÐ¾Ð»Ñĭ": 3304,
      "kkkk": 3305,
      "890": 3306,
      "ĠÐ¼Ð°ÑĢ": 3307,
      "ĠÐºÐ°ÐºÐ¾Ð³Ð¾": 3308,
      "Ġ21": 3309,
      "ĠÐ´ÐµÐ»Ð¾": 3310,
      "ÐŁÑĢÐ¸": 3311,
      "ĠÑģÐ¾Ð²ÑģÐµÐ¼": 3312,
      "à£©à£©": 3313,
      "am": 3314,
      "Ð´Ð°Ð²": 3315,
      "28": 3316,
      "60": 3317,
      "ĠÌ": 3318,
      "Ð»Ð¾Ð²": 3319,
      "ĠÐ·Ð°Ð±Ñĭ": 3320,
      "ĠÐ±Ð¾Ð»ÑĮÑĪÐ¾Ðµ": 3321,
      "?!?!": 3322,
      "ĠÐ°Ð½Ð³Ð»Ð¸Ð¹ÑģÐºÐ¸Ð¹": 3323,
      "ĠÐĲÐ½Ð³": 3324,
      "ĠÐ½ÐµÐ±": 3325,
      "ĠÐłÐ¾ÑģÑģ": 3326,
      "ÐĴÐ¥ÐĴÐ¥": 3327,
      "youtu": 3328,
      "38": 3329,
      "ĠÐ´Ð°Ð´ÑĥÑĤ": 3330,
      "Ð½Ð¾ÑĢ": 3331,
      "ĠÐ¢Ð«": 3332,
      "ĠÐºÑĥÐ¿Ð¸ÑĤÑĮ": 3333,
      "ðŁĺ¨ðŁĺ¨": 3334,
      "Įà¹Įà¹Įà¹Įà¹": 3335,
      "ĠÐ²Ð¸Ð½": 3336,
      "ĠÐºÑĥÐ±": 3337,
      "ĠÐ¼ÐµÑģÑĤÐµ": 3338,
      "ÐĲÐºÑĤÐ¸Ð²": 3339,
      "Ð¸ÑĩÐ½Ð¾": 3340,
      "ore": 3341,
      "ĠÐ»Ð°Ð³ÐµÑĢÐµ": 3342,
      "Ð½Ð°ÐºÐ¾Ð¼": 3343,
      "Ð±Ð¾": 3344,
      "ĠÐ¿Ð¾Ð½ÑıÑĤÑĮ": 3345,
      "ĠÐ¿ÑĢÐ°Ð²Ð¸Ð»": 3346,
      "ĠÑĢÐ°Ð·Ð´ÐµÐ»": 3347,
      "ĠÐ¡Ðº": 3348,
      "ðŁĳī": 3349,
      "ĠÑĥÑĩÐµÐ±": 3350,
      "start": 3351,
      "????????": 3352,
      "ŀķ": 3353,
      "ĠÐ¿Ð°Ð»": 3354,
      "Ð¡ÑĤÐ°ÑĤ": 3355,
      "ĠÐ´ÑĥÐ¼Ð°Ð»Ð°": 3356,
      "ĠÑĥÑĩÐ°ÑģÑĤÐ¸Ðµ": 3357,
      "Ð©Ð°Ñģ": 3358,
      "Òī": 3359,
      "Ð¾Ð¶ÐµÑĪÑĮ": 3360,
      "ĠÐ°Ð±": 3361,
      "ĠÐ¿ÑĢÐ°Ð²Ð¸Ð»ÑĮ": 3362,
      "ĠÐºÑĢÑĥÑĤÐ¾Ð¹": 3363,
      "Ð¾Ð½ÑĤ": 3364,
      "Ð°Ð¿ÐµÑĨ": 3365,
      "ĠÐºÐ»Ð°ÑģÑģÐ°": 3366,
      "ĠÑģÑģÑĭÐ»ÐºÐ¸": 3367,
      "Ð¥ÐĲÐ¥ÐĲ": 3368,
      "ĠÑĥÑĢÐ°Ð²Ð½ÐµÐ½Ð¸Ñı": 3369,
      "ÐĽÑİÐ´Ð¸": 3370,
      "ak": 3371,
      "âļ": 3372,
      "ĠÐ»Ð°Ð²": 3373,
      "ĠÐ»ÐµÑĤÐ¾": 3374,
      "Ð°Ð»ÑĮÐ½ÑĭÑħ": 3375,
      "ĠÑħÐ¾ÑĤÐ¸ÑĤÐµ": 3376,
      "con": 3377,
      "Ð½ÐµÐ´": 3378,
      "ĠÐ²Ð¾Ð»": 3379,
      "ÐĲÐĸ": 3380,
      "ÑĢÐ¾ÑĪ": 3381,
      "ĊĠĠĠĠĠĠĠĠĠĠĠ": 3382,
      "ðŁĵĬ": 3383,
      "ĠÑģÐºÑĥÑĩÐ½Ð¾": 3384,
      "ĠÐ¿Ð¾ÑĤÑĢ": 3385,
      "ĠÑģÐ½Ð°ÑĩÐ°Ð»Ð°": 3386,
      "ÐµÐ½Ð½ÑĭÐ¹": 3387,
      "ĠÐ¿ÑĢÐ¾ÑħÐ¾Ð´": 3388,
      "ÐĲÐĲÐĲ": 3389,
      "ĠÐ¢ÐĲÐļ": 3390,
      "ðŁĴĭðŁĴĭ": 3391,
      "ĠÐ¿ÑĢÐ¸ÑģÐ»": 3392,
      "ĠÐ¿Ð¸ÑĤ": 3393,
      "Ð°Ð·Ð´": 3394,
      "ÐµÐ±Ñı": 3395,
      "ÐĶÐ¾": 3396,
      "ĠÐ¢ÐµÐ¿ÐµÑĢÑĮ": 3397,
      "ĠÐ²Ð¾Ð¿ÑĢÐ¾ÑģÑĭ": 3398,
      "ðŁĺŃðŁĺŃðŁĺŃðŁĺŃðŁĺŃðŁĺŃðŁĺŃðŁĺŃ": 3399,
      "pi": 3400,
      "Ð¸ÑĥÐ¼": 3401,
      "ĠÑģÐµÐ·": 3402,
      "ĠÑĤÐµÑģÑĤ": 3403,
      "ÐļÐĲ": 3404,
      "ĠÑĦÐ°Ð¹Ð»": 3405,
      "ÑįÐ¹": 3406,
      "Ð²Ð°ÑĤÑĮ": 3407,
      "ĠÐ¿Ð¾Ð´ÐºÐ»ÑİÑĩ": 3408,
      "ÐµÐ¿ÑĥÑĤ": 3409,
      "ÑģÑĭÐ»ÐºÐ°": 3410,
      "ĠÑĦÑĥÐ½ÐºÑĨÐ¸Ñı": 3411,
      "ĠÐ¿Ð¾ÑħÐ¾Ð¶": 3412,
      "si": 3413,
      "ÐĿÐ¸ÑĩÐµÐ³Ð¾": 3414,
      "ĠÐ½ÐµÐ´Ð°Ð²Ð½Ð¾": 3415,
      "ÐŁÐµÑĢÐ²Ð¾Ðµ": 3416,
      "Ð·Ñĥ": 3417,
      "ÐµÐ´Ñĥ": 3418,
      "ĠÐ¢Ñĭ": 3419,
      "Ð¾Ð²Ð°ÑĤÑĮÑģÑı": 3420,
      "ĠÑģÐºÑĢÐ¸Ð½": 3421,
      "ÑĢÐ¾Ð¹": 3422,
      "ĠÐŁÐ¾Ð»": 3423,
      "ðŁ¤¬": 3424,
      "ĠÑĥÐ¼Ð½Ð¾Ð¶": 3425,
      "ĠÐ»ÐµÐ³ÐµÐ½Ð´Ð°": 3426,
      "ĠÐ¸ÑĤÐ¾Ð³": 3427,
      "amp": 3428,
      "ĠÑĤÐµÐ¼Ñĥ": 3429,
      "ĠÐ´Ð°Ð²Ð°Ð¹": 3430,
      "ĠÑįÑĦÐ¸ÑĢÐµ": 3431,
      "ĠÐ¿ÑĢÐ¸ÑģÑĭÐ»": 3432,
      "ĠÐ¾ÑĤÐ½Ð¾ÑĪ": 3433,
      "ĠÐ²ÑģÑĤÑĢÐµÑĩ": 3434,
      "ĠÐ¼Ð°Ð»ÑĮÑĩÐ¸Ðº": 3435,
      "ÙĬ": 3436,
      "ÑĤÐµÐ³": 3437,
      "ÑĩÐ¸Ð²": 3438,
      "ĠÑģÐ½Ð¸Ð¼": 3439,
      "ĠÑģÐ¼Ð¾ÑĤÑĢÐµÐ»": 3440,
      "ĠÐ´ÐµÐ½ÑĮÐ³Ð¸": 3441,
      "ðŁĳģðŁĳģ": 3442,
      "label": 3443,
      "40": 3444,
      "ring": 3445,
      "ĠÐ·Ð°Ð´Ð°Ð½Ð¸Ð¹": 3446,
      "ĠÑĤÐ¾ÑĩÐºÐ¸": 3447,
      "ĠÑĢÐ°Ð´Ð¸": 3448,
      "Ð°Ñĥ": 3449,
      "Ð¸Ð½Ð°ÑĢ": 3450,
      "Ð°Ð³ÑĢÐ°Ð´": 3451,
      "Ð¸ÑģÑĤÐ¸ÐºÐ°": 3452,
      "ĠÐ¿Ð°ÑĢÑĥ": 3453,
      "Ð°ÐºÐ¾Ð½ÐµÑĨ": 3454,
      "ĠÐ³Ñĥ": 3455,
      "Ð«Ð¥": 3456,
      "ÑĥÐµÑĤÑģÑı": 3457,
      "ĠÐ¾ÑĤÐ¼": 3458,
      "ÑĢÑĭÐ¼": 3459,
      "ĠÐ½ÐµÐ´ÐµÐ»Ð¸": 3460,
      "ĠÐŁÐ¾ÑįÑĤÐ¾Ð¼Ñĥ": 3461,
      "Ð¡ÐµÐ¹ÑĩÐ°Ñģ": 3462,
      "ĠÑĢÐ¸ÑģÐ¾Ð²Ð°ÑĤÑĮ": 3463,
      "Kotik": 3464,
      "ĠÐ²Ð·Ñı": 3465,
      "ĠÐ¾Ð±ÑĥÑĩ": 3466,
      "ĠÐ¸Ð¼Ðµ": 3467,
      "ĠÐ¿Ð¾ÑģÐ»ÐµÐ´Ð½Ð¸Ð¹": 3468,
      "ÐµÑĨÐ¸": 3469,
      "ĠÐºÐ°Ð¼": 3470,
      "ÐŁÐ¾ÐºÐ°": 3471,
      "ĠÐ±ÑĭÑģÑĤÑĢÐ¾": 3472,
      "ÐľÐ°ÑĢÐ¼Ð¸Ð»": 3473,
      "ÐµÐ·Ð»Ð¾": 3474,
      "ÐĵÐ¾": 3475,
      "áħłáħłáħłáħłáħłáħłáħłáħł": 3476,
      "Ġ&": 3477,
      "ĠÑģÑģÐ¾ÑĢ": 3478,
      "Ð±Ð»Ð¸Ð½": 3479,
      "ÐĶÐķ": 3480,
      "ĠÐ¿Ð¾Ð»Ð¾Ð²": 3481,
      "ĠÐ»ÐµÐ³ÐµÐ½Ð´": 3482,
      "ÐµÐµÐµÐµÐµÐµÐµÐµ": 3483,
      "ĠÑĢÑĥÐ±Ð»ÐµÐ¹": 3484,
      "915": 3485,
      "ĠÑģÐ±": 3486,
      "ĠÐ²Ð½Ð¸Ð¼": 3487,
      "ĠÑĤÐ°Ð¹": 3488,
      "ĠÐ²ÑĭÑĪÐµ": 3489,
      "ÐºÑĥÑİ": 3490,
      "ĠÑĦÐ°ÐºÑĤ": 3491,
      "Ġ200": 3492,
      "ðŁĺ°ðŁĺ°": 3493,
      "ÐĶÐ°Ð²Ð°Ð¹ÑĤÐµ": 3494,
      "min": 3495,
      "ers": 3496,
      "ĠÐĺÐ»Ð¸": 3497,
      "ĠÑĢÐ°Ð±Ð¾ÑĤÐ°ÑĤÑĮ": 3498,
      "ĠÐ¿Ð¾Ð¿ÑĢÐ¾Ñģ": 3499,
      "ĠÑģÐ¾Ð±Ð¾Ð¹": 3500,
      "ĠRoblox": 3501,
      "ĠÑĢÐµÐºÐ»Ð°Ð¼": 3502,
      "ĠÑĩÑĳÐ¼": 3503,
      "raw": 3504,
      "Ð¾Ð²Ð°Ð»Ð°": 3505,
      "ĠÑĢÐ°Ð±": 3506,
      "ĠÐ½Ð°Ð¸Ð±": 3507,
      "ÐķÑīÑĳ": 3508,
      "Ð°Ð±ÐºÐ°": 3509,
      "ÐłÐ£": 3510,
      "ĠÐ°Ð²Ð°": 3511,
      "45": 3512,
      "ĠÑģÐ¾Ð·": 3513,
      "Ð¾Ð»Ð¸": 3514,
      "Ð¾Ð´Ð°ÑĢ": 3515,
      "ÑĥÐ»ÑıÑĢ": 3516,
      "ÑĤÐµÑĢÐµÑģÐ½Ð¾": 3517,
      "ĠÑĩÐ°ÑģÑĤÐ¸": 3518,
      "pt": 3519,
      "ĠÐ´Ð¸Ð·": 3520,
      "Ð´Ð°ÐµÑĤ": 3521,
      "ĠÑįÑĤÐ¾Ð¼Ñĥ": 3522,
      "ĠÐĲÐ»ÐµÐºÑģÐ°": 3523,
      "ĠÐ°Ð½Ð¸Ð¼Ðµ": 3524,
      "Ð»Ð¸ÑģÑĮ": 3525,
      "Ð¾Ð±Ð»Ð¾ÐºÑģ": 3526,
      "ĠÑģÐ»Ð¾Ð¼": 3527,
      "ĠÐºÐ¾Ð½ÑĤ": 3528,
      "ĠÐºÐ¾ÑĤÐ¾ÑĢÐ¾Ð¹": 3529,
      "ĠÑģÐ´ÐµÐ»Ð°Ñİ": 3530,
      "ĠÐºÐ¾ÑĢÐ¾ÑĩÐµ": 3531,
      "ÐĶÐ°Ð²Ð°Ð¹": 3532,
      "Ð¾ÑĢÐ¾Ð²": 3533,
      "ĠÐ´ÑĢÑĥÐ³Ð¾Ð¼": 3534,
      "ĠÐĹÐ°ÑĤÐµÐ¼": 3535,
      "ĠÑĥÑĤÐ²ÐµÑĢÐ¶": 3536,
      "ĠÑĢÐµÑĪÐµÐ½Ð¸Ñı": 3537,
      "ĠÑģÐ¿Ð°Ð¼Ð¸ÑĤÑĮ": 3538,
      "ÑħÐ°ÑħÐ°ÑħÐ°Ñħ": 3539,
      "app": 3540,
      "ĠÑģÐ°Ð¼Ð¸": 3541,
      "Ð´ÐµÐ½ÑĮ": 3542,
      "Ð¾Ð»ÐµÑĤ": 3543,
      "ann": 3544,
      "Ġif": 3545,
      "ĠÐ¾ÑģÑĤÐ°Ð»Ð¾ÑģÑĮ": 3546,
      "ĠÑĥÐ¼ÐµÑĢ": 3547,
      "ĠÐ¶Ð¸Ð²Ð¾ÑĤ": 3548,
      "ĠÐ·Ð°Ð´Ð°Ð½Ð¸Ñı": 3549,
      "ĠÑįÑĦÐ¸ÑĢÐ¾Ð²": 3550,
      "ĠÐ²Ð¾Ð·ÑĢÐ°ÑģÑĤ": 3551,
      "right": 3552,
      "ĠÐ¼Ð¾Ð´ÐµÐ»ÑĮ": 3553,
      "2021": 3554,
      "16890": 3555,
      "91599": 3556,
      "1689091599": 3557,
      "ĠÐ¼Ð½ÐµÐ½Ð¸Ðµ": 3558,
      "ĠÐ´ÐµÐ½": 3559,
      "ÐĲÐ®": 3560,
      "ÐļÐ¾Ð½": 3561,
      "ĠÑħÑĥÐ´": 3562,
      "ĠÐ²ÑĭÑĩÐ¸Ñģ": 3563,
      "ĠÐ¿ÑĢÐµÐ´Ð»Ð°Ð³": 3564,
      "ĠÐ·Ð½Ð°ÑĤÑĮ": 3565,
      "ze": 3566,
      "ÑĮÐ¼": 3567,
      "ĠÐ±ÑĢÐ°Ðº": 3568,
      "Ġ22": 3569,
      "ĠÐŀÐ¢": 3570,
      "ĠÐºÐ¾Ð½ÑĨÐ°": 3571,
      "ĠÐ´Ð°ÑİÑĤ": 3572,
      "ÐĽÐĺ": 3573,
      "ĠÐ¿ÐµÑĢÑģÐ¾Ð½": 3574,
      "ĠÐ½Ð°Ð´ÐµÑİÑģÑĮ": 3575,
      "ĠÐ·Ð°Ð´Ð°Ð½": 3576,
      "ĠÐ»Ð°Ð³ÐµÑĢÑı": 3577,
      "Ð²ÐµÐ´Ð¸ÑĤÐµ": 3578,
      "ĠÐ¿Ð¾ÑıÐ²Ð»ÐµÐ½Ð¸Ðµ": 3579,
      "'.": 3580,
      "ĠðŁ¥°": 3581,
      "ĠÐ²Ðº": 3582,
      "ĠÐ¸Ð·Ð²": 3583,
      "ÐµÐ»ÑĮÐ¼": 3584,
      "ÑģÐ¿Ð°ÑģÐ¸Ð±Ð¾": 3585,
      "Ġis": 3586,
      "ÑįÑįÑįÑį": 3587,
      "Ð¸Ð¼Ð¾ÑĦÐµÐ¹": 3588,
      "ÐºÑĥÐ´Ð°": 3589,
      "ÑĩÑĳÑĤ": 3590,
      "ÐĿÐ¾ÑĢÐ¼": 3591,
      "ĠðŁĺħ": 3592,
      "ĠÑģÐ¼ÐµÐ½Ðµ": 3593,
      "ĠÐ±Ð¸Ð¾Ð»Ð¾Ð³": 3594,
      "TheKotik": 3595,
      "ÐĲÐ»Ð¸Ðº": 3596,
      "Ð»Ð¸ÑĤ": 3597,
      "ĠÐ³ÑĢÐ°ÑĦ": 3598,
      "ĠÑħÐ¸Ð¼": 3599,
      "ĠÑģÐ²Ð¾ÐµÐ³Ð¾": 3600,
      "ÐĸÐķ": 3601,
      "ðŁįį": 3602,
      "ff": 3603,
      "Ð¾Ð±ÑĢÐ°Ð·": 3604,
      "ĠÐłÐ°Ð½Ð³": 3605,
      "ĠÐĵÐŀ": 3606,
      "99999999": 3607,
      "Ġr": 3608,
      "Ð¾ÐºÑģ": 3609,
      "Ð°Ð±Ð°ÑĤ": 3610,
      "ĠÐ²ÐµÑĢÑģ": 3611,
      "ĠÐ¸Ð´ÐµÑı": 3612,
      "29": 3613,
      "yt": 3614,
      "ĠÐŀÐ´": 3615,
      "ĠÐ´Ð¾ÑģÑĤ": 3616,
      "Ð¥Ð¾ÑĤÑı": 3617,
      "ÐµÐ¿ÑĥÑĤÐ°ÑĨÐ¸Ñı": 3618,
      "ÐµÐ½Ð½ÑĭÑħ": 3619,
      "ÑĦÐ¸Ðº": 3620,
      "ÐĶÐ¾Ð±ÑĢ": 3621,
      "Ð¿ÑĢÐ¾": 3622,
      "ĠÑĤÐ²Ð¾ÑĢ": 3623,
      "ĠÐ¾ÑĤÐºÑĥÐ´Ð°": 3624,
      "ĠÑģÐºÐ°Ð¶Ñĥ": 3625,
      "Ġâŀķ": 3626,
      "Ġ>": 3627,
      "ÑıÑİ": 3628,
      "ÑĢÐ°Ñĩ": 3629,
      "ÑĥÑĩÑĪÐµ": 3630,
      "ÐµÐ·Ð´": 3631,
      "ĠÐ¿ÐµÑĢÐµÑģ": 3632,
      "roup": 3633,
      "ĠÐ³Ð¾Ð²Ð¾ÑĢÑıÑĤ": 3634,
      "ĠÐ´Ð°Ð²Ð°Ð¹ÑĤÐµ": 3635,
      "ĠÐ·Ð°ÑıÐ²ÐºÑĥ": 3636,
      "rix": 3637,
      "ĠÑĥÐ´Ð¾Ð±": 3638,
      "ĠÐ±Ð°Ð±ÐºÐ°": 3639,
      "ĠÐ´ÐµÑĢÐ¶Ð°ÑĤÑĮ": 3640,
      "mo": 3641,
      "ĠÐ´ÐµÐ´": 3642,
      "ĠÑįÐ»ÐµÐº": 3643,
      "Ð¢Ð¾Ð¶Ðµ": 3644,
      "ÐŁÑĢÐ°Ð²": 3645,
      "ĠÐĴÐ«": 3646,
      "ĠÐ´Ð¾Ð¼Ð¾Ð¹": 3647,
      "ĠÐ¸Ð´ÑĤÐ¸": 3648,
      "ĠÑĢÐ°Ð·ÑĢÐ°Ð±Ð¾ÑĤ": 3649,
      "ĠÑģÐ¿ÑĢÐ°ÑĪÐ¸Ð²": 3650,
      "ĠÐ»Ð¸ÑĨÐ¾": 3651,
      "ãĥ": 3652,
      "ÑģÐºÐ°Ñı": 3653,
      "ĠÐļÐĲÐļ": 3654,
      "ĠÐ²Ð¸Ð´ÐµÐ»Ð°": 3655,
      "ĠÑĢÐ¸ÑģÑĥÐ½": 3656,
      "ðŁĺĺðŁĺĺ": 3657,
      "ĠÑĢÑĥÑģÑģÐºÐ¸Ð¹": 3658,
      "ee": 3659,
      "ĠJ": 3660,
      "Ð³Ð´Ðµ": 3661,
      "ĠÐ»ÐµÐ¶": 3662,
      "ĠÐ¿Ð¾Ð¼Ð¾ÑĩÑĮ": 3663,
      "matrix": 3664,
      "500": 3665,
      "Ġar": 3666,
      "ĠÑģÐµÑĢÑĮ": 3667,
      "ĠÑģÑĤÑĢÐ°Ð½Ð¸": 3668,
      "ĠÐ¸ÑģÑĤÐ¾ÑĢÐ¸Ð¸": 3669,
      "ÑĤÑĤ": 3670,
      "Ð°Ð²Ð»Ð¸Ð²": 3671,
      "Ð´Ð°Ð½Ð¾": 3672,
      "ÑħÐ¾Ð´Ñĥ": 3673,
      "ĠÐºÐ°ÑĢÑĤÐ°": 3674,
      "ĠÐ¿ÑĢÐ¾Ð±Ð»ÐµÐ¼Ñĭ": 3675,
      "ÑĥÑģÐº": 3676,
      "ĠÑģÑĥÑĤ": 3677,
      "ÑħÐ°Ð»": 3678,
      "ĠÐ¿ÑĢÐ¸Ð¼": 3679,
      "ÐµÐ¼Ð°": 3680,
      "ÐĲÐ¨": 3681,
      "Ð»Ð¾Ñħ": 3682,
      "ÐµÐ½ÑĤÐ¾Ð²": 3683,
      ")$": 3684,
      "ĠÑģÐ¸Ð»": 3685,
      "Ð¾Ð²Ð°ÑĤÐµÐ»ÑĮ": 3686,
      "Ð¾ÑĤÑĥ": 3687,
      "ĠÑħÐ¾Ð»": 3688,
      "ÐłÐµÐ¿ÑĥÑĤÐ°ÑĨÐ¸Ñı": 3689,
      "Ð»Ð°ÑĪ": 3690,
      "ĠÐ¿Ð¾Ð»ÑĥÑĩÐ¸ÑĤÑģÑı": 3691,
      "ĠÑĤÐ¾ÑĩÐºÐ°": 3692,
      "Ð¼ÑĭÑģ": 3693,
      "ĠÑİÑĤÑĥÐ±Ðµ": 3694,
      "ĠÐ¼Ð¸Ð»Ð»Ð¸": 3695,
      "ĠÑģÐ¸Ñħ": 3696,
      "Ð£Ðł": 3697,
      "Ð§ÐµÐ»": 3698,
      "ÐŁÑĢÐ¸Ðº": 3699,
      "ĠÐ´Ð¾Ð±ÑĢÑĭÐ¼": 3700,
      "ĠÑĤÐµÐ»ÐµÑĦÐ¾Ð½Ð°": 3701,
      "ĠÑĤÐ°Ð±Ð»Ð¸": 3702,
      "ĠÐ´ÑĥÑĪ": 3703,
      "Ð£ÐĶ": 3704,
      "ĠÑģÐ»ÑĥÑĩÐ¸Ð»Ð¾ÑģÑĮ": 3705,
      "ĠÐ±ÑĥÐºÐ²": 3706,
      "Ð»Ñĥ": 3707,
      "Ð´Ð°Ð½": 3708,
      "ÑĢÐ°Ñİ": 3709,
      "ĠÑĢÐ°Ð·Ð½ÑĭÐµ": 3710,
      "ĠÐ¸Ð³ÑĢÐ¾Ðº": 3711,
      "ĠÐºÐ¾ÑĤÐ¾ÑĢÑĭÑħ": 3712,
      "ĠÐ³Ð¾ÑĢÐ¾Ð´Ðµ": 3713,
      "ĠÐ°ÐºÐº": 3714,
      "ĠÐ¿ÑĢÐµÐ¼Ð¸ÑĥÐ¼": 3715,
      "ĊĠ": 3716,
      "ĠÐ´ÐµÐ»Ðµ": 3717,
      "ĠÐ¾Ð´Ð½Ñĥ": 3718,
      "ĠÐ´ÑĢÑĥÐ³Ð¾Ðµ": 3719,
      "Ġ40": 3720,
      "ĠÐĽÐ¡": 3721,
      "ĠÐ»ÐµÐ³ÐºÐ¾": 3722,
      "ÑİÐ±": 3723,
      "ÐĲÐŀ": 3724,
      "ÐµÐºÑĤÐ¾ÑĢ": 3725,
      "ĠÐºÑĢÑĥÐ¶": 3726,
      "ĠÑĤÐ²Ð¾ÑĳÐ¼": 3727,
      "AlikTheKotik": 3728,
      "ĠÑĢÐ¾Ð·": 3729,
      "ÐŀÐ§": 3730,
      "Ð½Ð¸ÑĨÑĥ": 3731,
      "ĠÐ¾ÐºÐ¾Ð½Ñĩ": 3732,
      "ĠÐ²ÑĭÐ¹Ð³": 3733,
      "ĠK": 3734,
      "ÐºÐ°Ð¼": 3735,
      "ÑĭÑĢ": 3736,
      "Ð·Ð¸": 3737,
      "ĠÐ¾Ð±Ð»Ð°": 3738,
      "Ð§ÐµÑĢÐµÐ·": 3739,
      "Ġ\\[": 3740,
      "ĠÐ°Ð²Ðµ": 3741,
      "ĠÐ¾ÑĤÐ¿ÑĢÐ°Ð²Ð»Ñı": 3742,
      "Ð²ÑģÐµÐ³Ð¾": 3743,
      "ĠÐ¿ÑĢÐµÐ´Ð¿Ð¾Ð»Ð°Ð³": 3744,
      "ĠÐ±Ð°Ð»": 3745,
      "Ð¾Ð¶Ð°ÑĤ": 3746,
      "ÑĭÐ²Ð°Ð»": 3747,
      "ĠÑĤÑĢÐ°Ð½Ñģ": 3748,
      "ĠÐºÐ»ÑĥÐ±": 3749,
      "ĠÐ´ÐµÑĤÐµÐ¹": 3750,
      "ĠÐ½Ð°Ð·Ð²Ð°Ð½Ð¸Ðµ": 3751,
      "Ð¸Ñī": 3752,
      "ĠÑģÑĤÐ¾Ð»ÑĮÐºÐ¾": 3753,
      "ĠÐ²ÑĭÐ³Ð»ÑıÐ´": 3754,
      "ĠÑĤÑĭÑģÑı": 3755,
      "âĸĳ": 3756,
      "Ð¸ÑĩÐµÑģÐºÐ¸": 3757,
      "ĠÑĥÑģÐ»Ð¾Ð²": 3758,
      "á¡": 3759,
      "Ð¿Ð¾Ñģ": 3760,
      "ĠÐ¾ÑĤÑģ": 3761,
      "ĠÐ»ÑİÐ±Ð¸ÑĤ": 3762,
      "ĠÐ¿Ð¾Ð²ÑĤÐ¾ÑĢ": 3763,
      "((((": 3764,
      "ĠÑĢÐµÐºÐ»Ð°Ð¼Ð°": 3765,
      "ig": 3766,
      "ĠØ": 3767,
      "ĠÑģÐ¾Ðº": 3768,
      "ÑĪÐ¸Ð½": 3769,
      "ĠÑħÐ°ÑĢ": 3770,
      "ÐĴÑģÐµÑħ": 3771,
      "ÐµÐ½ÑĤÑĭ": 3772,
      "ĠÐ²Ð¸Ð´Ð¸Ð¼Ð¾": 3773,
      "ĠÐ½ÑĥÐ¶Ð½Ð°": 3774,
      "ĠÐ¾ÐºÐ°Ð·": 3775,
      "ĠÑģÐ¾Ð¾Ð±ÑīÐµÐ½Ð¸ÑıÐ¼Ð¸": 3776,
      "Qu": 3777,
      "ĠÐ¸Ð½ÑĦ": 3778,
      "Ġ\\\\\\": 3779,
      "ĠÐ´Ð¾Ð¼Ð°ÑĪ": 3780,
      "ĠÐ±Ð°Ð»Ð»Ñĭ": 3781,
      "ĠÐ½Ð°Ð±ÑĢÐ°ÑĤÑĮ": 3782,
      "ÑıÐ±ÑĢÑı": 3783,
      "ĠÑģÐ¸Ð½": 3784,
      "ĠÐ¿ÑĢÐµ": 3785,
      "ðŁĺĦ": 3786,
      "Ð¾ÐºÐ¼Ð°ÑĢÐ¼Ð¸Ð»": 3787,
      "ĠÐĺÐ·": 3788,
      "ask": 3789,
      "ĠÐ²Ð´ÑĢÑĥÐ³": 3790,
      "á¡ĥ": 3791,
      "ÙĨ": 3792,
      "ĠÑĢÐµÑģ": 3793,
      "ind": 3794,
      "theta": 3795,
      "Ð¥ÐĲÐ¥ÐĲÐ¥ÐĲ": 3796,
      "ðŁĴĢðŁĴĢðŁĴĢðŁĴĢ": 3797,
      "times": 3798,
      "ĠÑĤÐµÐ»ÐµÐ³ÑĢÐ°Ð¼": 3799,
      "ĠW": 3800,
      "ĠÑģÐ¾Ñģ": 3801,
      "ĠÑģÐ¸ÑĤÑĥ": 3802,
      "ðŁĴĸ": 3803,
      "ðŁ¤¨": 3804,
      "ĠÐ½Ð¾Ð²ÑĭÑħ": 3805,
      "ĠÐ²Ð¾Ð·Ð¼Ð¾Ð¶": 3806,
      "ass": 3807,
      "ðŁĹĵ": 3808,
      "ÐµÑĢÑĤ": 3809,
      "ÐµÑĢÐ¾Ð²": 3810,
      "Ð¿ÑĢÐ¾ÑģÑĤÐ¾": 3811,
      "ĠÐ½ÑĥÐ¶Ð½Ñĭ": 3812,
      "ĠÐ¸Ð½ÑĤÐµÑĢÐ½ÐµÑĤ": 3813,
      "ÐĺÐ¢Ðķ": 3814,
      "Ð²Ð¸Ð½Ð¸ÑĤÐµ": 3815,
      "Ð°ÑĢÐ¸Ð°Ð½ÑĤ": 3816,
      "(-": 3817,
      "Ð¾Ð¶Ð°Ñİ": 3818,
      "ÐŀÐĿ": 3819,
      "ĠÑĢÐµÑĪÐ¸Ð»": 3820,
      "ĠÑįÑĦÐ¸ÑĢÐ°Ñħ": 3821,
      "ĠÐ¿Ð°": 3822,
      "ĠÑĢÐµÐ³": 3823,
      "ĠÐµÐ´Ñĥ": 3824,
      "Ð¡Ð¼Ð¾ÑĤÑĢ": 3825,
      "ĠÑģÐ¿ÐµÑĨÐ¸": 3826,
      "ĠÐĿÐ¸Ðº": 3827,
      "ĠÐŀÐ½Ð°": 3828,
      "ĠÐ°ÑĢÐ±ÑĥÐ·": 3829,
      "Ð¸ÑĩÐµÑģÐºÐ¸Ð¹": 3830,
      "ĠÐ½ÐµÑĩÐµÐ³Ð¾": 3831,
      "for": 3832,
      "Ġ#": 3833,
      "ÑģÐºÐ¸Ðµ": 3834,
      "ÑıÐ¼Ð¸": 3835,
      "ĠÐ¸Ð´Ñĥ": 3836,
      "ÐµÑĢÑĥ": 3837,
      "ĠÐ½ÐµÐµ": 3838,
      "Ð¸Ð±Ð°ÑĢÐ°": 3839,
      "ĠÐºÐ¾ÑĤÐ¾ÑĢÐ¾Ð¼": 3840,
      "ĠÐ¾ÑĤÐ¿ÑĢÐ°Ð²Ð¸Ð»": 3841,
      "ĠÐ½Ð°ÑĪÐ»Ð°": 3842,
      "ĠÐ¿Ð¾Ð·Ð²Ð¾Ð»": 3843,
      "âĥĿ": 3844,
      "ĠÐºÐ°Ð½Ð¸ÐºÑĥÐ»Ñĭ": 3845,
      "âłĦâłĦ": 3846,
      "ðŁĳīðŁı»": 3847,
      "ĠâĢĵ": 3848,
      "ĠÑĥÑģ": 3849,
      "Ð½Ð°Ñİ": 3850,
      "Ð¸ÑĪÑĮÑģÑı": 3851,
      "ĠÐ±ÑĭÐ²Ð°ÐµÑĤ": 3852,
      ",,": 3853,
      "ĠÑĢÑıÐ´": 3854,
      "ÑģÑĤÐ²ÐµÐ½Ð½Ð¾": 3855,
      "Ð¸ÑĢÐ°ÑĤÑĮ": 3856,
      "ĠÐ¡Ð¢": 3857,
      "ĠÐ²ÑĭÐ¿Ð¾Ð»Ð½ÐµÐ½Ð¸Ðµ": 3858,
      "ðŁĳįðŁĳį": 3859,
      "ĠÐ½ÐµÐºÐ¾ÑĤÐ¾ÑĢÑĭÐµ": 3860,
      "ÑĩÐ°ÑģÑĤÐ½Ð¸Ðº": 3861,
      "ĠÐ¾Ð´Ð½Ð¾ÐºÐ»Ð°ÑģÑģ": 3862,
      "ĠÑĤÐ¾Ð¼Ñĥ": 3863,
      "ĠÐ¾Ð±Ð¼": 3864,
      "Ð°Ð¶Ð¸ÑĤÐµ": 3865,
      "ĠÑĢÐ°Ð·Ð»Ð¸Ñĩ": 3866,
      "ĠÐ¿Ð¾ÑģÐºÐ¾Ð»ÑĮ": 3867,
      "ĠÑĤÐµÐ¾ÑĢ": 3868,
      "ĠÐ¿Ð¾ÑģÐºÐ¾Ð»ÑĮÐºÑĥ": 3869,
      "34": 3870,
      "mi": 3871,
      "Ġv": 3872,
      "ÐĲÐ§": 3873,
      "ĠÑģÐ¿Ð°Ñģ": 3874,
      "ĠÐ¡Ð»ÐµÐ´": 3875,
      "ĠÑģÐ²ÐµÑĤ": 3876,
      "ĠðŁĺ°": 3877,
      "ÑģÑĤÑĢÐ°Ð½": 3878,
      "ĠÐŁÑĢÐ¾ÑģÑĤÐ¾": 3879,
      "ĠÐ¶Ð´Ð°ÑĤÑĮ": 3880,
      "ĠÑĤÑĢÐ°Ð½ÑģÐ»Ñı": 3881,
      "ĠÐ²Ð¾Ð¹": 3882,
      "ĠÑĢÐµÐ±": 3883,
      "ĠÐ»ÐµÐ²": 3884,
      "ÑĥÑģÐºÐ°": 3885,
      "ĠÑĨÐ¸Ðº": 3886,
      "ĠÐ£ÑĩÐ°ÑģÑĤÐ½Ð¸Ðº": 3887,
      "ĠÐ¿ÐµÑĢÐµÐ²Ð¾Ð´": 3888,
      "ÑħÐ¾Ð¶Ñĥ": 3889,
      "ÐĿÐ°Ð´ÐµÑİÑģÑĮ": 3890,
      "Ð°Ð¹ÑĦ": 3891,
      "ĠÐ¸Ð·Ð¾Ð±ÑĢÐ°Ð¶": 3892,
      "ĠÐºÐ¾ÑĤÐ¾ÑĢÐ¾Ð³Ð¾": 3893,
      "ĠÑĪÐºÐ¾Ð»Ð°": 3894,
      "Ð»Ð°Ð´Ð½Ð¾": 3895,
      "Ð¼ÐµÑģ": 3896,
      "ĠÑħÐ²Ð°ÑĤ": 3897,
      "ĠÐºÐ¾ÑĤÐ¾ÑĢÑĥÑİ": 3898,
      "Ð«Ð«": 3899,
      "ĠÐ½Ð°ÑģÑĤÐ¾": 3900,
      "ĠÑĢÐ°Ð±Ð¾ÑĤÑĥ": 3901,
      "âķ±": 3902,
      "Ð½ÑĥÐ»Ð°ÑģÑĮ": 3903,
      "ĠÑĦÐ¾ÑĢÐ¼ÑĥÐ»": 3904,
      "Ð¸Ð´Ð°": 3905,
      "ĠÐ´ÑĢÐ¾Ð±": 3906,
      "ÐµÑĢÐ³": 3907,
      "Ð¾ÐºÐ¸": 3908,
      "ĠÐ·Ð°Ð¿Ð¾Ð¼": 3909,
      "ĠÑģÐºÐ°ÑĩÐ°ÑĤÑĮ": 3910,
      "pmatrix": 3911,
      "Ð½ÐµÐ²": 3912,
      "ĠÐ¿Ðº": 3913,
      "Ð°Ð¿ÑĢÐ¸Ð¼ÐµÑĢ": 3914,
      "Ð¾ÑģÑĤÐ¾ÑıÐ½": 3915,
      "ĠÐŀÐ¿ÑĢÐµÐ´ÐµÐ»": 3916,
      "ðŁ¥¶": 3917,
      "ĠÐ¿ÐµÑĢÐ²Ð¾Ð¹": 3918,
      "ĠÑīÐ°": 3919,
      "ĠÑįÐºÑģÐ¿": 3920,
      "ĠÐ²Ð¼ÐµÑģÑĤÐ¾": 3921,
      "ĠÐ¿ÐµÑĢÐµÐ¿Ð¸Ñģ": 3922,
      "eb": 3923,
      "ĠÐ¿Ð°Ð¼": 3924,
      "ĠÐ²ÐµÐ·": 3925,
      "ÑħÑĥ": 3926,
      "ĠÐ¾ÑĢÐ³": 3927,
      "ĠÑģÐ¼ÐµÑĪÐ½Ð¾": 3928,
      "ĠÐ¾ÑĤÐ¼ÐµÑĤÐºÑĥ": 3929,
      "ali": 3930,
      "Ð°ÑĦ": 3931,
      "Ð¸Ð½Ð¾": 3932,
      "ÑĨÐ¸Ð¿Ðµ": 3933,
      "ĠÑģÐ»Ð¾Ð½Ð¸Ðº": 3934,
      "ĠÑĪÐ°Ñħ": 3935,
      "ĠÐĲÐ»Ð¸Ðº": 3936,
      "ĠÐ³Ð¾ÑĢÐ¾Ð´Ð°": 3937,
      "ĠÐ¿Ð¾ÑĢÑıÐ´": 3938,
      "ĠÐ¿ÑĢÑıÐ¼Ð¾": 3939,
      "ĠÑĢÐ°Ð·Ð³Ð¾Ð²Ð¾ÑĢ": 3940,
      "Ġz": 3941,
      "ĠÐ¦": 3942,
      "ĠÑģÑĤÐµÐ¿": 3943,
      "ĠÑĢÐ°ÑģÑģÐºÐ°Ð¶": 3944,
      "ĠÑģÐ»ÐµÐ´Ð¸": 3945,
      "ÐµÐºÑĤÐ¸Ð²": 3946,
      "lay": 3947,
      "ĠÑģÐ¼ÑĭÑģÐ»Ðµ": 3948,
      "cri": 3949,
      "ĊĠĠ": 3950,
      "ĠÐĴÐ¾ÑĤ": 3951,
      "ĠÐ¸Ð´ÑĳÑĤ": 3952,
      "Ð»Ð°Ð³Ð¾Ð´Ð°ÑĢ": 3953,
      "ÑĤÐ¾ÑĩÐ½Ð¾": 3954,
      "ĠÑĩÐµÑĤÐ²ÐµÑĢ": 3955,
      "ĠÐ¾ÑģÐ¾Ð±Ð¾": 3956,
      "ĠÐ³ÐµÐ¹Ð¼Ð¿": 3957,
      "Ð¿Ð¾ÑĤÐ¾Ð¼Ñĥ": 3958,
      "Ð»Ð¸ÑĤÐµ": 3959,
      "Ð¾ÑĤÑĭ": 3960,
      "Ð¾Ð½Ð¾Ð¼": 3961,
      "ÐĲÐ«": 3962,
      "Ð¿ÑĢÐµÐ´": 3963,
      "ĠÑĢÐ°Ð·Ð¼": 3964,
      "Ð«Ð¤": 3965,
      "ĠÐ¿Ð¾ÑĪÐ»Ð°": 3966,
      "ĠÑģÑĤÑĢÐ¾ÐºÑĥ": 3967,
      "('": 3968,
      "Dr": 3969,
      "ÑĩÐµÐ»": 3970,
      "ĠÐ¾ÑĦ": 3971,
      "ĠÐ¾ÑģÑĤÐ°Ð²": 3972,
      "ĠÑĢÐ¸Ð»": 3973,
      "Ð»Ð¸ÑĤÑĮ": 3974,
      "ÑĨÐµÐ²": 3975,
      "ĠÐ²ÑĭÐ´": 3976,
      "log": 3977,
      "ĠÐ¿ÑĢÐ¸ÑħÐ¾Ð´": 3978,
      "ĠÐ²ÑĭÐ±ÑĢÐ°ÑĤÑĮ": 3979,
      "ÐŁÐ¾Ð½ÑıÑĤÐ½Ð¾": 3980,
      "ðŁĺĤðŁĺĤðŁĺĤðŁĺĤ": 3981,
      "Ð°Ð¹Ð½ÐºÑĢÐ°ÑĦÑĤ": 3982,
      "ĊĊĠĠĠ": 3983,
      "ĠÐ²ÐµÐ»": 3984,
      "ĠÐºÑĥÑĩ": 3985,
      "Ð°ÑĤÐµ": 3986,
      "ÐķÐĻ": 3987,
      "ĠÑĤÐ¾ÑĢ": 3988,
      "));": 3989,
      "ĠÑĤÑĢÑĥÐ´": 3990,
      "ĠÐ¿ÑĢÐ¸Ð·Ñĭ": 3991,
      "ĠÐ´Ð¾ÐºÐ°Ð·": 3992,
      "ĠÐ¾ÑĨÐµÐ½Ð¸": 3993,
      "rint": 3994,
      "ĠÑģÑĥÐ±": 3995,
      "ĠÐŁÐ¾Ñģ": 3996,
      "ation": 3997,
      "ĠÐºÑĢÐ°ÑĤ": 3998,
      "ĠÑģÐ¾Ð²ÐµÑĤ": 3999,
      "begin": 4000,
      "ÐĽÑİÐ±": 4001,
      "ðŁĴĶðŁĴĶ": 4002,
      "ĠÐ¿Ð¾Ð»ÑĮÐ·Ð¾Ð²Ð°ÑĤÐµÐ»Ñı": 4003,
      "lon": 4004,
      "ĠÐ¾Ð¹": 4005,
      "Ð»Ð¸Ð¼": 4006,
      "Ð¸ÑĤÐ°Ð¹": 4007,
      "ĠÑĢÐ°Ð·Ð²Ðµ": 4008,
      "ari": 4009,
      "ĠÐ¸ÑģÑĤÐ¾ÑĢÐ¸Ñİ": 4010,
      "marma": 4011,
      "ĠÑģÑĩÐµÑĤÑĥ": 4012,
      "202120": 4013,
      "ĠÑįÐ»ÐµÐºÑĤÑĢ": 4014,
      "Help": 4015,
      "ile": 4016,
      "Ġ@": 4017,
      "ÐºÑĢ": 4018,
      "ĠÐ»Ð¸ÑĪÑĮ": 4019,
      "Ð¯Ð¢": 4020,
      "ÐļÐ£": 4021,
      "ĠÑģÑĤÐ°Ð»Ð¾": 4022,
      "ĠÐ·Ð½Ð°ÐµÑĤÐµ": 4023,
      "ang": 4024,
      "ĠÑħÐ¾ÑĢÐ¾ÑĪÐ¸Ð¹": 4025,
      "ĠÑĪÐ°ÑĢÑİ": 4026,
      "àº¶": 4027,
      "37": 4028,
      "ÑĢÐµÑĪ": 4029,
      "ĠÐ¿ÐµÐ»ÑĮÐ¼": 4030,
      "ĠÐ¼ÐµÑĪ": 4031,
      "ĠÐ¾Ð¶": 4032,
      "ĠÐĴÐ°ÑĢÐ¸Ð°Ð½ÑĤ": 4033,
      "ĠÑĢÐ°Ð·Ð³Ð¾Ð²Ð°ÑĢ": 4034,
      "ĠÑĪÐ¾ÐºÐµ": 4035,
      "ÑĥÐ²ÑģÑĤÐ²ÑĥÑİ": 4036,
      "Group": 4037,
      "âı": 4038,
      "ÑıÑħ": 4039,
      "ĠÑģÐ°Ð¹ÑĤÐµ": 4040,
      "ĠÐ¿Ð¾Ð¸Ñģ": 4041,
      "ÐĹÐ°Ð²ÑĤÑĢÐ°": 4042,
      "ĠÐ¸Ð½Ð´": 4043,
      "ĠðŁĺĬ": 4044,
      "Ð°Ð½Ð´Ð¾Ð¼": 4045,
      "ĠÐ°Ð´Ð¼Ð¸Ð½Ñĭ": 4046,
      "ĠÑģÐºÐ°Ð¶Ð¸ÑĤÐµ": 4047,
      "rn": 4048,
      "Ġj": 4049,
      "Ð¾ÑĢÐ¾ÑĤ": 4050,
      "ÐŁÐµÑĢ": 4051,
      "Ð¥Ð°Ñħ": 4052,
      "ÑĭÐ²Ð°ÐµÐ¼": 4053,
      "ĠÐ³Ð¾Ð²Ð¾ÑĢÐ¸Ð»Ð¸": 4054,
      "ĠÐ¾ÑĤÐ´ÐµÐ»ÑĮ": 4055,
      "ĠÐ¿Ð»Ñİ": 4056,
      "ĠÐºÐ¸Ð½": 4057,
      "ĠÑĥÐ²ÐµÑĢ": 4058,
      "ÐŀÐĻ": 4059,
      "ĠÐľÐ°ÑĢ": 4060,
      "ĠÐ´Ð¾ÑĢÐ¾Ð³": 4061,
      "ĠÐŀÐ±ÑīÐµÐµ": 4062,
      "ĠÑĢÐ°ÑģÐ¿Ð¸ÑģÐ°Ð½Ð¸ÐµÐ¼": 4063,
      "ÑĤÐ¾Ð»ÑĮÐºÐ¾": 4064,
      "ðŁļ": 4065,
      "ÐŀÐľ": 4066,
      "ÐŁÐ¾Ð»": 4067,
      "ÐļÐĺ": 4068,
      "ĠÐ³Ð¾Ð²Ð¾ÑĢÐ¸Ð»Ð°": 4069,
      "off": 4070,
      "ðŁ¤¯ðŁ¤¯": 4071,
      "ĠÐ¹": 4072,
      "ĠÐ´Ð¾Ð¶Ð´": 4073,
      "Ð¾Ð²Ð¾Ð¹": 4074,
      "ĠÐ±ÑĥÐ¼": 4075,
      "ĠÐ¿Ð¾Ð»ÑĥÑĩÐ¸Ð»Ð¾ÑģÑĮ": 4076,
      "2024": 4077,
      "ĠÐ¿Ð¾ÑħÐ¾Ð¶Ðµ": 4078,
      "ĠÑĦÐ»ÑĥÐ´": 4079,
      "36": 4080,
      "Ð¾ÑıÑĤÐ½Ð¾": 4081,
      "ĠÐ½Ð¾Ð³": 4082,
      "Ð¶ÐµÐ»": 4083,
      "Ð°Ð´Ð°": 4084,
      "ÐŃÐŃ": 4085,
      "ĠÑģÐ²Ð¾Ð¸Ñħ": 4086,
      "Ð¥ÐĲÐ¥ÐĲÐ¥ÐĲÐ¥ÐĲÐ¥ÐĲÐ¥ÐĲÐ¥": 4087,
      "ĠÐºÑĢÐ°ÑģÐ¸Ð²Ð¾": 4088,
      "ĠÐ²Ð²Ð¸Ð´Ñĥ": 4089,
      "Ð¡ÑĤÐ°ÑĤÐ¸ÑģÑĤÐ¸ÐºÐ°": 4090,
      "ĠÐ¿Ð¾ÑģÑĤÐ¾ÑıÐ½": 4091,
      "ĠÐ¼ÐµÑģ": 4092,
      "ĠÐ¸Ñī": 4093,
      "Ð¾ÑĤÑı": 4094,
      "ĠÐºÑĢÐ¾Ð²": 4095,
      "ÑħÐ°ÑħÐ°": 4096,
      "ĠÑģÐ¼ÐµÐ½Ñĥ": 4097,
      "ÐĴÐ¾Ð¾Ð±ÑīÐµ": 4098,
      "ect": 4099,
      "ĠÐ´Ð°Ð¼": 4100,
      "ĠÐ·Ð°ÑĤÐµÐ¼": 4101,
      "Ð¾Ð¹Ð´Ñĥ": 4102,
      "ĠÑĥÐ´Ð¸Ð²": 4103,
      "ðŁĶ¸": 4104,
      "ĠÑĥÐ´Ð°Ð»Ð¸Ð»": 4105,
      "ĠÐ»Ð¸ÑĩÐºÑĥ": 4106,
      "àº¶àº¶": 4107,
      "est": 4108,
      "Ð°Ñī": 4109,
      "ĠÐ¿ÑĥÑģÑĤ": 4110,
      "Ð¾ÑĩÐµÐ½ÑĮ": 4111,
      "ĠÐ´Ð¾ÑĢÑģ": 4112,
      "ĠÐ¿Ð»Ð°Ð½ÑĪ": 4113,
      "ĠÑĥÑĢÐ¾Ð²ÐµÐ½ÑĮ": 4114,
      "Ùħ": 4115,
      "Ġ/": 4116,
      "Ġgo": 4117,
      "ÑĢÐµÐ¹": 4118,
      "Ð¢Ðķ": 4119,
      "Ð¾ÑĩÐºÑĥ": 4120,
      "ĠÐºÐ¾Ð¼Ð½": 4121,
      "ĠÐ¼Ð¾Ñĳ": 4122,
      "left": 4123,
      "ĠÐ°Ð´Ð¾Ð¿": 4124,
      "ðŁĶ¥ðŁĶ¥ðŁĶ¥ðŁĶ¥": 4125,
      "Ð°Ð²ÐµÑĢÐ½Ð¾Ðµ": 4126,
      "ÐµÑı": 4127,
      "ĠÐ±ÑĢÐ°Ð²": 4128,
      "Ð°ÑģÑĤÑĮ": 4129,
      "ÐĺÐ³": 4130,
      "ĠÐ¡Ð¿": 4131,
      "ÐŃÑħ": 4132,
      "ÑģÐ¿Ð¾Ð»ÑĮÐ·": 4133,
      "ĠÐºÐ¾Ð½ÑĨ": 4134,
      "ĠÑĢÐ¾Ð±Ð»Ð¾ÐºÑģÐ°": 4135,
      "ĠÑģÐ¾Ð±Ð¸ÑĢÐ°": 4136,
      "ĠÐ¸Ð½ÑĦÐ¾ÑĢÐ¼Ð°ÑĨÐ¸Ñİ": 4137,
      "ÐµÐ³Ð¸ÑģÑĤÑĢ": 4138,
      "â¬ľï¸ıâ¬ľï¸ı": 4139,
      "ĠÐ¸Ð½ÑģÑĤÑĢÑĥÐºÑĨÐ¸Ð¸": 4140,
      "ĠÐłÐ¾ÑģÑģÐ¸Ð¸": 4141,
      "ĠðŁ¥²": 4142,
      "ĠÑģÐ¿ÑĢÐ°Ð²": 4143,
      "ÐĺÐ¼": 4144,
      "Ð¸ÑĩÐµÑģÐºÐ¸Ñħ": 4145,
      "ĠÐ¿ÑĢÐ¸Ð²ÐµÐ´": 4146,
      "GroupHelp": 4147,
      "Ð½Ð¸Ð»Ð°": 4148,
      "ĠÐ¿ÑĢÐ¸Ð±": 4149,
      "Ð¾Ð³Ð¾Ð´": 4150,
      "ĠÐ¿Ð¾Ð»Ð½Ð¾ÑģÑĤÑĮÑİ": 4151,
      "Ð»ÑİÐ±": 4152,
      "ĠÐ²Ð¸Ð´Ð½Ð¾": 4153,
      "ĠÐ¿Ð¸ÑģÐ°Ð»Ð°": 4154,
      "ĠÑģÐ¾Ð·Ð´Ð°Ð²Ð°ÑĤÑĮ": 4155,
      "â¬Ľ": 4156,
      "21": 4157,
      "27": 4158,
      "ĠÑģÐ¸Ð³": 4159,
      "ĠÐ´ÐµÑģÑı": 4160,
      "Ð½ÑıÑı": 4161,
      "Ð°Ð»Ð¸Ð»Ð¸": 4162,
      "ĠÐľÐ°ÑĢÐ¼Ð¸Ð»": 4163,
      "âĿĹ": 4164,
      "ĠÑģÑģÑĭÐ»ÐºÐµ": 4165,
      "ĠÐ³ÑĢÑĥÐ¿Ð¿Ð°": 4166,
      "ĠÐ¼Ð¸Ð½ÑĥÑĤÑĭ": 4167,
      "ĠÑģÐµÑĢÐ´": 4168,
      "ĠÐ¿ÑĢÐ¸ÐºÐ¾Ð»ÑĮÐ½Ð¾": 4169,
      "ĠÐ¿ÑĢÐµÐºÑĢÐ°Ñģ": 4170,
      "GroupHelpBot": 4171,
      "!âĢ£": 4172,
      ":âĢ£": 4173,
      "Ð´Ñĭ": 4174,
      "ĠÐ¸Ð´Ð¸": 4175,
      "ÐŀÐĳ": 4176,
      "Ð¾ÑĩÐ½Ð¾": 4177,
      "Ð½Ð¸ÑĨÑĭ": 4178,
      "Ġ300": 4179,
      "ĠÐ²ÐµÑĢÐ¾ÑıÑĤÐ½Ð¾": 4180,
      "turn": 4181,
      "ĠÐ¿ÑĢÐ¸Ð¼ÐµÑĢÐ½Ð¾": 4182,
      "ĠÑĢÐµÐ±ÑıÑĤÐ°": 4183,
      "Quand": 4184,
      "ĠÐŀÐ¿ÑĢÐµÐ´ÐµÐ»Ð¸ÑĤÐµ": 4185,
      "Ġ}": 4186,
      "Ġco": 4187,
      "ÐĲÐ´": 4188,
      "ĠÐ±Ð»Ð¸": 4189,
      "Ð¶ÐµÑĤ": 4190,
      "ĠÑģÐ´ÐµÐ»Ð°Ð»Ð¸": 4191,
      "ÐļÐ°ÐºÐ°Ñı": 4192,
      "Ġch": 4193,
      "ĠÐ´Ñģ": 4194,
      "ÐµÐ»Ñĳ": 4195,
      "ĠÐ»Ñı": 4196,
      "ĠÐ¿Ð¾Ð½ÑıÑĤ": 4197,
      "ðŁ¤ĵ": 4198,
      "ĠÑĤÑĢÐµÑĤÑĮ": 4199,
      "Ð¸ÑĩÐµÑģÐºÐ¸Ðµ": 4200,
      "ĠÐ¿Ð»ÐµÐ¹Ñģ": 4201,
      "os": 4202,
      "ĠÐ¿ÐµÑĩÐ°ÑĤÐ°ÐµÑĤ": 4203,
      "ĠÑĤÑĥÐ»": 4204,
      "Ð¾Ð½Ñĭ": 4205,
      "Ð§Ðµ": 4206,
      "Ġ500": 4207,
      "ĠÐ¸ÑģÑħÐ¾Ð´": 4208,
      "âķ²": 4209,
      "rue": 4210,
      "ĠÐ±Ð¾Ð»ÑĮÑĪÐ¾Ð¹": 4211,
      "ĠÐ¸Ð·Ð¼ÐµÐ½": 4212,
      "ĠÑĥÐ·Ð½Ð°ÑĤÑĮ": 4213,
      "ĠÐ°ÐºÐºÐ°ÑĥÐ½ÑĤ": 4214,
      "ĠÐ¿ÑĢÐµÐ´Ð¿Ð¾Ð»Ð°Ð³Ð°ÐµÑĤ": 4215,
      "ga": 4216,
      "ÑĢÑĥÐ±": 4217,
      "ĠÐ½Ð°Ð¿Ð¾Ð¼": 4218,
      "ĠÐ·Ð°ÑĢÐ°Ð±Ð¾ÑĤ": 4219,
      "ĠÐ¸ÑģÑĤÐ¾ÑĢÐ¸Ñı": 4220,
      "ĠÑģÑĢÐ¾Ðº": 4221,
      "ĠÐ±Ð°Ð³": 4222,
      "Ð¾Ð¼Ð°ÑĪ": 4223,
      "Ð¾ÑĢÐ´Ð¸Ð½": 4224,
      "Ð¾Ð½Ð¾Ð²": 4225,
      "ĠÐĿÐ°Ñĩ": 4226,
      "ĠÑħÐ¾ÑĩÐµÑĤÑģÑı": 4227,
      "ĠÑĥÑĩÐ¸ÑĤÐµÐ»ÑĮ": 4228,
      "Ġmy": 4229,
      "ĠÐ¿Ð¾ÑģÑĤÐ°Ð²Ð¸ÑĤÑĮ": 4230,
      "ĠÐºÐ°ÑĢÑĤÐµ": 4231,
      "ĠÑģÐ¼ÑĭÑģÐ»": 4232,
      "Ð°Ð¿Ð¸ÑĪÐ¸": 4233,
      "ĠÐ¿ÐµÑĢÑģÐ¾Ð½Ð°Ð¶": 4234,
      ".\\]": 4235,
      "Li": 4236,
      "Ð¾Ð²Ð°Ð½": 4237,
      "Ð¾Ð´Ñĥ": 4238,
      "Ð¾Ð´ÐµÐ»": 4239,
      "ðŁĺĴ": 4240,
      "ĠÐ±ÑĥÐ´ÑĤÐ¾": 4241,
      "ĠÐ·Ð°Ð´Ð°ÑĩÐµ": 4242,
      "Ð°ÐµÐ¼ÑģÑı": 4243,
      "ĠÐ¿ÑĢÐ¸ÐºÐ¾Ð»ÑĮ": 4244,
      "ĠÐ»ÑĥÑĩÑĪÐ¸Ð¹": 4245,
      "ĠÑĦÐ¸Ð»ÑĮÐ¼": 4246,
      "ction": 4247,
      "Ġme": 4248,
      "Ð½Ð¸ÑĤ": 4249,
      "ĠÐ¿Ð¾Ð·Ð´": 4250,
      "ĠÑģÐ¾Ð±ÑĢ": 4251,
      "ĠÑģÐ¾Ð¶Ð°Ð»": 4252,
      "Ð·Ð°Ð¿": 4253,
      "Ð°Ð´Ð¸": 4254,
      "ĠÑģÑĤÐ°ÑĢÑĤ": 4255,
      "Ġ27": 4256,
      "ÐłÐķ": 4257,
      "Ð»ÑİÐ´": 4258,
      "ĠÐ°Ð²ÑĤÐ¾Ð¼": 4259,
      "ÑıÑĤÑĮÑģÑı": 4260,
      "ĠÐ°Ð´Ð¼Ð¸Ð½Ð¾Ð²": 4261,
      "ĠÐ´ÐµÑĤÐ¸": 4262,
      "ĠÑĢÐ¾Ð±Ð°ÐºÑģÑĭ": 4263,
      "python": 4264,
      "ĠÐ²ÑģÑĤÑĥÐ¿": 4265,
      "ĠÐ¼Ñı": 4266,
      "ĠÐ½ÐµÑģ": 4267,
      "Ð¾Ð´ÐµÑĢÐ°ÑĤÐ¾ÑĢ": 4268,
      "Ð¥Ð¥": 4269,
      "ðŁįįðŁįį": 4270,
      ")--": 4271,
      "_.": 4272,
      "_{": 4273,
      "ðĵ": 4274,
      "Ġ!": 4275,
      "ĠÐ¿Ð°ÑĢÑĤ": 4276,
      "Ð´ÑĳÑĤ": 4277,
      "ĠÑħÑĢÐ°Ð½": 4278,
      "ĠÐ¿ÐµÑĢÐµÑģÑĤ": 4279,
      "ĠÐ½Ð°ÑĩÐ½": 4280,
      "Ð¾ÑģÐºÑĢÐµÑģ": 4281,
      "ĠâĿ¤ï¸ı": 4282,
      "ĠÑģÐµÐ½ÑĤ": 4283,
      "ĠÐºÐ¾Ðµ": 4284,
      "ĠÐ±Ð¾Ð¼": 4285,
      "ĠÐ»Ð¸Ð¼": 4286,
      "ĠÑģÐ¼ÐµÐ½Ð°": 4287,
      "ðŁ¤ĳ": 4288,
      "ĠÐ²ÑĭÐ±Ð¸ÑĢÐ°": 4289,
      "ÐĲÐ½Ð³": 4290,
      "ph": 4291,
      "ÐºÐº": 4292,
      "ĠÑģÑĨÐµÐ½": 4293,
      "ĠÐ¿ÑĢÐµÐ²": 4294,
      "ĠÑĢÐ¾Ð»": 4295,
      "Ð³ÐµÐ±": 4296,
      "ÐļÑĢÑĥÑĤÐ¾": 4297,
      "ÐµÐºÐ¾": 4298,
      "ĠÐ¶Ð¸ÑĤÑĮ": 4299,
      "Ð¾Ð¿ÑĢÐ¾Ð±": 4300,
      "ĠÐºÑĥÐ¿Ð¸Ð»": 4301,
      "ĠÐ»Ð¸ÑĩÐ½Ð¾": 4302,
      "ĠÐ²ÐµÐ±Ð¸Ð½Ð°ÑĢ": 4303,
      "Ð¾Ð³Ð»": 4304,
      "Ð¾Ð³Ð¸ÑĤÐµ": 4305,
      "ÐµÐºÐ»": 4306,
      "ÐµÑĪÐµ": 4307,
      "ĠÐ¿Ð¾Ð»ÑĥÑĩÐ¸Ð»": 4308,
      "ÐļÐ°ÐºÐ¸Ðµ": 4309,
      "ĠÐ·Ð°Ð±Ð°Ð½Ð¸Ð»Ð¸": 4310,
      "ĠÐ¾Ð´Ð¸Ð½Ð°Ðº": 4311,
      "ĠÐ²ÑĭÑĢÐ°Ð¶ÐµÐ½Ð¸Ðµ": 4312,
      "ĠÑģÐ¾Ñĩ": 4313,
      "ĠÐ·Ð°ÑĤ": 4314,
      "Ð°Ð²Ð°": 4315,
      "ĠÑģÐ²Ð°Ð´ÑĮ": 4316,
      "ÑĤÐ¸ÑĢÑĥ": 4317,
      "ĠÐ½Ð¾Ð²ÑĭÐ¼": 4318,
      "ĠÑħÐ¾ÑĤÑıÑĤ": 4319,
      "ĠÑģÐµÑģÑĤÑĢÐ°": 4320,
      "ÒīÒī": 4321,
      "##": 4322,
      "39": 4323,
      "OO": 4324,
      "draw": 4325,
      "ial": 4326,
      "to": 4327,
      "ÑĪÐºÐ¸": 4328,
      "Ð¿Ð¾ÑĢ": 4329,
      "Ð¾Ð±Ð°Ð²": 4330,
      "ÑįÑĦÑĦ": 4331,
      "ÐµÑĩÑĮ": 4332,
      "ĠÐ¸ÑģÐ¿ÑĢÐ°Ð²": 4333,
      "ĠÑĤÐ²Ð¾Ñı": 4334,
      "ĠÑĥÐ²Ð°Ð¶": 4335,
      "ĠÑĨÐµÐ»ÑĭÑħ": 4336,
      "ĠÑıÐ²Ð»ÑıÑİÑĤÑģÑı": 4337,
      "ĠÐ²Ð°ÑĪÐ¸": 4338,
      "mport": 4339,
      ":(": 4340,
      "name": 4341,
      "ÐºÐ¸Ð¼": 4342,
      "ĠÐ½Ð¸Ñĩ": 4343,
      "ĠÐ´Ð¾Ð³": 4344,
      "Ð¾ÑĩÐµÐº": 4345,
      "ĠÑĪÐ°Ð³": 4346,
      "ÑĤÐ¸Ðµ": 4347,
      "ĠÐºÐ¾Ð½ÑĤÑĢ": 4348,
      "ĠÐ¿Ð¾ÑĤÐµÑĢÑı": 4349,
      "ĠÐ»ÐµÑĤÐ¾Ð¼": 4350,
      "ÑĥÑĢÐ³": 4351,
      "aaa": 4352,
      "ðŁ«łðŁ«łðŁ«łðŁ«ł": 4353,
      "ĠÐ£ÑĩÐ°ÑģÑĤÐ½Ð¸ÐºÐłÐµÐ¿ÑĥÑĤÐ°ÑĨÐ¸Ñı": 4354,
      "âĭ": 4355,
      "ÑĢÐµÐ½": 4356,
      "ÑĢÐµÐ·": 4357,
      "ĠÐ²Ð¾Ð»Ð¾Ñģ": 4358,
      "ÐĺÐķ": 4359,
      "ÐµÐ½ÑĮÑĪ": 4360,
      "Ð¨Ð¬": 4361,
      "ĠÑĥÐ²ÐµÐ»Ð¸Ñĩ": 4362,
      "ĠĠĠĠĠĠĠĠĠĠĠĠĠĠĠĠ": 4363,
      "Ð½ÑĥÑĤÑĢÐ¸": 4364,
      "cript": 4365,
      "ty": 4366,
      "âĽ": 4367,
      "ĠðŁĴ": 4368,
      "Ð¾Ð²Ð½Ð¾": 4369,
      "ĠÑĢÐµÐ¿": 4370,
      "ÐĲÐ¯": 4371,
      "Ð»ÑıÐµÑĤ": 4372,
      "ÐµÑħÐ¾Ð¶Ñĥ": 4373,
      "ĠÐ¿Ð¸ÑĪÑĥÑĤ": 4374,
      "ĠÐ¿ÑĢÐ¾ÑĪÐ»Ð¾Ð¼": 4375,
      "ĠÐ¾Ð³ÑĢÐ°Ð½Ð¸Ñĩ": 4376,
      "}$,": 4377,
      "ÑĤÐµÑģÑĮ": 4378,
      "ĠÐºÑģÑĤÐ°": 4379,
      "ĠÐ¼Ð¾Ð½": 4380,
      "ÐĲÐ°Ð°": 4381,
      "ÑģÑĤÐµÐ¹": 4382,
      "Ð°ÑĤÑģÑı": 4383,
      "one": 4384,
      "ĠÐ·Ð°Ð¿ÑĢÐµÑĤ": 4385,
      "ĠÑĢÐµÑĪÐ¸ÑĤÑĮ": 4386,
      "à£§à£§à£§à£§à£§à£§à£§à£§": 4387,
      "ÐĹÐ½Ð°ÑĩÐ¸ÑĤ": 4388,
      "rm": 4389,
      "ĠÐ¿Ð¾Ð»Ð¸ÑĤ": 4390,
      "ĠÐłÐĳ": 4391,
      "ĠÐ´ÑĥÐ¼Ð°ÐµÑĤÐµ": 4392,
      "ĠÐ·Ð²Ð¾Ð½": 4393,
      "Ġreturn": 4394,
      "âĢįâĻĢ": 4395,
      "Ð¾ÑģÑĤÐ¸": 4396,
      "ĠÑĩÐ°Ð¹": 4397,
      "ÐµÑĢÐ±": 4398,
      "ĠÐ½Ð°ÑģÑĤ": 4399,
      "ÑĢÑĥÐºÑĤ": 4400,
      "Ð°Ð¼Ð¸Ð»Ð¸": 4401,
      "ĠÑįÑĦÑĦ": 4402,
      "0000000000000000": 4403,
      "ðŁ¥µðŁ¥µ": 4404,
      "06": 4405,
      "ĠÐ¿Ð»Ð°": 4406,
      "ĠÐ¼Ð¾Ðµ": 4407,
      "ĠÐ¶Ð¾Ñģ": 4408,
      "ðŁĻĥ": 4409,
      "ĠÐºÐ¾Ð´Ð°": 4410,
      "ĠÐºÐ¾ÑĤÐ°": 4411,
      "ðŁŁ¥ðŁŁ¥ðŁŁ¥ðŁŁ¥": 4412,
      "ĠÐ¸ÑĤÐ¾Ð³Ðµ": 4413,
      "Ġl": 4414,
      "ĠÐ¿ÑĢÐ¾Ðº": 4415,
      "ĠÐ¾ÑĤÐ¿ÑĢÐ°Ð²Ð»ÐµÐ½": 4416,
      "................": 4417,
      "ast": 4418,
      "ĠV": 4419,
      "Ð°Ð½Ðº": 4420,
      "ðŁĺĥ": 4421,
      "ÐŀÐ¿": 4422,
      "ÐµÐ½ÑĮÐºÐ¾": 4423,
      "ĠðŁĺ¡": 4424,
      "ĠÐ¿Ð¾Ð¿ÑĥÐ»ÑıÑĢ": 4425,
      "ĠÑģÐ¾Ð·Ð´Ð°Ð½Ð¸Ñı": 4426,
      "ĠÑģÐ°Ð¹ÑĤÑĭ": 4427,
      "ĠÐ¿ÑģÐ¸Ñħ": 4428,
      "ĠÑĥÐ»Ð¸ÑĨÐµ": 4429,
      "ĠÐ¾Ð±Ð»Ð°ÑģÑĤÐ¸": 4430,
      "Mr": 4431,
      "ĠÐ²Ð½Ðµ": 4432,
      "Ð°ÑĤÐ¸": 4433,
      "ĠÐ°Ð¿Ð¿": 4434,
      "Ð¸Ð½Ð¶": 4435,
      "ÑĥÐ¼Ð°Ñİ": 4436,
      "ĠÐ¿Ð¾Ð»ÐµÐ·": 4437,
      "Ð¥ÐĲÐ¥ÐĲÐ¥ÐĲÐ¥ÐĲÐ¥ÐĲÐ¥": 4438,
      "all": 4439,
      "ÐĲÐĹÐĲÐĹ": 4440,
      "ĠÑģÐ»ÐµÐ´ÑĥÑİÑīÐ¸Ð¹": 4441,
      "ĠÑģÑĥÑīÐµÑģÑĤÐ²ÑĥÐµÑĤ": 4442,
      "ĠÐ²ÐµÑīÐ¸": 4443,
      "ĠÐ¡Ð»ÐµÐ´Ð¾Ð²Ð°ÑĤÐµÐ»ÑĮÐ½Ð¾": 4444,
      "dr": 4445,
      "ÐµÐ³Ð°": 4446,
      "Ð°Ð¶Ñĥ": 4447,
      "ĠÐ¿Ð¸ÑĪÐµÑĪÑĮ": 4448,
      "ĠÐ½Ð°Ð¿Ð¸ÑĪÑĥ": 4449,
      "ĠÐ¿ÑĢÐ¾Ð±Ð»ÐµÐ¼Ð°": 4450,
      "ĠÑĢÐ°ÑģÐ¿Ð¸ÑģÐ°Ð½Ð¸Ðµ": 4451,
      "ĠÐ·Ð°Ð´Ð°ÑĩÐ¸": 4452,
      "ĠÐ³ÐµÐ¾Ð¼": 4453,
      ")$.": 4454,
      "Ð¾Ð¸": 4455,
      "Ð¸Ð°Ð»": 4456,
      "ÑĩÐµÑģ": 4457,
      "ĠÑĢÑĭ": 4458,
      "ĠÐ¶Ð°ÑĢ": 4459,
      "ÐĳÑĭ": 4460,
      "ĠÐĺÐ½": 4461,
      "ĠÐĹÐĲ": 4462,
      "ÐĴÐ¥ÐĲÐ¥": 4463,
      "ĠÑģÑĤÑĢÐ¾ÐºÐ¸": 4464,
      "ĠÐ³Ð»Ð°Ð²Ð½Ð¾Ðµ": 4465,
      "ĠÐŀÐ´Ð½Ð°ÐºÐ¾": 4466,
      "46": 4467,
      "ml": 4468,
      "ĠÑģÐ¸Ð»ÑĮ": 4469,
      "ĠÐ±Ð»": 4470,
      "ĠÐ·Ð°Ð»": 4471,
      "ĠÐ¼ÑĥÐ·ÑĭÐºÑĥ": 4472,
      "ĠÐ¿ÑĢÐ¾Ð¸Ð·Ð²ÐµÐ´ÐµÐ½Ð¸Ðµ": 4473,
      "ĠÑĤÑĥÐ»Ð±": 4474,
      "ĠÑģÐ¾Ð¶Ð°Ð»ÐµÐ½Ð¸Ñİ": 4475,
      "ĠðŁĳį": 4476,
      "ĠÐ¼Ð¾Ð·": 4477,
      "ĠÐ½Ð°ÑĥÑĪ": 4478,
      "ÐĲÐĵ": 4479,
      "ðŁĺĩ": 4480,
      "Ð°ÑĢÑĮ": 4481,
      "ĠÐ³ÑĢÐ°Ð´": 4482,
      "ÐļÑĢÐ°Ñģ": 4483,
      "ĠÑģÑĤÐ°ÑĤ": 4484,
      "ÑĥÑĩÑĪ": 4485,
      "ÑĨÐ¸Ð¹": 4486,
      "ðŁ¥¹": 4487,
      "ĠÐºÐ¾Ð¼Ð¼ÐµÐ½ÑĤ": 4488,
      "ĠÐ½Ð¸ÐºÐ¾Ð³Ð¾": 4489,
      "ĠÐ»ÑİÐ±Ð¾Ð¹": 4490,
      "ĠÐºÐ°Ð¶Ð´Ð¾Ð¹": 4491,
      "ĠÐ¿Ð¾Ð¹Ð¼": 4492,
      "ĠÐ²Ð·ÑıÑĤÑĮ": 4493,
      "ĠÑģÑĥÐ¼Ð¼Ñĥ": 4494,
      "ĠÑĦÐ°ÐºÑĤÐ¾ÑĢ": 4495,
      "ĠÑģÐ²Ð¾Ð±Ð¾Ð´": 4496,
      "35": 4497,
      "88": 4498,
      "ĠÐ½Ð¾Ñģ": 4499,
      "ðŁª": 4500,
      "ĠÐ¿Ð¾Ð´Ð²": 4501,
      "Ð¸Ð³Ð°": 4502,
      "ĠÐŀÐĿ": 4503,
      "Ð¼Ð¾ÑĤÑĢÐ¸": 4504,
      "ĠÐ³ÑĢÑĥÑģÑĤ": 4505,
      "ĠÐ³ÑĢÑĥÐ·": 4506,
      "ĠÐ½Ð¾ÑĩÑĮ": 4507,
      "ĠÑĦÐ¾ÑĤÐºÐ¸": 4508,
      "ĠÐ½Ð°ÑģÑĤÑĢÐ¾ÐµÐ½Ð¸Ðµ": 4509,
      "lonik": 4510,
      "ĠðŁĴĢ": 4511,
      "Ð¼Ð¾Ð¹": 4512,
      "ĠÐ»Ð¸Ð½": 4513,
      "ĠÐ¿Ð¾Ð´Ð¾Ð±": 4514,
      "ÐŁÑĢÐµÐ´": 4515,
      "Ð°ÑĩÐ°": 4516,
      "ĠÐ½Ð°ÑĪÐµÐ»": 4517,
      "ĠÑĨÐµÐ»Ð¾Ðµ": 4518,
      "ÐĺÐ¢Ð¬": 4519,
      "irc": 4520,
      "nd": 4521,
      "ĠÑĤÐ´": 4522,
      "ÑıÑĤÐ½Ð¾Ð³Ð¾": 4523,
      "ĠÐ¡Ðļ": 4524,
      "ðŁİī": 4525,
      "ĠÐºÐ½Ð¸Ð³Ð¸": 4526,
      "ĠÑģÑĤÐ°Ð²Ð¸ÑĤÑĮ": 4527,
      "quand": 4528,
      "drquand": 4529,
      "gn": 4530,
      "ÑĮÐ¼Ð¸": 4531,
      "ĠÐ±ÑĢÐ¾": 4532,
      "ĠÐ¿Ð¾ÑħÐ¾Ð´Ñĥ": 4533,
      "ÐķÐĵÐŀ": 4534,
      "ĠÐłÐ°Ð·": 4535,
      "ĠÐ½Ð°ÑĩÐ°Ð»Ðµ": 4536,
      "ĠÐ½ÐµÐ¾Ð±ÑħÐ¾Ð´Ð¸Ð¼": 4537,
      "ĠÌĦ": 4538,
      "ex": 4539,
      "Ð½Ð¸Ñħ": 4540,
      "Ð¿ÑĢÐ¸Ð½": 4541,
      "ĠÑĪÑĤÑĥ": 4542,
      "ĠÐ±ÑĥÐ´ÑĥÑī": 4543,
      "ĠÐ¾ÑĤÐºÐ»ÑİÑĩ": 4544,
      "ĠÐ¿Ð¾Ð²ÐµÐ·Ð»Ð¾": 4545,
      "ĠÐ¾Ð¿Ð¸ÑģÐ°Ð½Ð¸Ðµ": 4546,
      "ĠÐ¿ÑĢÐ¾Ð¹ÑĤÐ¸": 4547,
      "ĠÐ¿Ð¾Ð»Ð¾Ð¶Ð¸ÑĤÐµÐ»ÑĮ": 4548,
      "ava": 4549,
      "Ġle": 4550,
      "ÑĤÐµÐ±Ðµ": 4551,
      "ĠÐ¼ÐµÐ»": 4552,
      "ðŁĨ": 4553,
      "ÐµÑĢÐ¾Ð¼": 4554,
      "Ð¶Ð¶": 4555,
      "Ð¾Ð»ÑĮÐºÑĥ": 4556,
      "ÑįÑĪ": 4557,
      "ĠÐĳÐ«": 4558,
      "Ð°Ð¹Ð´Ð¸ÑĤÐµ": 4559,
      "ĠÐ¿ÑĢÐ¾ÑĨÐµÑģÑģ": 4560,
      "ĠÐ±Ð¾ÑİÑģÑĮ": 4561,
      "26": 4562,
      "Ð½Ð¸Ð²": 4563,
      "ÐĲÑħÐ°ÑħÐ°Ñħ": 4564,
      "Ð¾Ð²Ð°Ñı": 4565,
      "ĠÐ¿ÑĢÐ°Ð·Ð´": 4566,
      "ĠÑĢÐ°ÑģÑĤ": 4567,
      "ðŁĺľ": 4568,
      "ÐĴÑĢÐ¾Ð´Ðµ": 4569,
      "ÐµÐºÑĤÐ°": 4570,
      "ÐĳÐµÐ·": 4571,
      "ĠÑĥÑĢÐ¾ÐºÐ¾Ð²": 4572,
      "ĠÐ¿ÐµÑĩ": 4573,
      "ĠÐ²Ð²ÐµÐ´Ð¸ÑĤÐµ": 4574,
      "Ð¿Ð¾ÑĢÑĤ": 4575,
      "Ð¸Ð½Ð¾Ð¹": 4576,
      "ÐĿÐ«": 4577,
      "ÑģÐºÐ°Ð½Ð´ÐµÑĢ": 4578,
      "atch": 4579,
      "ÑģÑĤÐ°ÑĤÐ¾ÑĩÐ½Ð¾": 4580,
      "ĠÐ²ÐµÑĢÐ½ÑĥÑĤÑĮ": 4581,
      "Ð¾ÑģÐºÐ¾Ð»ÑĮÐºÑĥ": 4582,
      "unt": 4583,
      "ĠÑģÐ²ÑıÐ·Ð°Ð½": 4584,
      "(\"$": 4585,
      "ĠÐ½Ð°ÑģÑĤÐ¾ÑıÑī": 4586,
      "QL": 4587,
      "zhe": 4588,
      "Ġof": 4589,
      "ÑĥÐ»Ð¸": 4590,
      "ĠÑĥÐ¿ÑĢÐ°Ð²": 4591,
      "ÑĳÑĤÐµ": 4592,
      "ĠÐ¿Ð¾ÑĦÐ¸Ð³": 4593,
      "ÐľÐ¾Ð³Ñĥ": 4594,
      "arn": 4595,
      "ase": 4596,
      "ĠÑģÑĥÐ¼Ð¼Ð°": 4597,
      "ðŁĹ¿ðŁĹ¿ðŁĹ¿ðŁĹ¿": 4598,
      "ÑįÑĦÑĦÐ¸ÑĨÐ¸": 4599,
      "ĠÐ°Ð»Ðµ": 4600,
      "ĠÑĤÐ°ÐºÑĥÑİ": 4601,
      "ĠÐ¶Ð°Ð»ÑĮ": 4602,
      "ÐłÐĲÐĴ": 4603,
      "......": 4604,
      "ĠÐ»ÑİÐ´ÑıÐ¼": 4605,
      "ĠÐºÐ¾Ð¼Ð°Ð½Ð´Ðµ": 4606,
      "ĠÐ¿ÑĢÐ¸ÑĪÐ»Ð°": 4607,
      "ĠÑĢÐ¾Ð´Ð¸ÑĤÐµÐ»Ð¸": 4608,
      "ĠÑĥÑĩÐ°ÑģÑĤÐ²Ð¾Ð²Ð°ÑĤÑĮ": 4609,
      "ost": 4610,
      "ÑĤÑĥÐ±": 4611,
      "ðŁĺĭ": 4612,
      "ÐµÐ½Ð¸Ð»": 4613,
      "ÐĶÐ°Ð¶Ðµ": 4614,
      "Ð°Ð½Ð¸Ð·": 4615,
      "rom": 4616,
      "ĠÐ¿ÐµÑĢÐ²Ð¾Ðµ": 4617,
      "ĠÐ¿ÑĢÐ¾Ð²ÐµÑĢÑı": 4618,
      "ĠÑģÐºÐ°Ð¶Ð¸": 4619,
      "ĠÐ¾Ð³ÑĢÐ¾Ð¼": 4620,
      "×Ļ": 4621,
      "Ð½Ð¾Ð": 4622,
      "ĠÐ¼Ð»Ð°Ð´": 4623,
      "ĠÐ´Ð»Ð¸Ð½": 4624,
      "ĠÑĤÐ°ÐºÐ¸": 4625,
      "ĠÑĪÐºÐ¾Ð»ÑĮ": 4626,
      "ÑĢÑĭÑĪ": 4627,
      "âĢĶâĢĶ": 4628,
      "ĠÐ¾Ð¿ÐµÑĢÐ°": 4629,
      "ĠÑĥÐ¼Ðµ": 4630,
      "lika": 4631,
      "ĠÐ´ÑĢÑĥÐ¶Ð¸ÑĤÑĮ": 4632,
      "Ð°Ð¾Ð°Ð¾": 4633,
      "ĠÐºÐ¸Ð´Ð°ÑĤÑĮ": 4634,
      "ĠÐ·Ð°Ð±ÑĭÐ»Ð°": 4635,
      "âĸĳâĸĳ": 4636,
      "ÑģÐºÐ¸": 4637,
      "ÐºÐ°ÑĤ": 4638,
      "Ġ$-": 4639,
      "ĠÐ·Ð°ÐºÐ°Ð·": 4640,
      "ĠÐ¾ÑĤÐ²ÐµÑĤÐ¸Ð»": 4641,
      "ÐĲÐĽÐĲ": 4642,
      "ĠÐ¿Ð¾Ð·Ð½Ð°ÐºÐ¾Ð¼": 4643,
      "ĠÐ½Ð°Ð¿Ð¸ÑĪÐ¸": 4644,
      "ĠÑģÑĤÐ°Ð½Ð¾Ð²": 4645,
      "zhelika": 4646,
      "AB": 4647,
      "Jo": 4648,
      "à¤": 4649,
      "ĠÐ¿ÑĥÑģÑĤÑĮ": 4650,
      "ĠÐ±ÐµÑĢ": 4651,
      "Ð¸ÐºÐ¾Ð¼": 4652,
      "ðŁĺī": 4653,
      "ÐĴÐĲÐ¥": 4654,
      "ÐŁÐ¾Ð·Ð´ÑĢÐ°Ð²Ð»ÑıÑİ": 4655,
      "ÐĶÐĺ": 4656,
      "Ð½Ð¸ÑĨÐ¸": 4657,
      "ÐµÐ·Ð¶": 4658,
      "ÐµÐ½ÑĤÐ°": 4659,
      "ata": 4660,
      "ĠÐ½Ð°ÑĩÐ°ÑĤÑĮ": 4661,
      "ÐµÑĢÐ²ÑĭÐµ": 4662,
      "ĠÑĪÑĥÑĤÐºÐ°": 4663,
      "Ð°ÑİÑīÐ¸Ð¹": 4664,
      "ðŁ¤ĶðŁ¤Ķ": 4665,
      "Ð»ÐµÐ±": 4666,
      "ĠÐ¿Ð»Ð¸Ð·": 4667,
      "ĠÑģÑĢÐ°Ð²": 4668,
      "Ð¾Ð±Ð¾ÑĢÐ¾ÑĤ": 4669,
      "ÐŀÐ´": 4670,
      "ĠÑģÐ¼Ð°Ð¹": 4671,
      "ĠÐ²ÐµÑĢÐ½ÑĥÐ»ÑģÑı": 4672,
      "ĠÐºÐ°Ð¿ÐµÑĨ": 4673,
      "ĠÐ¸ÑģÐ¿Ð¾Ð»ÑĮÐ·ÑĥÑı": 4674,
      "ĠÑĢÑıÐ´Ð¾Ð¼": 4675,
      "ay": 4676,
      "pp": 4677,
      "{\\": 4678,
      "ĠÐ¼Ð°Ñģ": 4679,
      "ĠÐ±ÐµÐ³": 4680,
      "ÐµÐ¼ÑģÑı": 4681,
      "ĠÐ»Ð¾Ð»": 4682,
      "ÑĨÐ¸Ð¾Ð½": 4683,
      "ÑĥÑĪÐºÐ¸": 4684,
      "ĠÑĢÐ°Ð²Ð½Ñĭ": 4685,
      "âĶĥ": 4686,
      "ĠÐ°Ð»Ð³ÐµÐ±": 4687,
      "ĠÐ½Ð°ÑħÐ¾Ð´Ð¸ÑĤÑģÑı": 4688,
      "youtube": 4689,
      "Ð°Ð½Ðµ": 4690,
      "ÑĥÑĤÑģÑĤÐ²": 4691,
      "Ð¸Ð±Ð»Ð¸": 4692,
      "ĠÑĨÐµÐ½ÑĤ": 4693,
      "ĠÐ¿ÐµÑĢÐ²Ð¾Ð³Ð¾": 4694,
      "admin": 4695,
      "ĠÐ°Ð½Ð³Ð»Ð¸Ð¹ÑģÐºÐ¾Ð¼": 4696,
      "ÑĭÑĭÑĭÑĭ": 4697,
      "ĠÐ·Ð°ÑħÐ¾ÑĤ": 4698,
      "ĠÐ²ÑĭÐ³Ð»ÑıÐ´Ð¸ÑĤ": 4699,
      "¤à£": 4700,
      "ÐºÐ°Ð·": 4701,
      "Ð¾Ð²ÐµÑĤ": 4702,
      "ÐĿÐ£": 4703,
      "ĠÐ½Ð¾ÑĥÑĤ": 4704,
      "ÐµÐµÐµ": 4705,
      "ĠðŁĺĺ": 4706,
      "ðŁĳı": 4707,
      "ĠÐ¸Ð¼Ð±Ð°": 4708,
      "ĠÐ°Ð²Ñĭ": 4709,
      "ĠÐ²ÐµÑĢÐ½Ñĥ": 4710,
      "ĠÐ¸ÑģÐºÐ°ÑĤÑĮ": 4711,
      "ĠÐ¼Ð°ÐºÑģÐ¸Ð¼ÑĥÐ¼": 4712,
      "Ð°ÑĢÑĥÑģÑı": 4713,
      "ĠÐ¼Ð¸Ð½Ð¸Ð¼ÑĥÐ¼": 4714,
      "ĠÑģÑĥÐ±Ð±": 4715,
      "66": 4716,
      "bab": 4717,
      "Ø¨": 4718,
      "ÑĭÑģ": 4719,
      "ĠÐºÐ°Ð¹ÑĦ": 4720,
      "ĠÐ´Ð¾Ñģ": 4721,
      "ÐµÐ»Ñı": 4722,
      "Ð±ÑĥÐ´": 4723,
      "ĠÑħÐµÐ»": 4724,
      "ĠÐ¾Ð±ÑĢÐ°Ñī": 4725,
      "ĠÐĿÐ°ÐºÐ¾Ð½ÐµÑĨ": 4726,
      "ĠÐľÐĿÐķ": 4727,
      "ĠÑĥÑĩÐ¸ÑĤÑĮ": 4728,
      "ĠÐ²ÑĭÐ±Ð¾ÑĢ": 4729,
      "ĠÐ°Ð´Ð¼Ð¸Ð½Ð¸ÑģÑĤÑĢÐ°": 4730,
      "âĢįðŁĮ": 4731,
      "ĠÐ¨Ð¾Ñĥ": 4732,
      "ĠÐ·Ð°ÑĪÐ»Ð°": 4733,
      "ĠÑģÐµÐ·Ð¾Ð½": 4734,
      "ĠÑģÐ°Ð¼Ð°Ñı": 4735,
      "ĠÑĥÐ´Ð¾Ð²": 4736,
      "ĠÐºÐ¾Ð»Ð¾Ð½": 4737,
      "ÐºÐ°ÐºÐ¾Ð¹": 4738,
      "ÑıÐ´Ñı": 4739,
      "ÑģÑĤÐ²ÐµÐ½Ð½ÑĭÐ¹": 4740,
      "ĠÐ¼ÐµÑģÑĤÐ°": 4741,
      "ÑĢÐ¸Ðº": 4742,
      "ĠÐºÑģ": 4743,
      "ÐµÐ½ÐµÐ¼": 4744,
      "Ð°ÐºÐ¸": 4745,
      "ĠÐŁÐµÑĢ": 4746,
      "ÐµÐ²Ð°": 4747,
      "ĠÐ¿Ð¾Ð´ÑĤ": 4748,
      "ĠÐ¾Ð´Ð½Ð¾Ð¼": 4749,
      "ðŁİĦ": 4750,
      "ĠÐ½Ð¾Ð²ÐµÐ½ÑĮÐºÐ¸Ð¹": 4751,
      "ĠÐ¼Ð°Ð³Ð°Ð·Ð¸Ð½": 4752,
      "ĠÑĥÑĤÐ²ÐµÑĢÐ¶Ð´": 4753,
      "ĠÐ´ÐµÐ½ÐµÐ³": 4754,
      "get": 4755,
      "ĠÑģÑĦ": 4756,
      "Ð´Ð¾": 4757,
      "ĠÐ¼Ð°Ð¹": 4758,
      "Ð¶Ð½Ð¾": 4759,
      "ĠÐ±ÑĭÑģÑĤÑĢ": 4760,
      "ĠÐ¿Ð¾Ð¼Ð¾Ð¶ÐµÑĤ": 4761,
      "ðŁĳ¨": 4762,
      "ĠÑĤÐ²Ð¾Ð¸": 4763,
      "ĠÐ¼Ð¾Ð»Ð¾Ð´ÐµÑĨ": 4764,
      "ĠÑĥÑģÐ¿ÐµÐ»": 4765,
      "ĠÑģÐ¿Ð¸ÑģÐºÐ°": 4766,
      "ĠÐ±ÐµÑģÐ¿Ð»Ð°ÑĤÐ½Ð¾": 4767,
      "âĿĹï¸ı": 4768,
      "\")": 4769,
      "dmit": 4770,
      "Ġit": 4771,
      "ÑģÐ¾Ð»": 4772,
      "ĠÐ´Ñĥ": 4773,
      "ðŁĺĲ": 4774,
      "ĠÐŁÐłÐĺ": 4775,
      "ĠÐºÐ¾ÑįÑĦÑĦÐ¸ÑĨÐ¸": 4776,
      "ĠÑģÐ²Ð¾Ðµ": 4777,
      "ĠÐ¿ÐµÑĢÐ²ÑĭÐµ": 4778,
      "ĠÑģÑĤÑĢÐ¸Ð¼Ð°": 4779,
      "ÐķÐĿÐ¬": 4780,
      "ÑĥÐ¿ÑĢÐµÐ¶Ð´ÐµÐ½Ð¸Ñı": 4781,
      "ÐķÐĳÐķ": 4782,
      "ĠÐ³ÑĥÐ»ÑıÑĤÑĮ": 4783,
      "Slonik": 4784,
      "Ð°Ñį": 4785,
      "Ð½Ð°ÑĢ": 4786,
      "ĠÑģÑĭ": 4787,
      "ĠÐ±ÑĢÐ°ÑĤÑĮ": 4788,
      "Ð·ÑĭÐ²": 4789,
      "Ð¾ÑģÐ¿Ð¾Ð´": 4790,
      "ĠÑģÐ¿Ð°Ð»": 4791,
      "Ð½Ð¸ÐºÐ¾Ð¼": 4792,
      "out": 4793,
      "Ġwh": 4794,
      "icial": 4795,
      "ĠÐ¾ÑģÐ¾Ð±ÐµÐ½Ð½Ð¾": 4796,
      "Ð¯Ð¯Ð¯Ð¯": 4797,
      "ĠÑģÐ°Ð¹ÑĤÐ°": 4798,
      "ĠÑħÑĥÐ´Ð¾Ð¶": 4799,
      "_âģł": 4800,
      "ÑģÐ»ÐµÐ´": 4801,
      "ĠÑĳ": 4802,
      "ĠÑģÑĤÐ¾Ð¿": 4803,
      "Ð¥Ð°ÑħÐ°Ñħ": 4804,
      "Ġ29": 4805,
      "ÑģÑĤÐ²Ð¾Ð¼": 4806,
      "ĠÐ·Ð°Ð¿ÑĢÐ¾Ñģ": 4807,
      "ĠÐ¿ÑĢÐ¾Ð¸Ð·Ð¾ÑĪ": 4808,
      "ĠÐ¾Ð±ÑģÑĥÐ¶Ð´": 4809,
      "ĠÑĢÐ¾Ð±Ð°ÐºÑģÐ¾Ð²": 4810,
      "Ð²Ð¸Ð´": 4811,
      "ĠÐ·Ð°ÑħÐ¾Ð´Ð¸ÑĤÑĮ": 4812,
      "Ð¥Ð²Ð°ÑĤÐ¸ÑĤ": 4813,
      "ÐµÐ½ÑĮÐµ": 4814,
      "ĠÐ´ÐµÐ»Ð°ÑİÑĤ": 4815,
      "ĠÐ´ÐµÐ»Ð°ÐµÑĪÑĮ": 4816,
      "ÑģÑĤÐ°Ð²ÑĮÑĤÐµ": 4817,
      "ĠÑģÐ²Ð¾Ð¸Ð¼": 4818,
      "ĠÐ½Ð°ÑĪÐµÐ¹": 4819,
      "Ġnum": 4820,
      "Ð³ÑĥÑģÑĤÐ°": 4821,
      "ĠÐ·Ð°Ð¿ÑĢÐµÑīÐµÐ½Ñĭ": 4822,
      "ðŁĺĶðŁĺĶ": 4823,
      "¤à£¤à£": 4824,
      "33": 4825,
      "ÑĩÐ¸ÐºÐ¸": 4826,
      "Ð¾Ð²ÑĮ": 4827,
      "Ð¾ÑĢÐ¾Ð´": 4828,
      "ÐĴÐ°Ñĥ": 4829,
      "Ð¡Ð´ÐµÐ»": 4830,
      "ÐĲÐ¥ÐĲ": 4831,
      "ĠÐ·Ð½Ð°ÑİÑĤ": 4832,
      "ÑĩÐ°ÑģÑĤÑĮ": 4833,
      "ĠÐ·Ð½Ð°Ð»Ð°": 4834,
      "ĠÑįÐºÐ·": 4835,
      "ĠÑģÐºÐ°Ð¹ÑģÐ¼Ð°ÑĢÑĤÐ°": 4836,
      "ĠÐ²Ð°ÑĢÐ¸Ð°Ð½": 4837,
      "ĠÐ±ÑĥÐºÐ²Ñĭ": 4838,
      "ject": 4839,
      "ĠÑģÐ»Ð¸Ð²": 4840,
      "ÐĲÑħ": 4841,
      "ĠÐ·Ð»": 4842,
      "Ð°Ð¹Ð±ÑĢÐ°Ð½": 4843,
      "Ġ150": 4844,
      "Ġ28": 4845,
      "Ð¸Ð¿ÐµÑĨ": 4846,
      "ÑĥÑģÐ°": 4847,
      "ĠÐ°Ð²Ð³ÑĥÑģÑĤÐ°": 4848,
      "live": 4849,
      "ĠÑĥÐ´Ð°Ð»Ð¸Ð»Ð¸": 4850,
      "ĠÑĢÐµÐ°Ð»Ð¸Ð·": 4851,
      "Ġ<=": 4852,
      "ĠÐľÐ¾ÑģÐºÐ²Ðµ": 4853,
      "ÐĲÐķÐ¢": 4854,
      "ÐļÐ¾Ð½ÐµÑĩÐ½Ð¾": 4855,
      "$\",": 4856,
      "circ": 4857,
      "gra": 4858,
      "ode": 4859,
      "ran": 4860,
      "Ð¸Ð¼Ð°Ñİ": 4861,
      "ÐŁÐ¾Ð²": 4862,
      "ĠÑģÐ¿Ð¾ÐºÐ¾Ð¹": 4863,
      "ĠÐ¡ÐŁ": 4864,
      "ĠÐ´ÐµÐ»Ð°ÐµÑĤÐµ": 4865,
      "ĠÐ¸Ð¼ÐµÑİ": 4866,
      "ĠÑĢÐ°Ð±Ð¾ÑĤÐ°ÑİÑĤ": 4867,
      "ĠÑģÐ¼Ð¾ÑĤÑĢÐµÐ»Ð°": 4868,
      "ÐŀÐŀÐŀ": 4869,
      "ÑĢÐ¸ÑıÑĤ": 4870,
      "ĠÑģÑĤÑĢÐ¸Ð¼Ñĭ": 4871,
      "Ð°ÐµÑĪÑĮÑģÑı": 4872,
      "ĠÐ¿ÑĢÐ¾Ð²Ð¾Ð´": 4873,
      "ĠÐ¼Ð½Ð¾Ð³Ð¸Ðµ": 4874,
      "ÐĴÐĴÐĴÐĴÐĴÐĴÐĴÐĴ": 4875,
      "ÐµÑīÐµ": 4876,
      "ĠÐ¿ÑĢÐ¾Ð¼": 4877,
      "Ġ26": 4878,
      "ĠÑĢÐ°Ð·Ð½ÑĭÑħ": 4879,
      "ÐµÑĪÑĮÑģÑı": 4880,
      "ðŁĴŀ": 4881,
      "ĠÐºÐ¾Ð½ÐµÑĨ": 4882,
      "ĠÐ·Ð°ÐºÐ»ÑİÑĩ": 4883,
      "riy": 4884,
      "Ġ60": 4885,
      "ĠÐ¼Ð¸Ð½ÑĥÑĤÑĥ": 4886,
      "abr": 4887,
      "ðŁŁ¨": 4888,
      "ĠÑģÐ¸ÑģÑĤÐµÐ¼": 4889,
      "}\\": 4890,
      "Ð»Ð¾Ð½": 4891,
      "Ð´Ð»Ñı": 4892,
      "Ð´Ð¾Ð±ÑĢÐ¾Ðµ": 4893,
      "Ð¾Ð²Ð°Ð»Ð¸": 4894,
      "Ð»ÑıÐµÑĤÑģÑı": 4895,
      "ĠÑĦÑĢ": 4896,
      "ÑĥÑĪÐ°ÑĤÑĮ": 4897,
      "ðŁĻģ": 4898,
      "ĠÐ¾Ð±ÑĬÐµÐºÑĤÑĭ": 4899,
      "ĠÐ¾ÐºÑĢÑĥÐ¶": 4900,
      "âķĲ": 4901,
      "ĠÐºÐ²ÐµÑģÑĤ": 4902,
      "ĠÑģÑİÐ¶ÐµÑĤ": 4903,
      "âĶģ": 4904,
      "Ð¼Ð¼Ð¼Ð¼": 4905,
      "ĠÐ¶Ð°Ð»ÐºÐ¾": 4906,
      "ĠÐ¿ÑĢÐ¸Ð»Ð¾Ð¶ÐµÐ½Ð¸Ðµ": 4907,
      "ĠÑĢÐµÐ´ÐºÐ¾": 4908,
      "ĠÑĥÐ¿ÑĢÐ¾Ñī": 4909,
      "kash": 4910,
      "ÑĥÑĦ": 4911,
      "ĠÐ¿ÑıÑĤÑĮ": 4912,
      "ÑĩÐ¸ÐºÐ°": 4913,
      "ĠÐ²Ð°Ð½": 4914,
      "ÐµÐ½Ð½Ð¾Ðµ": 4915,
      "Ð·Ð°Ðº": 4916,
      "ĠÐ³ÑĥÐ³": 4917,
      "Ð¾Ð¿Ð¸Ñģ": 4918,
      "ĠÐ¿Ð¾Ð´ÐµÐ»": 4919,
      "ðŁĴľ": 4920,
      "ÐĹÐ°Ð¿": 4921,
      "ĠÐ¢Ð°Ð¼": 4922,
      "ĠÑıÐ·ÑĭÐºÐµ": 4923,
      "ĠÑĦÐ°Ð½Ð°ÑĤ": 4924,
      "ĠÐ²Ð½Ð¸Ð¼Ð°Ð½Ð¸Ðµ": 4925,
      "kashow": 4926,
      "age": 4927,
      "Ì¶": 4928,
      "ĠÐ½Ð°Ð¹": 4929,
      "Ð¼Ð°ÑĢ": 4930,
      "ĠÐ½Ð°ÑģÑĤÑĢÐ¾Ð¹": 4931,
      "ĠÑįÐ½": 4932,
      "Ð¸Ð½Ðº": 4933,
      "ĠÑĢÐ°Ð·Ð¼ÐµÑĢ": 4934,
      "ðŁ¤§": 4935,
      "ĠÐ¿ÑĢÐ°Ð²Ð°": 4936,
      "ĠÐ¼Ð¾Ð´ÐµÐ»Ð¸": 4937,
      "Ġdo": 4938,
      "ĠÐ¿Ð¾Ð²ÐµÑĢ": 4939,
      "2023": 4940,
      "Ð¡ÑĤÐ¾Ð¿": 4941,
      "ĠÐ½ÐµÐ¹ÑĢÐ¾ÑģÐµÑĤÑĮ": 4942,
      "ĠÐ¿Ð¾ÑģÑĤÑĢÐ¾Ð¹ÐºÐ¸": 4943,
      "ĠÐ¿Ð»Ð¾ÑīÐ°Ð´ÑĮ": 4944,
      "Ð¾ÐºÐ¼Ð°ÑĢÐ¼Ð¸Ð»ÐºÐ¾": 4945,
      "babkashow": 4946,
      "Ð»ÑĳÐ½": 4947,
      "ĠÐ½Ð¸Ð·": 4948,
      "ĠÐ»ÐµÑģ": 4949,
      "ÐµÐ¹Ñģ": 4950,
      "ĠÑĤÐ°ÐºÐ¸Ð¼": 4951,
      "ĠÐ¡Ð¾Ð·Ð´": 4952,
      "ĠÐ¿Ð¾Ð´Ð²Ð°Ð»": 4953,
      "ðŁĴİ": 4954,
      "ĠÐŀÐ½Ð¸": 4955,
      "ĠÐ¿Ð¾ÑģÐ»": 4956,
      "ĠÐ¿ÑĢÐµÐ´Ð¾": 4957,
      "ĠÑģÐ¼Ð¾ÑĤÑĢÐ¸ÑĤ": 4958,
      "ĠÐºÐ¾Ð¼Ð¿Ðµ": 4959,
      "ĠÑįÐºÑĢÐ°Ð½": 4960,
      "day": 4961,
      "ĠÑĤÐµÐºÑĥÑī": 4962,
      "ĠÐ¾ÑĤÐ½Ð¾Ñģ": 4963,
      "ĠÑĤÑĭÑģÑıÑĩ": 4964,
      "MrSlonik": 4965,
      "dmitriy": 4966,
      "dmitriyabr": 4967,
      "ea": 4968,
      "ÑĢÑıÐ´": 4969,
      "Ð½Ð¾Ð»Ð¾Ð³": 4970,
      "ĠÐ¿Ð°Ðº": 4971,
      "ĠÐ¿Ð¾Ð·Ð´ÑĢÐ°Ð²": 4972,
      "ĠÑģÑĥÐ´": 4973,
      "ÑİÐ·": 4974,
      "ĠÐ³ÐµÐ½Ð¸Ð¹": 4975,
      "ÐµÐ»ÑĮÐ½Ð¾": 4976,
      "ÑįÐ½": 4977,
      "ĠÐ·Ð°Ð±Ð»Ð¾Ðº": 4978,
      "Ð¡ÐºÐ¾ÑĢÐ¾": 4979,
      "ĠÐ±ÐµÑģÐµÐ´": 4980,
      "ĠÐ¾ÑĤÐ´ÑĭÑħ": 4981,
      "ĠÐ»ÑİÐ±Ð¸Ð¼ÑĭÐ¹": 4982,
      "zz": 4983,
      "ĠÐµÑģÑĤ": 4984,
      "ÐŀÐ¾Ð¾": 4985,
      "Ð°Ð°Ñħ": 4986,
      "ĠÐ´ÑĢÑĥÐ³Ð¸Ð¼": 4987,
      "ĠÐ³Ð¾Ð²Ð¾ÑĢÐ¸ÑĪÑĮ": 4988,
      "Ð¼Ð¸Ð½Ñĭ": 4989,
      "ĠÑģÐ¸Ð´ÐµÑĤÑĮ": 4990,
      "ÐĺÐ½ÑĤÐµÑĢÐµÑģÐ½Ð¾": 4991,
      "ĠÑĤÑĢÐµÑĥÐ³Ð¾Ð»ÑĮÐ½Ð¸ÐºÐ°": 4992,
      "ew": 4993,
      "ĠÑģÐ½Ð¸": 4994,
      "Ð¾Ð´Ñĭ": 4995,
      "Ð°ÑĢÐ¾Ð²": 4996,
      "Ð»ÑıÐµÐ¼": 4997,
      "ĠÑģÐ¿Ð¸ÑĤ": 4998,
      "ĠÐºÐ¾ÑĪ": 4999,
      "ĠÐĶÐ°": 5000,
      "ĠÑģÐ°Ð¼Ð¾Ð³Ð¾": 5001,
      "ĠÐ¿ÑĢÐµÐ´ÑĥÐ¿ÑĢÐµÐ¶Ð´ÐµÐ½Ð¸Ðµ": 5002,
      "ĠÐ¿Ð¸ÑģÐ°Ð»Ð¸": 5003,
      "ĠÐ¿ÐµÑĢÐ²ÑĭÑħ": 5004,
      "ĠÐ¿Ð¾ÑģÐ¼Ð¾ÑĤÑĢÐ¸": 5005,
      "ĠÐ¶Ð¸Ð·Ð°": 5006,
      "ĠÑģÐµÑĢÐ²": 5007,
      "ĠÐ¿ÑĢÐ¾Ð¸Ð·Ð²Ð¾Ð´": 5008,
      "ĠÐ¿Ð¾ÑģÑĤÐ°Ð²Ð¸Ð»": 5009,
      "5555": 5010,
      "ĠÐ¿ÑĭÑĤÐ°ÑİÑģÑĮ": 5011,
      "ÑıÑıÑıÑıÑıÑıÑıÑı": 5012,
      "ĠÐ¿Ð¾Ð½ÑĢÐ°Ð²Ð¸Ð»Ð¾ÑģÑĮ": 5013,
      "ĠÐ·Ð°Ð¼ÐµÑĤÐ¸Ð»": 5014,
      "Ð¸Ð±Ð»Ð¸Ð¾ÑĤ": 5015,
      "ĠO": 5016,
      "ĠÐ²Ð°Ð»": 5017,
      "ĠÐ´Ð¾Ð´ÐµÐ»": 5018,
      "ĠÐµÐ¼": 5019,
      "Ð¸Ð¼Ñĥ": 5020,
      "ĠÐºÐ°ÐºÐ¸Ñħ": 5021,
      "ĠÐ½Ð¾Ð²Ð¾Ð³Ð¾": 5022,
      "Ð¥Ð¾ÑĤÐ¸ÑĤÐµ": 5023,
      "Ð°Ð¶Ð´ÑĭÐ¹": 5024,
      "Ð±ÐµÑĢÐ¸ÑĤÐµ": 5025,
      "ðŁĨĺ": 5026,
      "47": 5027,
      "Mari": 5028,
      "na": 5029,
      "ute": 5030,
      "ÑģÐ°Ð¼": 5031,
      "Ð»ÐµÐ³": 5032,
      "ĠÐ¼Ð¾ÑģÐº": 5033,
      "ĠÑĢÐ°Ðº": 5034,
      "ĠÑĢÐ°Ð¹": 5035,
      "ÑĥÑĩÐ¸ÑĤ": 5036,
      "Ð°Ð»ÑĮÐ½Ð¾Ð³Ð¾": 5037,
      "ÑĭÐ²Ð°Ð¹": 5038,
      "ĠðŁĺ±": 5039,
      "ĠÐ¸Ð¼ÐµÐ½Ð¸": 5040,
      "ĠÐºÑĢÐ¸Ð½Ð¶": 5041,
      "ĠÐ½Ð¾Ð²ÑĥÑİ": 5042,
      "ĠÐ¿ÑĢÐ¸ÑıÑĤÐ½Ð¾": 5043,
      "ĠÐ¼Ð°ÑĤÐµÑĢ": 5044,
      "Ġde": 5045,
      "ĠÐ²ÑĭÐ¸Ð³ÑĢÐ°ÑĤÑĮ": 5046,
      "ÐĺÐĽÐĲ": 5047,
      "ĠÐ²ÐºÑĥÑģÐ¾Ð¼": 5048,
      "ĠÐ¸ÑģÐºÐ»ÑİÑĩ": 5049,
      "ÑĥÑĥÑĥÑĥÑĥÑĥÑĥÑĥ": 5050,
      "ĠÐĴÐ¡Ðķ": 5051,
      "ÐĺÑĢÐ¸ÑģÐºÐ°": 5052,
      "official": 5053,
      "ĠâĸĪ": 5054,
      "ÑıÐ½Ð¸Ðµ": 5055,
      "ÐºÑĢÐµÑĤ": 5056,
      "ÐºÐ»Ð°ÑģÑģ": 5057,
      "ĠÑĤÐ¾Ð»": 5058,
      "Ð§Ñĳ": 5059,
      "ĠÐºÐ¾Ð¾ÑĢÐ´Ð¸Ð½": 5060,
      "Ð°ÑĢÑĤÐ°": 5061,
      "Ð»ÐµÐ½Ð´Ð¶": 5062,
      "ĠÐ¿ÑĢÐ¸Ð½ÑĨÐ¸Ð¿Ðµ": 5063,
      "ofey": 5064,
      "ĠÐ¿Ð¾Ð¿ÑĢÐ¾Ð±Ð¾Ð²Ð°ÑĤÑĮ": 5065,
      "ngg": 5066,
      "imofey": 5067,
      "ÐľÐ¾Ñı": 5068,
      "ĠÐŁÐ¾ÑģÐ»Ðµ": 5069,
      "babkashowyt": 5070,
      "200": 5071,
      "ĠÐ¼ÑĥÐ»ÑĮÑĤ": 5072,
      "ÐµÐ½Ð½Ð¾Ð¹": 5073,
      "ÑħÐ¾ÑĢÐ¾ÑĪ": 5074,
      "ĠÐ½Ð°Ð¾Ð±Ð¾ÑĢÐ¾ÑĤ": 5075,
      "Ð°ÑĤÑĥÑĢ": 5076,
      "ÐŀÐł": 5077,
      "ÐĿÐ°Ð¼": 5078,
      "ÐļÑĥÐ´Ð°": 5079,
      "ĠÐ²ÑĭÐ¶": 5080,
      "Ð°Ð°Ð°Ð°Ð°": 5081,
      "Ġ31": 5082,
      "ĠÐºÐ»Ð°Ð²": 5083,
      "Ð°ÑģÑĤÐµÑĢ": 5084,
      "lish": 5085,
      "def": 5086,
      "ĠÑģÑĤÑĢÐ°Ð½Ð½Ð¾": 5087,
      "ÐŁÐ¾ÑģÐ»ÐµÐ´": 5088,
      "ĠÐ²Ð°Ð¶Ð½Ð¾": 5089,
      "ĠÐ½Ð°ÑĥÑĩÐ¸ÑĤÑĮÑģÑı": 5090,
      "ĠÐ²ÑĭÑģÐ¾Ðº": 5091,
      "ĠÐ³Ð»Ð°Ð·Ð°": 5092,
      "ĠÐ¿ÑĢÐ¾Ð¿ÑĥÑģÑĤÐ¸Ð»": 5093,
      "annngg": 5094,
      "ĠÑħÐ²Ð°ÑĤÐ°ÐµÑĤ": 5095,
      "py": 5096,
      "ĠÐ²ÑģÑĤÐ°Ð²": 5097,
      "ĠÐ´Ð°Ð¹": 5098,
      "Ð¸Ð»Ðµ": 5099,
      "Ð°Ð´Ñĥ": 5100,
      "ÐļÐ°Ð¿ÐµÑĨ": 5101,
      "ĠÑĤÑĢÐµÑĪ": 5102,
      "ðŁ«¡": 5103,
      "ikit": 5104,
      "ĠÐ·Ð²ÑĥÐº": 5105,
      "line": 5106,
      "put": 5107,
      "ĠðŁĺŃðŁĺŃðŁĺŃ": 5108,
      "Ð¾Ð»ÐµÐµ": 5109,
      "ÐķÐ³Ð¾": 5110,
      "ÐĺÑīÑĥ": 5111,
      "Ð°Ð»ÑĮÐ½ÑĥÑİ": 5112,
      "ĠÐ¿Ð¾Ð»ÑĥÑĩÐ°Ñİ": 5113,
      "ĠÐ½Ð¾Ð²Ð¸Ñĩ": 5114,
      "ĠÐ¿Ð¾Ð¿Ð°ÑģÑĤÑĮ": 5115,
      "ĠÐ·Ð½Ð°Ð¼ÐµÐ½": 5116,
      "âģł_âģł": 5117,
      "ĠÐ¿ÑĢÐ¸ÑĪÐ»Ð¸": 5118,
      "ĠÑĥÐ³Ð°Ð´": 5119,
      "ĠÐ½ÐµÐ¹ÑĢÐ¾ÑģÐµÑĤÐ¸": 5120,
      "àº·": 5121,
      "ĠÐ¿ÑĢÐ¸Ð½Ð¸Ð¼Ð°ÐµÑĤ": 5122,
      "Ð¢Ð¸Ð¿Ð¾": 5123,
      "ĠÐ²Ð·ÑıÐ»": 5124,
      "ĠÐ²ÐµÑĢÐ¾ÑıÑĤÐ½Ð¾ÑģÑĤÑĮ": 5125,
      "num": 5126,
      "ĠÐºÐ»Ð¸": 5127,
      "ĠÐ¿ÑĢÐ°ÐºÑĤ": 5128,
      "ĠÐ°Ð»Ð¸": 5129,
      "ÐĴÐ¸Ð´": 5130,
      "ÑĳÐ·": 5131,
      "ÐĺÐĵ": 5132,
      "ĠÑĢÐ°Ð·Ð´": 5133,
      "ÐĽÐĲ": 5134,
      "ðŁĳİ": 5135,
      "ĠÐ»ÐµÑĤÐ°": 5136,
      "ĠÑĢÐµÑĪÐµÐ½Ð¸Ðµ": 5137,
      "Ð¡ÐºÐ°Ð¶Ð¸ÑĤÐµ": 5138,
      "ÐŀÐŀÐŀÐŀÐŀÐŀÐŀÐŀ": 5139,
      "ĠÐ»Ð°Ð¹Ðº": 5140,
      "ĠÐ¿Ð»ÑİÑģ": 5141,
      "IN": 5142,
      "Mimofey": 5143,
      "Ð½Ð°Ð´Ð¾": 5144,
      "ÑĭÐº": 5145,
      "ÑģÑĤÑĢÐ°": 5146,
      "Ð°Ð¼ÐµÑĤ": 5147,
      "Ð¢ÐµÐ±Ñı": 5148,
      "ĠÐ¿ÑĢÐ¾ÑħÐ¾Ð´Ð¸ÑĤÑĮ": 5149,
      "ÑĭÐ²Ð°Ð»Ð¸": 5150,
      "ĠðŁĺ¨": 5151,
      "html": 5152,
      "asy": 5153,
      "ĠÐ±Ð¾Ð»Ð¸ÑĤ": 5154,
      "ĠÐ·Ð´Ð¾ÑĢÐ¾Ð²": 5155,
      "ĠÐ¿Ð¾Ð¼Ð¾ÑīÑĮ": 5156,
      "Ð¥ÐĲÐ¥ÐĲÐ¥ÐĲÐ¥ÐĲ": 5157,
      "ĠÑĢÑĥÐºÐ¸": 5158,
      "align": 5159,
      "ĠÐ±ÑĢÐ°Ð²Ð»": 5160,
      "ÑģÐ½Ð¾": 5161,
      "ÐµÑĢÐº": 5162,
      "Ð¸Ð½ÐºÐ°": 5163,
      "Ð¢Ðĺ": 5164,
      "Ð´Ð°ÐµÐ¼": 5165,
      "Ð¡Ð¾": 5166,
      "ĠÐ²ÑĭÐºÐ»ÑİÑĩ": 5167,
      "ÐľÐ¾Ð»": 5168,
      "ĠÑģÐ»Ð¾Ð½": 5169,
      "Ð°Ð»ÑĮÐ½ÑĭÐ¼": 5170,
      "(((": 5171,
      "ðŁŁ¦": 5172,
      "ĠÑħÐ¾Ð´Ð¸ÑĤÑĮ": 5173,
      "ĠÐ´ÐµÐ¹ÑģÑĤÐ²Ð¸Ñı": 5174,
      "Ð²ÑħÐ²Ñħ": 5175,
      "ĠÐ½ÐµÐ¾Ð±ÑħÐ¾Ð´Ð¸Ð¼Ð¾": 5176,
      "ĠÐºÐ¾ÑģÐ¼Ð¾Ñģ": 5177,
      "ĠÑģÐµÐ½ÑĤÑıÐ±ÑĢÑı": 5178,
      "aaaannngg": 5179,
      "ÑħÐ¼": 5180,
      "Ð°ÐºÑĤÐµÑĢ": 5181,
      "ðŁĺı": 5182,
      "ÐĴÐµÑĢ": 5183,
      "ÐĴÐĹ": 5184,
      "ÑĢÐ°ÐµÐ¼": 5185,
      "Ð«ÐĴÐ¥": 5186,
      "ĠÐĺÑģÐ¿Ð¾Ð»ÑĮÐ·": 5187,
      "ĠÐ¼Ð¾Ð¸Ñħ": 5188,
      "ĠÐ¼Ð¾Ð»Ð¾Ð´": 5189,
      "Ð°Ð°Ð°Ð°Ð°Ð°Ð°Ð°Ð°Ð°Ð°Ð°Ð°Ð°Ð°Ð°Ð°Ð°Ð°Ð°Ð°Ð°Ð°Ð°Ð°Ð°Ð°Ð°Ð°Ð°Ð°Ð°Ð°Ð°Ð°Ð°Ð°Ð°Ð°Ð°Ð°Ð°Ð°Ð°Ð°Ð°Ð°Ð°Ð°Ð°Ð°Ð°Ð°Ð°Ð°Ð°Ð°Ð°Ð°Ð°Ð°Ð°Ð°Ð°": 5190,
      "ÐµÐºÐ»Ð°Ð¼Ð°": 5191,
      "ĠÐ°Ð¿Ð¿ÐµÑĤ": 5192,
      "?..": 5193,
      "Ðª": 5194,
      "Ķï¸ı": 5195,
      "ÑĩÐºÐ°": 5196,
      "ĠÐ¼Ð¼": 5197,
      "ÐŀÑĨÐµÐ½Ð¸ÑĤÐµ": 5198,
      "ÐķÐ¡": 5199,
      "ÐµÑģÐ¿": 5200,
      "ĠÑĥÑĩÐ¸ÑĤÐµÐ»Ñı": 5201,
      "ÑĥÑģÐ¾Ð²": 5202,
      "ÑĬÑıÑģ": 5203,
      "ĠÐ½Ð¾ÑĩÑĮÑİ": 5204,
      "ĠÐ¼Ð°ÑĤÑĢÐ¸": 5205,
      "ÑĥÑģÑĤÐ¸Ð¼": 5206,
      "ĠÐŁÑĢÐµÐ´": 5207,
      "ĠÐ·Ð°Ð¿Ð¸ÑģÐ¸": 5208,
      "ĠÑĦÐ¾ÑĤÐºÑĥ": 5209,
      "ÐķÐļÐ¡": 5210,
      "ĠÑįÐ»ÐµÐºÑĤÑĢÐ¾Ð½": 5211,
      "Ð²Ð¸": 5212,
      "ĠÐ¼Ð±": 5213,
      "ÐµÐ½Ñģ": 5214,
      "ĠÐ¸Ð²": 5215,
      "ĠÐ¾ÐºÐ¾Ð»": 5216,
      "ĠÐ±Ð¾Ð¶Ðµ": 5217,
      "ĠÐ²ÑĭÐº": 5218,
      "ĠÐ·Ð°Ñī": 5219,
      "Ð¾Ð¿ÑĢÐ¸ÑıÑĤ": 5220,
      "ÐłÑĥÐ´Ð¸Ðº": 5221,
      "ÑĭÐ²Ð°Ñı": 5222,
      "ĠÑģÐ°Ð¼ÑĭÐµ": 5223,
      "ðŁĳĢ": 5224,
      "ĠÐĳÐ°Ð±": 5225,
      "ĠÐ¸Ð¼ÐµÑĤÑĮ": 5226,
      "ĠÐ½Ð°ÐºÐ¾Ð½ÐµÑĨ": 5227,
      "âĸĪâĸĪ": 5228,
      "ĠÑģÐ¾Ð¾ÑĤÐ²ÐµÑĤÑģÑĤÐ²ÑĥÑİÑī": 5229,
      "ĠÐ°Ð³ÑĢ": 5230,
      "ÐľÐ¾Ð¶ÐµÑĤÐµ": 5231,
      "ĠÐ¾Ð±Ð¸Ð¶": 5232,
      "ĠÐĲÐĽ": 5233,
      "ĠÐļÑĤÐ¾": 5234,
      "ĠÐ¶Ð¸Ð²ÑĳÑĤ": 5235,
      "ĠÑĥÑĢÐ¾ÐºÐ°": 5236,
      "ĠÑĢÐ¾ÑĦÐ»": 5237,
      "ĠÑģÑĤÐ¾Ð»Ð±": 5238,
      "¨à£¨à£¨à£¨à£": 5239,
      "à¹Ĭà¹Ĭà¹Ĭà¹Ĭà¹Ĭà¹Ĭà¹Ĭà¹Ĭ": 5240,
      "80": 5241,
      "em": 5242,
      "ĠÐºÐ»ÑİÑĩ": 5243,
      "ĠÑĤÐµÑĩ": 5244,
      "ÐµÐ½Ð½Ð¾Ð³Ð¾": 5245,
      "ĠÐ¿ÑĢÐ¸Ð¹": 5246,
      "ÐµÐ»Ð°Ñİ": 5247,
      "ĠÐ·ÐµÐ¼": 5248,
      "ĠÑĥÐ»": 5249,
      "Ð¸ÑģÑģ": 5250,
      "ĠÐ¿ÐµÑĢÐµÐ±": 5251,
      "ĠÐ¿ÐµÑĢÐµÐ¶": 5252,
      "ĠÐ¿Ð¾Ð·Ð¶Ðµ": 5253,
      "ÑĤÑĢÐ¸Ð¼": 5254,
      "ĠÐ±Ð¾Ð»ÑĮÑĪÐ¸Ð½": 5255,
      "ĠÐ¿Ð¾ÐºÐ°Ð·Ð°ÑĤÑĮ": 5256,
      "ult": 5257,
      "ĠÑģÐ¾ÑģÑĤÐ¾Ð¸ÑĤ": 5258,
      "Ģâ£": 5259,
      "ĠÐ¿Ð°Ð½": 5260,
      "ĠÐ±Ð¸Ð±Ð»Ð¸Ð¾ÑĤ": 5261,
      "Ð°Ð½Ð¾Ð²": 5262,
      "Ð¸Ð»Ð»": 5263,
      "ÐĴÐ«": 5264,
      "ÐľÐŀ": 5265,
      "ĠÐŁÐ¾ÑģÐºÐ¾Ð»ÑĮÐºÑĥ": 5266,
      "ĠÐ¸Ð³Ð½Ð¾ÑĢ": 5267,
      "ray": 5268,
      "ĠPro": 5269,
      "ĠÑģÐºÐ¸Ð½ÑĥÐ»": 5270,
      "Ð¸ÑĢÑĥÐµÑĤ": 5271,
      "ĠÐ¸Ð½ÑĦÐ¾ÑĢÐ¼Ð°ÑĤ": 5272,
      "ĠÐ¿Ð¾Ð¼Ð¾Ð³Ð¸ÑĤÐµ": 5273,
      "ĠÑĥÐ²Ð¸Ð´ÐµÐ»": 5274,
      "ĠÑģÐµÐºÑĥÐ½Ð´": 5275,
      "à¹ĭà¹ĭà¹ĭà¹ĭ": 5276,
      "âı±": 5277,
      "àº·àº·": 5278,
      ";)": 5279,
      "=\\": 5280,
      "ta": 5281,
      "ĠÐ½Ð°Ð³ÑĢÐ°Ð´": 5282,
      "ÐµÐ½Ð½Ð°Ñı": 5283,
      "ĠÑĢÐ¾Ð»ÑĮ": 5284,
      "Ð°Ð²Ð¸Ð´": 5285,
      "ĠÐ°Ð¼": 5286,
      "ðŁĺŀ": 5287,
      "Ð½ÐµÑģ": 5288,
      "ĠÑĦÐ¸Ð½": 5289,
      "Ð¾Ð·Ð½": 5290,
      "ÑģÑĤÐ²Ñĥ": 5291,
      "Ð¸ÑĩÐºÐ°": 5292,
      "ĠÐ¿ÐµÑĢÐµÐ¹": 5293,
      "ĠÐ¿Ð¾Ð´ÑĢÐ¾Ð±": 5294,
      "ĠÑĩÐµÐ»Ð»ÐµÐ½Ð´Ð¶": 5295,
      "ðŁıł": 5296,
      "ĠÐ¸ÑģÑģÐ»ÐµÐ´": 5297,
      "ÐķÐĿÐĺ": 5298,
      "ĠÐ¿ÑĢÐ¸Ð´Ñĥ": 5299,
      "core": 5300,
      "Ð¾ÐµÐ´Ð¸Ð½": 5301,
      "ĠÑĤÐ¸Ðº": 5302,
      "ĠÑĩÐ°": 5303,
      "ĠÐ±Ð»Ð°Ð³Ð¾Ð´Ð°ÑĢ": 5304,
      "ÐµÐ»Ðµ": 5305,
      "Ð°ÑģÐº": 5306,
      "ĠÐ»Ð¸ÑĤÐµÑĢ": 5307,
      "ĠÐ¾Ð±Ð¾": 5308,
      "Ð¾Ð¿Ð°Ñģ": 5309,
      "ĠÐ¼Ð¾ÐµÐ¼Ñĥ": 5310,
      "ĠÑĩÐµÐ»Ð°": 5311,
      "ĠÑħÐ¾ÑĢÐ¾ÑĪÐ°Ñı": 5312,
      "ÑĩÐ¸ÐºÐ¾Ð²": 5313,
      "ĠÐ¼Ð¾Ð³Ð»Ð¸": 5314,
      "ĠÐ²ÑĭÑĪÐµÐ»": 5315,
      "ĠÐ¿ÑĢÐ¾Ð³ÑĢÐ°Ð¼Ð¼Ð¸ÑĢÐ¾Ð²Ð°Ð½Ð¸Ñı": 5316,
      "ĠÐ¾Ð±ÑĢÐ°ÑĤÐ½Ð¾": 5317,
      "ĠÑģÐ¾Ð»Ð¾": 5318,
      "ÝħÝħÝħÝħ": 5319,
      ",-": 5320,
      "TE": 5321,
      "ky": 5322,
      "Ð½ÐµÐ½ÑĮÐºÐ¾": 5323,
      "ĠÐ¿Ð°Ð´": 5324,
      "ÑĭÐ¿": 5325,
      "ĠÐ¾ÑģÑĤÐ°Ð½": 5326,
      "Ð¾Ð³ÑĢÐ°Ð¼": 5327,
      "ĠÐ°ÑĤ": 5328,
      "ĠÐ¾Ð±ÐµÑī": 5329,
      "ÑĥÑİÑģÑĮ": 5330,
      "ĠÑģÐ²ÐµÑĢ": 5331,
      "ĠÐŀÐĳ": 5332,
      "ĠðŁĺģ": 5333,
      "ĠÐ½Ð¾Ð²Ð¾Ðµ": 5334,
      "res": 5335,
      "ĠÐ½Ð°Ð±Ð¾ÑĢ": 5336,
      "Ð½Ð´ÐµÐºÑģ": 5337,
      "ĠÑģÐºÐ¸Ð´ÑĭÐ²Ð°ÑĤÑĮ": 5338,
      "ĠÐ¾ÐºÐ¾Ð»Ð¾": 5339,
      "Ø±": 5340,
      "ĠÐ²ÑģÑĤ": 5341,
      "ĠÑĤÐ¸Ð»ÑĮ": 5342,
      "ÑĪÑĥ": 5343,
      "ÑİÐ´Ð°": 5344,
      "Ð¾Ð²ÐµÐº": 5345,
      "ĠÑĢÐ°Ð½Ð´Ð¾Ð¼": 5346,
      "Ð»Ð¸Ð±Ð¾": 5347,
      "ÐµÐ´ÑĮ": 5348,
      "ÐĺÐĹ": 5349,
      "ĠÐĴÑģ": 5350,
      "ĠÐ¿Ð¾Ð´ÑħÐ¾Ð´": 5351,
      "text": 5352,
      "ðŁ§Ĳ": 5353,
      "ðŁĴ¥ðŁĴ¥": 5354,
      "ðŁĻıðŁĻı": 5355,
      "Ð¾ÑģÐ¿Ð¾Ð´Ð¸": 5356,
      "')": 5357,
      "âĹ": 5358,
      "ÐºÑģÑĤÐ°ÑĤÐ¸": 5359,
      "Ð¼Ð¾Ð¶ÐµÑĤ": 5360,
      "ĠÐ¼Ð°Ðº": 5361,
      "ĠÐ±ÐµÐ´": 5362,
      "Ð·Ð°ÑĩÐµÐ¼": 5363,
      "ðŁĺ¥": 5364,
      "ĠÐ¾Ð±ÑĢÐ°Ð±Ð¾ÑĤ": 5365,
      "ÐĽÑĥÑĩÑĪÐµ": 5366,
      "ĠÐ±ÑĥÐ´ÐµÑĤÐµ": 5367,
      "ĠÐ²ÐµÑĢÑĤ": 5368,
      "ĠÐ²ÐµÑĢÐ½Ð¾": 5369,
      "elf": 5370,
      "!!!!!": 5371,
      "ĠÑĤÐµÐ¼Ð°": 5372,
      "ĠÐ¿ÑĢÐ¾Ð³ÑĢÐ°Ð¼Ð¼Ð¸": 5373,
      "ĠÐºÐ½Ð¸Ð³": 5374,
      "ðŁĺ¶âĢįðŁĮ": 5375,
      "âĢįâĻĢï¸ı": 5376,
      "Â°": 5377,
      "ÐµÐºÐ¸": 5378,
      "ĠÐ½Ð¸Ð¼Ð¸": 5379,
      "ĠÐ´ÐµÐº": 5380,
      "Ð¢ÐĲ": 5381,
      "ÑĦÐ¸ÑĢ": 5382,
      "ÐĶÐ£": 5383,
      "ÑĤÐ¾ÑĢÐ¸Ñı": 5384,
      "ĠÑĢÐ°Ð·Ð½Ð¸ÑĨÐ°": 5385,
      "ĠÐ³Ð¾Ð´Ð¾Ð¼": 5386,
      "âĿĮ": 5387,
      "ĠÐ´Ð°Ð½Ð½Ð¾Ð¼": 5388,
      "ðŁ«£": 5389,
      "ĠÑģÐ¾Ð²ÐµÑĢÑĪ": 5390,
      "ĠÑģÐºÑĢÐ¸Ð¿ÑĤÐµÑĢ": 5391,
      "ĠÑģÐºÑĢÐ¸Ð¿ÑĤÑĭ": 5392,
      "ĠÐ¸ÑģÐ¿Ð¾Ð»ÑĮÐ·ÑĥÐµÑĤÑģÑı": 5393,
      "ĠÐ¿ÑĢÐ¾ÑĦÐµÑģÑģ": 5394,
      "ĠÐ¿Ð°Ð¿Ð°": 5395,
      "ĠÐ¿Ð¾ÑĢÑĤÐ°Ð»": 5396,
      "ĠÐ¾ÑĢÐ³Ð°Ð½Ð¸Ð·": 5397,
      "^^": 5398,
      "ĠÐ´Ðµ": 5399,
      "ĠÐ»Ð¸Ð²": 5400,
      "ÐŁÐ¾Ð¶Ð°Ð»ÑĥÐ¹ÑģÑĤÐ°": 5401,
      "ÑĢÐ°ÐµÑĤ": 5402,
      "ĠÐ¿ÑĢÐ¾Ð¸Ð³": 5403,
      "ĠÐ¿ÐµÑĢÐµÐ¼": 5404,
      "ĠÐ½Ð°ÑĩÐ°Ð»Ð¸": 5405,
      "ĠÑĩÐ¸ÑģÑĤÐ¾": 5406,
      "}}{": 5407,
      "ÑıÐµÑĤÑģÑı": 5408,
      "ĠÐ¿Ð¸": 5409,
      "ĠÐ½ÐµÑĢ": 5410,
      "ÐµÐ½Ñĥ": 5411,
      "Ð¶Ð¾": 5412,
      "ĠÐ»Ð¾Ð²": 5413,
      "ÐĶÐ°Ð¹ÑĤÐµ": 5414,
      "ĠÐ°Ð´ÑĢÐµÑģ": 5415,
      "ĠÑĤÐ²Ð¾ÐµÐ¹": 5416,
      "Ġcon": 5417,
      "Ð©Ð°": 5418,
      "ĠÑĩÐ¸ÑĤÐ°Ñİ": 5419,
      "ĠÑģÑĩÐ¸ÑĤÐ°Ñİ": 5420,
      "ĠÐ½ÐµÐ¿ÑĢÐ°Ð²": 5421,
      "ĠÐ¾ÑĨÐµÐ½ÐºÐ¸": 5422,
      "ĠÐ²Ð¾Ð´Ñĭ": 5423,
      "ĠÐ³ÐµÐ½ÑĪÐ¸Ð½": 5424,
      "ĠÐ¿Ð¾Ð·Ð´Ð½Ð¾": 5425,
      "ĠÐ³ÐµÐ¾Ð¼ÐµÑĤÑĢ": 5426,
      "Ġ%": 5427,
      "Ð´ÐµÐ²": 5428,
      "Ð²Ð¾Ð½": 5429,
      "Ð½Ð¾Ñģ": 5430,
      "ĠÐ»Ð¾Ð¶": 5431,
      "ĠÑħÐ°": 5432,
      "ĠÑģÑĤÐ¸ÐºÐ¸": 5433,
      "ĠÐ¿ÑĢÐ¾Ñī": 5434,
      "Ð¸ÑĩÐ¸Ð½Ð°": 5435,
      "ĠÐ¸Ð½ÑĤ": 5436,
      "ĠÐĳÐŀ": 5437,
      "ĠÐ½Ð°Ð¿Ð¸ÑģÐ°Ð»Ð¸": 5438,
      "ĠÐ¼Ð¸ÑĢÐµ": 5439,
      "ĠÑģÐ¿ÑĢÐ¾ÑģÐ¸ÑĤÑĮ": 5440,
      "ĠÐ¿Ð¾ÑģÑĤÑĢÐ¾Ð¸ÑĤÑĮ": 5441,
      "Įà¹Įà¹Įà¹Įà¹Įà¹Įà¹Įà¹Įà¹": 5442,
      "ðŁ¤¬ðŁ¤¬": 5443,
      "ÐĶÐ¾Ð±ÑĢÑĭÐ¹": 5444,
      "ĠÐ´ÐµÑģÑıÑĤ": 5445,
      "cl": 5446,
      "ter": 5447,
      "ÝĨ": 5448,
      "ÑıÐ½Ð¸": 5449,
      "Ð´ÑĳÐ¼": 5450,
      "ĠÐ·ÑĢ": 5451,
      "Ð¸ÑĤÑĢ": 5452,
      "Ð°ÑĤÑı": 5453,
      "ĠÐ°Ð¿": 5454,
      "ÐļÐ¡": 5455,
      "ĠÐ²ÑģÐµÐ»ÐµÐ½": 5456,
      "Ð¥Ð·": 5457,
      "ĠÑĪÑĤ": 5458,
      "ÑģÐºÐµ": 5459,
      "ÑĤÐ¸Ñı": 5460,
      "ĠÐºÐ¾Ð½ÐºÑĢÐµÑĤ": 5461,
      "ment": 5462,
      "Ð¡ÐºÐ¸Ð½ÑĮ": 5463,
      "ĠÑĤÐµÐ¼Ð¿ÐµÑĢ": 5464,
      "ĠÐ·Ð°Ð³ÑĢÑĥÐ·": 5465,
      "â¬ľâ¬ľ": 5466,
      "ðŁĺ³ðŁĺ³": 5467,
      "ĠÐ¿ÑĢÐ¾Ð¸Ð·Ð¾ÑĪÐ»Ð¾": 5468,
      "Ġ00": 5469,
      "ÑģÐºÐ°": 5470,
      "ĠÐ¿Ð¾Ð·Ð´ÑĢÐ°Ð²Ð»ÑıÑİ": 5471,
      "ĠÐ¾ÑģÑĤÐ°ÑĤ": 5472,
      "ĠÐ±ÑĢ": 5473,
      "Ð¸ÐºÐ¾Ð¹": 5474,
      "Ð¥ÐĴÐ¥": 5475,
      "ĠÐºÑĢÐ¸ÑĤ": 5476,
      "ĠÐ´Ð²Ð¸Ð¶": 5477,
      "ĠÐĹÐ°Ð¿": 5478,
      "ĠÐ¾Ð¿ÑĭÑĤ": 5479,
      "ĠÐ´Ð¾Ð±Ð°Ð²Ð¸Ð»": 5480,
      "Ð»Ð°ÑģÑĤÑĮ": 5481,
      "ĠÐ¾ÑģÐ½Ð¾Ð²Ðµ": 5482,
      "ĠÐ½Ð°ÑĩÐ¸Ð½Ð°ÐµÑĤÑģÑı": 5483,
      "Ð«ÐĴÐĲÐ¥": 5484,
      "ĠÐ²ÑĭÐ·Ð¾Ð²": 5485,
      "++++++++++++++++": 5486,
      "ĠÐ¶ÐµÐ½Ñī": 5487,
      "ĠÐ¿ÑĥÐ¿ÑģÐ¸Ðº": 5488,
      "ĠÑĢÐ°Ð±Ð¾Ñĩ": 5489,
      "ĠÑįÑĦÑĦÐµÐºÑĤÐ¸Ð²": 5490,
      "ĠÐ½Ð°ÑĥÑĪÐ½Ð¸ÐºÐ¸": 5491,
      "ĠÐºÐ¾Ð¼Ð¼ÐµÐ½ÑĤÐ°ÑĢ": 5492,
      "48": 5493,
      "68": 5494,
      ">>": 5495,
      "St": 5496,
      "ÑĤÐ¾Ð²": 5497,
      "Ð½Ð½": 5498,
      "ÐºÐ¾ÑĤ": 5499,
      "ÐºÐ¾Ð¼Ñĥ": 5500,
      "ĠÐ±ÑĢÐ¾Ñģ": 5501,
      "ĠÐ°Ð»ÑĮ": 5502,
      "ĠÑįÐ¼": 5503,
      "Ð°ÑĢÐµ": 5504,
      "ÐłÐ°Ñģ": 5505,
      "ĠÐ·Ð½Ð°ÐµÐ¼": 5506,
      "ĠÐ´ÐµÐ»Ð°Ð»Ð°": 5507,
      "ĠÐĺÐĹ": 5508,
      "ĠÐ·Ð°ÐºÐ¾Ð½": 5509,
      "ĠÐ¸Ð³ÑĢÐ°ÐµÑĪÑĮ": 5510,
      "ĠÐ¿ÑĢÐ¾ÑĪÑĥ": 5511,
      "ĠÐ·Ð°Ð¼ÐµÑĩ": 5512,
      "ĠÐ²Ð·Ð»Ð¾Ð¼": 5513,
      "ĠÐ¸Ð´ÐµÐ¸": 5514,
      "ĠÐ¿ÐµÑģÐ½Ñİ": 5515,
      "ĠÐ¿ÑĢÐµÐ´Ð¿Ð¾Ð»Ð¾Ð¶": 5516,
      "ÐĲÐŀÐĲÐŀ": 5517,
      "ĠÐ²ÐµÐ·Ð´Ðµ": 5518,
      "Ð¿ÑĢÐµÐ´ÑĥÐ¿ÑĢÐµÐ¶Ð´ÐµÐ½Ð¸Ðµ": 5519,
      "Ð¾Ð¼Ð°ÑĪÐºÐ°": 5520,
      ")--(": 5521,
      "07": 5522,
      "if": 5523,
      "oo": 5524,
      "ÑĢÐ¾Ð¿": 5525,
      "ÐµÑĤÑĥ": 5526,
      "Ð¾Ð´Ð¸": 5527,
      "ÐĶÐķÐĽ": 5528,
      "ÑĥÑĩÑĥ": 5529,
      "ÐŃÑĤÐ¾ÑĤ": 5530,
      "ÑĥÑĢÑģ": 5531,
      "ĠÐ¸ÑģÐ¿Ð¾Ð»ÑĮÐ·Ð¾Ð²": 5532,
      "ĠÑĦÐ¸Ð³Ð½Ñı": 5533,
      "ĠÑģÐ»ÑĥÑĪÐ°Ñİ": 5534,
      "ĠÐ´Ð¾Ð±ÑĢÑĭÐ¹": 5535,
      "ĠÑĥÐ¿ÑĢÐ¾ÑģÑĤ": 5536,
      "ĠÑĦÐ¾ÑĢÐ¼ÑĥÐ»Ñĥ": 5537,
      "ĠÐ³ÐµÐ¹Ð¼Ð¿Ð°ÑģÑģ": 5538,
      "Ð»Ð¸Ð¼Ð¿Ð¸": 5539,
      "ĠÐ¼Ð°Ð¹Ð½": 5540,
      "Ð¡ÑģÑĭÐ»ÐºÐ°": 5541,
      "ĠÐ¾Ð±Ð¾Ð·": 5542,
      "ĠÐŁÐ¾Ð¼": 5543,
      "ĠÐŁÑĢÐ¾": 5544,
      "ĠÑģÐ¿Ð¾ÑĢÑĤ": 5545,
      "ÐĵÐŃ": 5546,
      "ĠÐ¿Ð¾ÑĩÑĤÑĥ": 5547,
      "ĠÑĢÐ°Ð±Ð¾ÑĤÐ°": 5548,
      "ĠÐ²ÑģÐµÐ¼Ð¸": 5549,
      "ĠÑģÐ»ÐµÐ´ÑĥÐµÑĤ": 5550,
      "ĊĠĠĠĠĠĠĠĠĠĠĠĠ": 5551,
      "project": 5552,
      "ĠÑĪÐ°ÑĢÐ¸ÑĤ": 5553,
      "Ð°ÑħÐ°ÑħÐ°ÑħÐ°": 5554,
      "Ð°Ð¶Ð´Ñĭ": 5555,
      "ĠÐ½Ð¾Ð²ÐµÐ½ÑĮÐºÐ°Ñı": 5556,
      "Ð¾Ð¿ÑĢÐ¾Ð±ÑĥÐ¹": 5557,
      "ÑģÐ¾Ð»ÑİÑĤ": 5558,
      "ĠÐ°Ð¿Ð¿ÐµÑĤÐ¸ÑĤÐ°": 5559,
      "&=": 5560,
      "ax": 5561,
      "ÙĪ": 5562,
      "âĨ": 5563,
      "Ġâĺ": 5564,
      "Ð»ÐµÑĩ": 5565,
      "ÑıÐ¾": 5566,
      "ĠÐ¿Ð¸ÑĨ": 5567,
      "ĠÐ½Ð°Ð¼Ð¸": 5568,
      "Ð²Ñĥ": 5569,
      "ĠÐ´Ð°ÑģÑĤ": 5570,
      "ĠÑĩÑĥÐ²": 5571,
      "Ð½ÑĥÐ»Ð°": 5572,
      "Ð¾ÑĤÑĢÑĥÐ´": 5573,
      "ðŁ¤Ĺ": 5574,
      "ĠÐĺÑĢÐ¸Ñģ": 5575,
      "ĠÐ´ÑĢÑĥÐ³ÑĥÑİ": 5576,
      "ĠÐĳÑĥÐ´": 5577,
      "ÑĥÐ±Ð»Ð¸Ðº": 5578,
      "ĠÐ½Ð°ÑĪÑĳÐ»": 5579,
      "ÑıÐ·Ð°ÑĤÐµÐ»ÑĮÐ½Ð¾": 5580,
      "ĠÑģÑĤÐ°ÑĢÑĪÐµ": 5581,
      "âĺłï¸ıâĺłï¸ı": 5582,
      "ĠÑĤÑĢÐµÐ±ÑĥÐµÑĤÑģÑı": 5583,
      "ðŁįķðŁįķðŁįķðŁįķ": 5584,
      "ĠÐĲÐ½Ð³ÐµÐ»Ð¸Ð½Ð°": 5585,
      "ĠÑģÐµÑĢÑĮÐµÐ·": 5586,
      "ĠÐ²ÑĭÐ¹Ð³ÑĢÐ°Ð»": 5587,
      "ðŁŁ¨ðŁŁ¨": 5588,
      "ikita": 5589,
      "!)": 5590,
      "AM": 5591,
      "Øª": 5592,
      "ÑĢÐµÐ¹Ð¼": 5593,
      "Ð¼ÐµÐ½": 5594,
      "ĠÐºÑĥ": 5595,
      "ĠÐ±Ð»Ð¸Ð·": 5596,
      "Ð°ÑĤÑĥÑĢÐ°": 5597,
      "Ð¸Ð½Ð´": 5598,
      "Ð¸Ð½ÐºÐ¸": 5599,
      "Ð¸Ð²Ð°ÐµÑĤÑģÑı": 5600,
      "ÑĦÐµ": 5601,
      "ÐµÐºÐ²Ð°ÑĤ": 5602,
      "Ð¥ÐŁ": 5603,
      "Ġ==": 5604,
      "ath": 5605,
      "Ġ2023": 5606,
      "ĠÑĥÑĢÐ¾ÐºÐµ": 5607,
      "ĠÐ¿ÑĢÐ¾Ð´ÑĥÐº": 5608,
      "ĠÑıÐ·ÑĭÐºÐ¾Ð¼": 5609,
      "ĠÐ¾Ð¿ÑĢÐµÐ´ÐµÐ»Ð¸ÑĤÑĮ": 5610,
      "ĠÐ²ÑģÐ¿Ð¾Ð¼Ð½Ð¸Ð»": 5611,
      "ĠÐ²Ð¿ÐµÑĢÐ²ÑĭÐµ": 5612,
      "du": 5613,
      "Ð»Ð°Ð½": 5614,
      "ÑıÐº": 5615,
      "ÑıÐ¶": 5616,
      "Ð³Ð¾ÑĤÐ¾Ð²": 5617,
      "ðŁĺ´": 5618,
      "ÐĿÐ¯": 5619,
      "ĠÐ³ÑĢÐ°Ð¼": 5620,
      "ĠÐ¿Ð¾ÑģÑĤÑĥÐ¿": 5621,
      "ÐļÑĢ": 5622,
      "ÐļÐ»Ð°ÑģÑģ": 5623,
      "ĠÐºÐ°ÐºÐ¸Ð¼": 5624,
      "Ð¿ÑĢÐ¾ÑģÑĤ": 5625,
      "ĠÐ´Ð¾ÑģÑĤÐ°ÑĤÐ¾ÑĩÐ½Ð¾": 5626,
      "Ð°ÑĩÑĥ": 5627,
      "sta": 5628,
      "low": 5629,
      "ĠÐºÐ°Ð½Ð°Ð»Ðµ": 5630,
      "ĠÐ½Ð°ÐºÐ°Ð·": 5631,
      "ĠÐ·Ð°Ð½Ð¸Ð¼Ð°ÑİÑģÑĮ": 5632,
      "â£¿â£¿â£¿â£¿â£¿â£¿â£¿â£¿": 5633,
      "ÐķÐķÐķÐķÐķÐķÐķÐķ": 5634,
      "ĠÑĤÑıÐ¶": 5635,
      "ĠÑģÐ¼ÑĭÑģÐ»Ð°": 5636,
      "Ð¼Ð°ÑĤÑĢ": 5637,
      "ĠÐ®ÑĤÑĥÐ±": 5638,
      "à£©à£©à£©à£©": 5639,
      "ðŁĴĸðŁĴĸ": 5640,
      "ith": 5641,
      "ÑıÐ¹": 5642,
      "ĠÐ½Ð°Ð»": 5643,
      "Ð¼Ð¸ÑĤÐµ": 5644,
      "Ð²Ð¾Ð¹": 5645,
      "Ð¾Ð»Ð¾Ð²": 5646,
      "Ð±Ð°Ð½": 5647,
      "ĠÐ»Ð¾Ðº": 5648,
      "ÐĺÐ§": 5649,
      "ĠÐŁÐ¸ÑĤ": 5650,
      "ĠÑģÐ¼ÐµÑĢ": 5651,
      "ÐĹÐ°Ð±": 5652,
      "ĠÐľÐ¾Ð¶ÐµÑĤÐµ": 5653,
      "ĠÐ³Ð¾Ð²Ð¾ÑĢÐ¸ÑĤÑģÑı": 5654,
      "âģł)": 5655,
      "ĠÐºÐ¾ÑĤÐ¸Ðº": 5656,
      "ĠÐ¸Ð½ÑĦÐ¾ÑĢÐ¼Ð°ÑĨÐ¸Ð¸": 5657,
      "ĠÑĩÑĳÑĢ": 5658,
      "ĠÑģÐ¸Ð´Ð¸ÑĤ": 5659,
      "ĠÐ´ÑĢÑĥÐ·ÑĮÑıÐ¼Ð¸": 5660,
      "ĠÑĥÐ·Ð½Ð°Ð»": 5661,
      "Ð¡Ð»Ð¾Ð½Ð¸Ðº": 5662,
      "ĠÐ½Ð°Ð¶Ð¸Ð¼": 5663,
      "ĠÐºÐ¸Ð½ÑĥÑĤÑĮ": 5664,
      "omega": 5665,
      "*}": 5666,
      "sp": 5667,
      "ĠÐ½ÐµÐ¼Ñĥ": 5668,
      "ÑħÐ¾ÑĩÑĥ": 5669,
      "ĠÑĢÐ¾Ð²Ð½Ð¾": 5670,
      "ĠÐ³Ð°Ð»": 5671,
      "Ð¡Ð¢Ðŀ": 5672,
      "ĠÐĿÐ¾Ð²": 5673,
      "ĠÐ´ÑĢÑĥÐ³Ð¾Ð¼Ñĥ": 5674,
      "ĠÑĨÐµÐ»ÑĮ": 5675,
      "ĠÑģÐ²Ð¾Ñĳ": 5676,
      "ĠÑģÐ²Ð¾Ð¸Ð¼Ð¸": 5677,
      "ĠÐ»Ð¸ÑĨÐ°": 5678,
      "ĠÐ¾ÑĤÐ²ÐµÑĤÐ¸ÑĤÑĮ": 5679,
      "ĠÐ¿Ð»Ð¾ÑħÐ¾Ð¹": 5680,
      "ĠÑĢÐ¾Ð´Ð¸ÑĤÐµÐ»ÐµÐ¹": 5681,
      "ĠÑģÐ¾Ð³Ð»Ð°ÑģÐµÐ½": 5682,
      "ĠÑģÐµÐ¼ÑĮ": 5683,
      "ĠÐ¿ÑĢÐ¸ÑģÐ»Ð°ÑĤÑĮ": 5684,
      "ÝĨÝĨ": 5685,
      "ÑĤÑĭÐ¹": 5686,
      "ÑģÐµÐ³Ð¾Ð´Ð½Ñı": 5687,
      "ÑģÐºÐ¸Ñħ": 5688,
      "ĠÐ²Ð¾Ð¶Ð°ÑĤ": 5689,
      "ĠÐ¼Ð¸Ðº": 5690,
      "ÑħÐ¾ÑĤ": 5691,
      "ĠÐ´Ð½Ð¸": 5692,
      "Ð¾ÑĢÑĭ": 5693,
      "ĠÐ³Ñģ": 5694,
      "ĠÑħÑĥÐ¶Ðµ": 5695,
      "ĠÐ¡Ð°Ð¼": 5696,
      "ĠÐ¸Ð½ÐµÑĤ": 5697,
      "ĠÑĥÑĩÐ¸ÑĤÑĮÑģÑı": 5698,
      "ĠÐ¿Ð¾Ð»ÑĥÑĩÐ°ÐµÐ¼": 5699,
      "ĠÐĳÐ£ÐĶ": 5700,
      "ĠÐ¿ÐµÑĢÐ²Ð°Ñı": 5701,
      "ĠÐ·Ð½Ð°Ð»Ð¸": 5702,
      "alse": 5703,
      "Ð·Ð°Ð¸Ð¼": 5704,
      "ĠÐ¿Ð¾ÑģÐ¼Ð¾ÑĤÑĢÑİ": 5705,
      "ĠÐ¿ÑĢÐ¾Ð³ÑĢÐ°Ð¼Ð¼Ð°": 5706,
      "Ð¸Ð½ÑĮÐºÐ¾": 5707,
      "ÐĲÑĢÐ±ÑĥÐ·": 5708,
      "cal": 5709,
      "ser": 5710,
      "ĠX": 5711,
      "ÐµÑĤÑĩ": 5712,
      "Ð¿Ñģ": 5713,
      "Ð°Ð²ÐµÐ½": 5714,
      "Ð¾Ð½ÑĮ": 5715,
      "ĠÐ·Ð°ÑģÑĤÐ°Ð²": 5716,
      "ĠÐ¶ÐµÑģÑĤ": 5717,
      "ĠÐ½Ð¾ÑĥÑĤÐ±": 5718,
      "ĠÐ¼Ð¾Ñī": 5719,
      "ĠÐłÐĲÐĹ": 5720,
      "ĠÐ´Ð²ÑĥÐ¼": 5721,
      "Ð¼Ð¾ÑĤÑĢÑı": 5722,
      "ĠÐ¾Ð±ÑīÐµÐ¼": 5723,
      "ĠÐºÐ¾Ð¼Ð¿Ð°": 5724,
      "ĠÑģÑĤÑĢÐ¾Ð¸ÑĤÐµÐ»ÑĮ": 5725,
      "ĠÐ²Ð·ÑĢÐ¾Ñģ": 5726,
      "ĠÐ¿Ð¾Ð¿ÑĢÐ¾Ð±ÑĥÑİ": 5727,
      "ĠÐ¿Ð»Ð°ÑĤÑĦÐ¾ÑĢÐ¼": 5728,
      "ðŁ¥ºðŁ¥º": 5729,
      "ĠÐ¿ÑĢÐµÐ¾Ð±ÑĢÐ°Ð·": 5730,
      "Ð»ÑģÑı": 5731,
      "ĠÐ¿Ð¾Ð¶Ð°Ð»": 5732,
      "ĠÐºÑĢÑĭ": 5733,
      "ĠÐ¾ÑģÑĤÐ°Ð½Ð¾Ð²": 5734,
      "ĠÑħÐµÑĪ": 5735,
      "Ð¾ÑĩÐµÑĪÑĮ": 5736,
      "ĠÐ¾Ð±Ð¾Ð¶Ð°Ñİ": 5737,
      "ĠðŁĺĪ": 5738,
      "ĠÐ·Ð°Ð¿ÑıÑĤ": 5739,
      "ors": 5740,
      "ĠÐĹÐ°Ð´": 5741,
      "ĠÐ¿Ð»Ð°Ð½Ð¸": 5742,
      "ĠÐ´ÑĥÐ¼Ð°ÐµÑĪÑĮ": 5743,
      "ĠÐ²Ð¾Ð·Ð´Ñĥ": 5744,
      "ĠÐ¾Ð±ÑĬÐµÐ´Ð¸Ð½": 5745,
      "ĠÐ¿ÑĢÐ¾ÑĪÑĳÐ»": 5746,
      "ðŁ«¶": 5747,
      "ĠÐ¾Ð±Ð¼Ð°Ð½": 5748,
      "'s": 5749,
      "08": 5750,
      "¿âł": 5751,
      "Ð¿Ð¸ÑĪ": 5752,
      "ĠÐ¿ÑĢÐµÐ¿": 5753,
      "Ð¢Ð«": 5754,
      "ÐļÐ¾Ð¼": 5755,
      "ĠÑģÑĤÐ°Ð»Ð°": 5756,
      "list": 5757,
      "ĠÐ¿ÐµÑĢÐ²Ð¾Ð¼": 5758,
      "ĠÐ¼Ð¾Ð´ÐµÑĢÐ°": 5759,
      "Ð°Ð¹ÑĤÐµÑģÑĮ": 5760,
      "ĠÐ¿Ð¾ÑĪÐµÐ»": 5761,
      "ĠÐ¼Ð°ÑģÑģÐ¸Ð²Ð°": 5762,
      "ĠÐ¾ÑĤÐ½Ð¾ÑĪÐµÐ½Ð¸Ñı": 5763,
      "49": 5764,
      "mod": 5765,
      "ĠÐ¼Ð°Ð½": 5766,
      "Ð¿Ð¾ÐºÐ°": 5767,
      "ĠÑĥÑģÑĤÑĢÐ¾": 5768,
      "Ð¾ÑĢÐ²": 5769,
      "Ð°ÑĢÐ½": 5770,
      "Ð¸Ð²Ð°ÑİÑĤ": 5771,
      "ÐµÐ¹ÑĤ": 5772,
      "Ð¡Ð¾Ð³Ð»Ð°Ñģ": 5773,
      "ĠÑĦÐ¾Ð½": 5774,
      "ĠÐ¿ÐµÑĢÐµÑħÐ¾Ð¶Ñĥ": 5775,
      "âĶĪ": 5776,
      "Ð¾ÑĩÐ¸ÑĤÐ°Ð¹": 5777,
      "ĠÑģÑĤÑĢÐ°ÑĪÐ½Ð¾Ð³Ð¾": 5778,
      "ĠÐ·Ð°ÑĪÑĳÐ»": 5779,
      "ĠÐ·Ð°Ð´Ð°ÑĩÑĥ": 5780,
      "ðŁ¥³ðŁ¥³ðŁ¥³ðŁ¥³": 5781,
      "ĠÑĤÐ°Ð¹Ð¼ÐµÑĢ": 5782,
      "ĠÐ¿Ð¾ÑģÑĤÐ¾ÑıÐ½Ð½Ð¾": 5783,
      "!?": 5784,
      "05": 5785,
      "^\\": 5786,
      "Ã¤": 5787,
      "ÑĢÐµÑģÑģ": 5788,
      "Ð»Ð¾ÑģÑĮ": 5789,
      "Ð´ÐµÐ¼": 5790,
      "ÑħÐ°ÑĤÑĮ": 5791,
      "Ð¾Ð²Ð¾Ð´": 5792,
      "Ð½Ð°ÑĩÐ¸ÑĤ": 5793,
      "ĠÐ²ÑĭÐ²": 5794,
      "ÐľÐ¾Ð¶ÐµÑĪÑĮ": 5795,
      "ÑįÑħ": 5796,
      "ĠÐ¿ÐµÑĢÐµÐ½": 5797,
      "ĠÐ´ÑĢÑĥÐ³Ð¾Ð³Ð¾": 5798,
      "ĠÐ½Ð°ÑĩÐ°Ð»Ð¾": 5799,
      "ĠÐ·Ð°ÐºÐ°Ð½": 5800,
      "ĠÐ¿Ð»Ð°Ðº": 5801,
      "ĠÑĤÐ¾ÑĩÐºÑĥ": 5802,
      "ĠÐ±ÐµÐ·Ð¾Ð¿Ð°Ñģ": 5803,
      "ĠÐ¿ÑĢÐ¾ÑĪÐµÐ»": 5804,
      "ĠÐ±Ð°Ð±ÐºÐ¸": 5805,
      "ĠÐºÑĢÑĥÑĤÑĭÐµ": 5806,
      "Ð¾ÑģÑĤÑĮÑİ": 5807,
      "ĠÐĴÑĭÐ±ÐµÑĢÐ¸ÑĤÐµ": 5808,
      "ĠÐ¸ÑİÐ»Ñı": 5809,
      "pace": 5810,
      "ĠÐºÐ°ÑĢÑĤÐ¸Ð½ÐºÐ¸": 5811,
      "ĠÐ¿Ð¾Ð´ÑĢÑĥÐ³Ð°": 5812,
      "ĠÐĶÐ¶Ð¾": 5813,
      "ÐĽÐ¬ÐļÐŀ": 5814,
      "ĠÐ¿Ð»Ð°Ð½ÑĪÐµÑĤ": 5815,
      "áĥ": 5816,
      "ĠÑģÐ½Ð¾Ð²": 5817,
      "ÐµÐ½ÑĨÐ¸": 5818,
      "ðŁĺł": 5819,
      "ÑĥÑĤÑĥÑĤ": 5820,
      "Ð¸Ð´Ð¸": 5821,
      "Ð§Ð°ÑĤ": 5822,
      "ÐĽÐ¯": 5823,
      "ĠÐ½Ð¾Ð²Ð°Ñı": 5824,
      "ĠÐ·Ð°Ð´ÐµÑĢÐ¶": 5825,
      "ĠÐ¿Ð¾Ð¿Ð°Ð´": 5826,
      "ĠÑĢÐµÑĪÐ¸Ð»Ð°": 5827,
      "ĠÐ¿ÑĢÐ¾Ð³Ð¾Ð»Ð¾Ñģ": 5828,
      "ĠÐ¿ÑĢÐ¸ÑĪÐµÐ»": 5829,
      "ÐĹÐ´ÐµÑģÑĮ": 5830,
      "ĠÐ¿ÑĢÐ¾Ð²ÐµÑĢÐ¸ÑĤÑĮ": 5831,
      "ĠÐ¿Ð¾Ð´ÑĥÐ¼Ð°Ð»": 5832,
      "ÑĢÐµÐ¼Ñı": 5833,
      "ĠÑĢÐ¾Ð·ÑĭÐ³": 5834,
      "bo": 5835,
      "js": 5836,
      "Ð¸Ð¾Ð½": 5837,
      "ĠÐ±Ð°ÑĢ": 5838,
      "ĠÐ±ÑĥÐ»": 5839,
      "ĠÑĥÐ¹": 5840,
      "ĠÑĥÑħÐ¾Ð´": 5841,
      "Ð°Ð½ÐµÐµ": 5842,
      "ĠÐ³Ð°ÑĢ": 5843,
      "ĠÐ³Ð¸Ð¿": 5844,
      "ÐķÐĶ": 5845,
      "Ð£Ð¶": 5846,
      "ĠÐ¸Ð·Ð²Ð¸Ð½": 5847,
      "ĠÑĥÑĩÐ¸ÑĤ": 5848,
      "Ð¸ÑıÑħ": 5849,
      "ÐĸÐ´Ñĥ": 5850,
      "ĠÐ¾ÑģÑĤÐ°Ð»ÑĮÐ½ÑĭÐµ": 5851,
      "Ð£Ð£Ð£Ð£": 5852,
      "ĠÐ½ÐµÐ±Ð¾Ð»ÑĮÑĪ": 5853,
      "ĠÐ¾ÑĤÐ¼ÐµÑĩ": 5854,
      "ĠÑĢÐ¸ÑģÑĥÐ½Ð¾Ðº": 5855,
      "ĠÑĤÑĥÐ»Ð±Ð¾Ðº": 5856,
      "ĠY": 5857,
      "Ġpro": 5858,
      "ÑĤÑģÑı": 5859,
      "ĠÑģÑĩÐ°ÑģÑĤÑĮ": 5860,
      "ĠÑĤÐµÑĤ": 5861,
      "ĠÐ¼Ð¸": 5862,
      "ÐļÐĲÐļ": 5863,
      "ĠÐ¾ÑĤÐ¾Ð±ÑĢÐ°Ð¶": 5864,
      "ĠÑĦÐ°Ð¼Ð¸Ð»Ð¸": 5865,
      "ÐłÐ¾Ð±Ð»Ð¾ÐºÑģ": 5866,
      "ĠÐĴÑģÐµ": 5867,
      "ÑģÐºÐ¸Ð¼": 5868,
      "ÐĳÐ¾Ð¶Ðµ": 5869,
      "ĠÑĤÑĢÐ°Ð½": 5870,
      "ĠÐ¿ÑĢÐ¾ÑģÐ½ÑĥÐ»ÑģÑı": 5871,
      "ĠÑĤÐµÑħÐ½Ð¾Ð»Ð¾Ð³": 5872,
      "ĠÐ·Ð°Ð½ÑıÑĤÐ¸Ðµ": 5873,
      "Ð¸Ð½ÑĮÐºÐ¾ÑĦÑĦ": 5874,
      "::": 5875,
      "uru": 5876,
      "ĠÑģÐ¾ÑĤÑĢÑĥÐ´": 5877,
      "ĠÐ´Ð°ÑĢ": 5878,
      "ÐĲÑħÐ°Ñħ": 5879,
      "ĠÐ±Ð¾Ð±": 5880,
      "ĠÐ±Ð¾Ð¹": 5881,
      "Ð»Ð¸ÐºÑĤ": 5882,
      "Ð¸ÑĤÑĭ": 5883,
      "ÑĳÐ·Ð´": 5884,
      "ÐļÑģÑĤÐ°": 5885,
      "ÐĽÐ®": 5886,
      "ĠÐ¼ÑĭÑĪ": 5887,
      "ĠÐ¼Ð¾Ð¸Ð¼": 5888,
      "ĠÐłÐ¾Ð±Ð»Ð¾ÐºÑģ": 5889,
      "ell": 5890,
      "ÐŁÐ¥ÐŁ": 5891,
      "ĠÑĦÐ¾ÑĢÐ¼Ñĥ": 5892,
      "Ð¡Ð¢Ð¬": 5893,
      "dio": 5894,
      "ðŁĺ¡ðŁĺ¡ðŁĺ¡ðŁĺ¡": 5895,
      "ĠÐ¿Ð¾Ð´Ð°ÑĢÐ¾Ðº": 5896,
      "ĠÑĤÑĥÐ°Ð»": 5897,
      "ĠÑĢÐ°ÑģÑģÐºÐ°Ð·Ð°ÑĤÑĮ": 5898,
      "ðŁĻĦðŁĻĦðŁĻĦ": 5899,
      "ÐŁÐ¾Ð¼Ð¾Ð³Ð¸ÑĤÐµ": 5900,
      "Ð¾ÑģÐºÑĢÐµÑģÐµÐ½ÑĮÐµ": 5901,
      "59": 5902,
      "Ð½Ð¾Ð³": 5903,
      "Ð°ÐĲ": 5904,
      "ĠÐ½Ð°Ð³": 5905,
      "ĠÑģÐ¾Ð½": 5906,
      "ĠÑĩÐ¸ÑģÑĤ": 5907,
      "ĠÑĢÑĥÐ³": 5908,
      "ÑīÐ°Ñģ": 5909,
      "ÐķÐĹ": 5910,
      "ÐľÐ°ÑĢ": 5911,
      "ĠÑĪÐ¸ÑĢ": 5912,
      "ink": 5913,
      "ðŁĳĭ": 5914,
      "Ð½ÑİÑİ": 5915,
      "ĠÐºÐ½Ð¾Ð¿ÐºÑĥ": 5916,
      "ĠÐ²Ð¸Ð½Ð¾Ð²": 5917,
      "ĠÑģÐ²Ð°Ð´ÑĮÐ±Ð°": 5918,
      "der": 5919,
      "Ð»Ð°ÑĤ": 5920,
      "ÐµÐ½ÐµÑĢ": 5921,
      "ĠÐ»Ð°Ð±": 5922,
      "ĠÐ³Ð¸Ð³": 5923,
      "ÑįÐº": 5924,
      "ÑĥÐ±Ð»Ð¸": 5925,
      "eng": 5926,
      "ĠÐ´Ð°Ð²Ð°ÑĤÑĮ": 5927,
      "Ġnot": 5928,
      "ĠðŁ¤£": 5929,
      "ĠÑģÐ»ÐµÐ´ÑĥÑİÑīÐµÐ¹": 5930,
      "ÑĥÐ³Ð¾Ð»ÑĮÐ½Ð¸Ðº": 5931,
      "ÐķÐľÐ£": 5932,
      "ðŁ¤©ðŁ¤©": 5933,
      "________": 5934,
      "ĠÑħÐ°ÑĢÐ°ÐºÑĤÐµÑĢ": 5935,
      "ĠÑģÐ¸Ð³Ð¼Ð°": 5936,
      "=-": 5937,
      "io": 5938,
      "Ġu": 5939,
      "Ġroblox": 5940,
      "ÑıÑĩ": 5941,
      "ÐºÐ¸Ð½": 5942,
      "ĠÐ¸ÑĤÐµÑĢ": 5943,
      "ÑĪÐ½ÐµÐ³Ð¾": 5944,
      "ÑİÑİ": 5945,
      "Ð¾Ð»Ð°Ð´": 5946,
      "Ð¸ÑģÐº": 5947,
      "ĠÐ²ÑģÐµÐ¹": 5948,
      "ĠÐĿÐ°ÑģÑĤ": 5949,
      "Ð¸ÑĢÐ¸Ñģ": 5950,
      "ĠÐĲÐ»": 5951,
      "ðŁ¥Ħ": 5952,
      "anzhelika": 5953,
      "ÐļÐ°ÐºÐ¾Ðµ": 5954,
      "ĠÐ¾ÑĩÐµÑĢ": 5955,
      "ÑĥÑĪÐ°Ð¹": 5956,
      "Ð°ÑĨÐ¸Ð¾Ð½": 5957,
      "else": 5958,
      "ĠÐ¾ÐºÐ½Ð¾": 5959,
      "ĠÑĢÑĥÑģÑģÐºÐ¾Ð¼Ñĥ": 5960,
      "ĠÐ¾Ð±ÑĬÑıÑģÐ½Ð¸ÑĤÑĮ": 5961,
      "ðŁĲĪ": 5962,
      "áħłáħłáħłáħłáħłáħłáħłáħłáħłáħłáħłáħłáħłáħłáħłáħł": 5963,
      "ÐĿÐ¾ÑĢÐ¼Ð°Ð»ÑĮÐ½Ð¾": 5964,
      "ÐŀÐ¿ÑıÑĤÑĮ": 5965,
      "urur": 5966,
      "An": 5967,
      "ue": 5968,
      "ÒĪ": 5969,
      "ÑĤÐ¸Ð¼": 5970,
      "ÑĤÐ¾Ð³Ð´Ð°": 5971,
      "ÑĥÐºÐ°": 5972,
      "ÑħÐ·": 5973,
      "ĠÐ·ÑĥÐ±": 5974,
      "ĠÑĥÑĢ": 5975,
      "Ð¾Ð¶ÐµÐ½": 5976,
      "ÐłÐĲ": 5977,
      "ĠÑĪÐº": 5978,
      "Ð§ÐµÐ³Ð¾": 5979,
      "ÑĢÐ¸ÑĨ": 5980,
      "Ð²ÑģÑĳ": 5981,
      "ĠÑĤÐµÐ¼Ñĭ": 5982,
      "ĠÑģÐ´Ð°ÑĤÑĮ": 5983,
      "ĠÐºÐ½Ð¸Ð³Ñĥ": 5984,
      "ÐķÐĳÐ¯": 5985,
      "ĠÐ²Ð¾Ð·Ð²ÑĢÐ°ÑīÐ°ÐµÑĤ": 5986,
      "Ð´Ð°Ð²Ð°Ð¹": 5987,
      "Ð»Ð¾ÑħÐ¾": 5988,
      "ĠÐ°Ð´Ð¾Ð¿ÑĤ": 5989,
      "ðŁĳıðŁĳı": 5990,
      "'m": 5991,
      "(âģł": 5992,
      "ON": 5993,
      "ber": 5994,
      "Ùĩ": 5995,
      "Ġon": 5996,
      "ÐºÐ°Ð¿ÐµÑĨ": 5997,
      "ÑĪÐ¸Ñħ": 5998,
      "ĠÐ´ÑıÐ´Ñı": 5999,
      "Ð°Ð²Ð°Ð½Ð´Ð°": 6000,
      "ðŁĺĿ": 6001,
      "Ð°Ð¹Ðº": 6002,
      "Ð¸Ð²Ð¾": 6003,
      "ĠÑģÑĤÐ°Ð½Ð´": 6004,
      "ĠÐľÐ¡Ðļ": 6005,
      "ĠÐĶÐŀ": 6006,
      "ĠÐ½Ð¾Ð²Ð¾Ð¹": 6007,
      "ĠÐ¿ÑĢÐ¾Ð³ÑĢÐ°Ð¼Ð¼Ñĥ": 6008,
      "ĠÐ²ÑĭÐ¸Ð³ÑĢÐ°Ð»Ð°": 6009,
      "ĠÐºÐ¾Ð½ÐºÑĥÑĢÑģÐµ": 6010,
      "ĠÐ²ÑģÑĤÑĢÐµÑĤ": 6011,
      "ĠÐ´Ð¾Ð¿Ð¾Ð»Ð½": 6012,
      "ĠÐ³ÐµÐ¾Ð³ÑĢÐ°ÑĦ": 6013,
      ")$,": 6014,
      "ðĴ": 6015,
      "ÑıÑĢ": 6016,
      "ÑĩÐ°ÑĤ": 6017,
      "ÑİÑī": 6018,
      "ĠÐ±Ð¸Ð»": 6019,
      "ÐĿÐ¸": 6020,
      "ĠÐ³ÐµÐ½Ð¸": 6021,
      "ĠÑħÐ¾ÑĢ": 6022,
      "Ð£Ð´": 6023,
      "ÐĶÐ°Ð¹": 6024,
      "ÑĤÐ¾ÑĢÑĭ": 6025,
      "ĠÑģÐ»Ð°Ð´": 6026,
      "ĠÐ´ÐµÐ»Ð°Ð»Ð¸": 6027,
      "ĠÑģÐ¼Ð¾Ð¶ÐµÑĪÑĮ": 6028,
      "ĠÐ¿ÐµÑĢÐ²ÑĥÑİ": 6029,
      "Ð¸ÑĩÐµÑģÐºÐ¾Ð³Ð¾": 6030,
      "ĠÑģÐ´Ð°Ð²Ð°ÑĤÑĮ": 6031,
      "ĠÐ¸Ð³ÑĢÐ°Ð»Ð°": 6032,
      "ĠÑĢÐµÐ·ÑĥÐ»ÑĮÑĤÐ°ÑĤÐµ": 6033,
      "ĠÑĥÐ²ÐµÑĢÐµÐ½": 6034,
      "Ð½Ð¸ÑĨÐ¸Ð°Ð»Ð¸Ð·": 6035,
      "ĠÑģÐ¼Ð°Ð¹Ð»Ð¸Ðº": 6036,
      "ÑģÐºÐ¾Ðµ": 6037,
      "ÑĥÑı": 6038,
      "ĠÐ¿ÐµÑĩÐ°ÑĤ": 6039,
      "ĠÐ¾Ð»Ð¸Ð¼Ð¿Ð¸": 6040,
      "ÐĿÐ°Ð²ÐµÑĢÐ½Ð¾Ðµ": 6041,
      "ÑĳÐº": 6042,
      "ĠÐ¾Ð±ÑīÐµ": 6043,
      "ĠÐ¸Ð·Ð±": 6044,
      "ÐĳÐµÐ´": 6045,
      "ĠÐ·Ð°Ð±Ð¾Ð»": 6046,
      "ĠÑĥÐ´Ð°Ð»Ð¸ÑĤÑĮ": 6047,
      "Ð°ÑİÑīÐ¸Ðµ": 6048,
      "ÐŁÐ¾ÑģÐ»Ðµ": 6049,
      "ĠÐµÐ´Ð¸Ð½Ð¸ÑĨ": 6050,
      "ĠÐ¾Ð±ÑģÑĥÐ¶": 6051,
      "ĠÐ½ÐµÐ²Ð¾Ð·Ð¼Ð¾Ð¶Ð½Ð¾": 6052,
      "ĠÑģÐ²Ð¾Ð±Ð¾Ð´Ð½Ð¾": 6053,
      "ĠÐ¿Ð°ÑĨ": 6054,
      "ĠÐ²ÐµÐ»Ð¸Ðº": 6055,
      "ĠÐĿÐ°ÑĩÐ½Ð¸ÑĤÐµ": 6056,
      "ĠÐ°Ð²ÑĤÐ¾Ð¼Ð°ÑĤ": 6057,
      "ðŁĴŀðŁĴŀ": 6058,
      "\"?": 6059,
      "dp": 6060,
      "ĠðŁĻĦ": 6061,
      "ÐµÐ¾": 6062,
      "ĠÑģÑĭÐ»": 6063,
      "ðŁ©": 6064,
      "ÐĲÐ¹": 6065,
      "Ð¾Ð²ÑĭÑħ": 6066,
      "ĠÑĩÐµÐº": 6067,
      "ĠÐ°ÑħÐ°Ñħ": 6068,
      "ÐŁÐ¾Ð¹Ð´Ñĥ": 6069,
      "ÐļÑĢÑĥÑĤ": 6070,
      "Ð£Ð´Ð°ÑĩÐ¸": 6071,
      "ÑĭÐ²Ð°Ð»Ð°": 6072,
      "Ð°Ð³Ð°": 6073,
      "ÐĳÐŀ": 6074,
      "Ð½ÑĥÐ»Ð¸": 6075,
      "ÐĿÑĥÐ¶Ð½Ð¾": 6076,
      "Ð½Ð¸ÐºÑĥ": 6077,
      "ĠÐļÐ¾Ð³Ð´Ð°": 6078,
      "ðŁıĥ": 6079,
      "ĠÑģÐ¾Ð·Ð´Ð°Ð»": 6080,
      "ĠÐ¿Ð°ÑĢÐ¾Ð»ÑĮ": 6081,
      "ĠÑĢÐ°ÑģÑģÑĤÐ¾": 6082,
      "ĠÐ¼ÐµÐ´Ð¸": 6083,
      "ĠÐºÑĥÑĩÐ°": 6084,
      "ĠÑģÑĤÐ°Ð½Ð¾Ð²Ð¸ÑĤÑģÑı": 6085,
      "54": 6086,
      "Nikita": 6087,
      "ĠðŁĻĤ": 6088,
      "Ð»Ð°ÑģÑĮ": 6089,
      "ĠÐ¿Ð°Ð»ÑĮ": 6090,
      "ĠÐ²Ð¸ÑĢÑĥ": 6091,
      "ÐµÐ½ÑĤÐ¸": 6092,
      "Ð¿Ð°Ð´": 6093,
      "Ð¾ÑĢÐ¸": 6094,
      "ÑīÐ°": 6095,
      "Ð¸Ð²Ð°Ð»": 6096,
      "Ð´Ð°ÑİÑĤ": 6097,
      "ÐĶÑĥÐ¼Ð°Ñİ": 6098,
      "ÐŁÑĢÐ¸Ð¼ÐµÑĢ": 6099,
      "ĠÐĳÑĢÐ°Ðº": 6100,
      "ðŁıĨ": 6101,
      "Ð¸ÑĩÐµÑģÐºÐ¾Ðµ": 6102,
      "ĠÑĩÐµÐ»Ð¾Ð²ÐµÐºÑĥ": 6103,
      "ĠÑģÐ¾Ð±Ð°Ðº": 6104,
      "Ð¸ÑĢÑĥÐ¹ÑĤÐµ": 6105,
      "ĠÑĦÐ¸Ð·Ð¸ÐºÐµ": 6106,
      "ĠÐ¶ÐµÐ»Ð°Ñİ": 6107,
      "ĠÐ²ÐµÑģÐµÐ»Ð¾": 6108,
      "ĠÐ²ÑģÐ¿Ð¾Ð¼Ð½Ð¸Ð»Ð°": 6109,
      "ÐŀÐºÐµÐ¹": 6110,
      "ĠÐ¿ÑĢÐ¸ÐºÐ¾Ð»Ñĥ": 6111,
      "Ġ\\\\\\\\": 6112,
      "ĠÐ´Ð¾Ð¶Ð´ÑĮ": 6113,
      "ðŁŁ¦ðŁŁ¦": 6114,
      "150": 6115,
      "1000": 6116,
      "Ð°ÐĴ": 6117,
      "ÑĩÐµÑĢÐµÐ·": 6118,
      "ÐĲÐ°Ð°Ð°": 6119,
      "ĠÐ½Ð°ÑĦÐ¸Ð³": 6120,
      "Ð¾Ð½Ñĥ": 6121,
      "ÐµÐ¹Ðº": 6122,
      "Ð£Ð§": 6123,
      "ĠÐĴÐ¾": 6124,
      "ĠÐºÐ¾Ð¼Ð¸ÐºÑģ": 6125,
      "ĠÐ¼Ð°ÑĤÐµÑĢÐ¸": 6126,
      "Ġdon": 6127,
      "ĠÐ¿Ð¾Ð²Ð¾Ð´Ñĥ": 6128,
      "ĠÑĥÑģÐ¿ÐµÐ»Ð°": 6129,
      "ĠÑģÑĢÐµÐ´Ñĥ": 6130,
      "ĠÐ¿ÐµÑģÐ½Ð¸": 6131,
      "ðŁĺİðŁĺİðŁĺİðŁĺİ": 6132,
      "ĠÐ²ÑĭÑĪÐ»Ð°": 6133,
      "ĠÐ¼Ð¾Ð´ÐµÑĢÐ°ÑĤÐ¾ÑĢÑĭ": 6134,
      "ĠÑĥÑģÑĤÐ°Ð½Ð¾Ð²Ð¸ÑĤÑĮ": 6135,
      "ĠÐ¼ÐµÐ½ÐµÐµ": 6136,
      "ĠÐ©": 6137,
      "Ð½Ð°Ð·": 6138,
      "Ð¾ÑĤÐº": 6139,
      "Ð°ÑĤÐµÐ»Ð¸": 6140,
      "ĠÐ³Ð¾Ð½": 6141,
      "ÐĴÐ¾Ð·Ð¼Ð¾Ð¶Ð½Ð¾": 6142,
      "ĠÑģÑĤÐ¸Ñħ": 6143,
      "Ð¾ÑĩÑĤÐ¸": 6144,
      "ĠÐ¾Ð±Ð»Ð°ÑģÑĤÑĮ": 6145,
      "Ð°Ð¿Ð°": 6146,
      "ĠÐĴÑĭÑĩ": 6147,
      "arent": 6148,
      "Ð½ÑıÐ½Ñı": 6149,
      "ina": 6150,
      "ÐĵÐ¾Ð²Ð¾ÑĢ": 6151,
      "ÐĸÐ°Ð»ÑĮ": 6152,
      "ĠÑĥÐ¼ÐµÐµÑĤ": 6153,
      "Ð¾Ð¾Ð¾Ð¾Ð¾": 6154,
      "ĠÐ½Ð°ÑĪÐ¸": 6155,
      "Ġ90": 6156,
      "Ġbe": 6157,
      "ðŁİĹ": 6158,
      "ĠÐºÑĢÑĥÑĤÐ°Ñı": 6159,
      "ĠÐºÐ°Ð¿Ð¸Ð±Ð°ÑĢÐ°": 6160,
      "ĠÐ²ÐµÑĩÐµÑĢÐ°": 6161,
      "Ð³Ð¾ÑĢÐ¸ÑĤ": 6162,
      "ĠÑģÐµÑĢÐ²ÐµÑĢÐµ": 6163,
      "ĠÐ¸Ð·Ð²ÐµÑģÑĤ": 6164,
      "ĠÐ²Ð¾Ð»Ð¾ÑģÑĭ": 6165,
      "67": 6166,
      "Ġâĺºï¸ı": 6167,
      "ÑģÐ¸": 6168,
      "ĠÐ¿ÑĥÐ½": 6169,
      "ÑĩÐ°": 6170,
      "Ð¼ÑĥÑĤ": 6171,
      "ĠÐ´Ð°Ð¹ÑĤÐµ": 6172,
      "Ð°Ð»ÐºÐ¾": 6173,
      "ÑĦÑĤ": 6174,
      "ÑĥÑĩÐ¸ÑĤÑĮ": 6175,
      "ÑįÐ¼": 6176,
      "Ð°Ð°Ð°Ð°Ð°Ð°": 6177,
      "ĠÐ¿ÑĢÐ°Ð²Ð¾": 6178,
      "ĠÐ¸ÑģÐ¿Ð¾Ð»ÑĮÐ·Ð¾Ð²Ð°Ð½Ð¸Ñı": 6179,
      "Ð¡ÐºÐ¸Ð½ÑĮÑĤÐµ": 6180,
      "ÑĥÐ³Ð¾Ð»ÑĮÐ½Ð¸ÐºÐ°": 6181,
      "ĠÐ½ÐµÐ¿Ð¾Ð½": 6182,
      "ĠÐ¿ÑĢÐ¸Ð´ÑĥÐ¼Ð°Ð»": 6183,
      "ĠÐ¼Ð°ÑĢÐ°ÑĦÐ¾Ð½Ð°": 6184,
      "ĠÐ¿Ð°ÑģÑħÐ°Ð»": 6185,
      "ĠÐ¿ÐµÐ»ÑĮÐ¼ÐµÐ½Ð¸": 6186,
      "ðŁĴľðŁĴľ": 6187,
      "cu": 6188,
      "}.$": 6189,
      "ĠÐ²Ð¾ÑĢ": 6190,
      "Ð¾Ð»Ð¾Ð´": 6191,
      "ĠÑĢÐ¾ÑģÑĤ": 6192,
      "Ð¡Ð¬": 6193,
      "Ð¡ÑĤÑĢÐ¸Ð¼": 6194,
      "ĠÑģÑĤÐµÐ½Ð´": 6195,
      "Ð½Ð¸ÑĪÑĮ": 6196,
      "ÐĲÐ¥ÐĲÐ¥ÐĲ": 6197,
      "Ġ45": 6198,
      "ĠÐ¿ÑĢÐµÐ´ÑģÑĤÐ°Ð²Ð»ÑıÐµÑĤ": 6199,
      "ÐĸÐ¸Ð·Ð°": 6200,
      "ĠÐ¼Ð¸Ð½ÑĥÑģ": 6201,
      "Ð¸ÑĢÐ¾Ð²Ð°Ð»": 6202,
      "Ð¸ÑĢÐ¾Ð²Ð°Ð½Ð¸Ñı": 6203,
      "ĠÐŃÑĤÐ¾ÑĤ": 6204,
      "ÑħÑħÑħÑħ": 6205,
      "ĠÐ¾ÑĪÐ¸Ð±ÐºÐ°": 6206,
      "ĠÐºÐ¾Ð½ÑĦÐ»Ð¸ÐºÑĤ": 6207,
      "ĠÑģÐµÐºÑĥÐ½Ð´Ñĥ": 6208,
      "âĢįâĻĤ": 6209,
      "ĠÑĢÐµÐºÐ»Ð°Ð¼Ñĥ": 6210,
      "Ð¼ÑĭÑģÐ»Ðµ": 6211,
      "ĠÑģÐ¿ÐµÑĨÐ¸Ð°Ð»ÑĮÐ½Ð¾": 6212,
      "print": 6213,
      "ven": 6214,
      "ÑģÑĥ": 6215,
      "Ð°ÐĿ": 6216,
      "ĠÑģÐµÑĤ": 6217,
      "ĠÐ²Ð¿ÑĢ": 6218,
      "ĠÐ²ÐµÐºÑĤÐ¾ÑĢ": 6219,
      "ĠÑĤÑĤ": 6220,
      "ĠÐ¸ÑģÑĤ": 6221,
      "Ð°ÑĢÐ´": 6222,
      "Ð°Ð¹Ð´Ð¸": 6223,
      "ÑĢÑĥÐº": 6224,
      "ĠÐ¼ÐµÐ½ÑıÑĤÑĮ": 6225,
      "ĠÑħÐ¾Ð¶Ñĥ": 6226,
      "Ð°ÑħÐ°": 6227,
      "ĠÐºÐ¾Ð½Ñĩ": 6228,
      "ĠðŁĺī": 6229,
      "ÐµÑĤÑĮÑĤÐµ": 6230,
      "ork": 6231,
      "Ð»ÐµÐ½Ð¾": 6232,
      "âĿ¤ï¸ıâĢį": 6233,
      "ĠÐ·Ð°Ð¿Ð¸ÑģÐ°ÑĤÑĮ": 6234,
      "âłĢâłĢâłĢâłĢâłĢâłĢâłĢâłĢ": 6235,
      "()`": 6236,
      "Ð°Ð¿Ð¸ÑĪÐ¸ÑĤÐµ": 6237,
      "ÑĢÑĢÑĢÑĢ": 6238,
      "ĠÐ½Ð°ÑĢÐ¸ÑģÐ¾Ð²Ð°ÑĤÑĮ": 6239,
      "ĠÐ°Ð±ÑģÐ¾Ð»ÑİÑĤ": 6240,
      "âĽĶï¸ı": 6241,
      "577": 6242,
      "Ì¯": 6243,
      "Ð»ÑĮÑı": 6244,
      "ĠÐ²Ð»": 6245,
      "ĠÐ¼Ð°ÑģÑĤÐµÑĢ": 6246,
      "ĠÐ¸ÑīÑĥ": 6247,
      "ÑħÐ¿ÑħÐ¿Ñħ": 6248,
      "ĠÐ°Ð³": 6249,
      "ÐĿÐ°Ñģ": 6250,
      "ÐµÐ´Ð¾Ð¼": 6251,
      "Ð°Ð´ÑĨ": 6252,
      "ÐŁÐķÐł": 6253,
      "ÐŁÑĥÑģÑĤÑĮ": 6254,
      "ĠÑģÐ¿Ð»Ñİ": 6255,
      "ĠÐ¿Ð¾Ð´ÑħÐ¾Ð´Ð¸ÑĤ": 6256,
      "Ð½Ð¸ÐºÐµ": 6257,
      "ĠÐ²Ð¸Ð´ÐµÐ»Ð¸": 6258,
      "ĠÐ¿Ð¾Ð¿ÑĭÑĤ": 6259,
      "ĠÐºÐ°Ð¶Ð´ÑĥÑİ": 6260,
      "ĠÑģÐ»ÐµÐ´Ð¸ÑĤÐµ": 6261,
      "Ð¡ÐºÐ¾ÑĢ": 6262,
      "aaaa": 6263,
      "Ð°ÑİÑīÐ¸Ñħ": 6264,
      "ĠÐºÑĢÐ°ÑģÐ¸Ð²ÑĭÐ¹": 6265,
      "ĠÐ°ÑĢÐ³ÑĥÐ¼ÐµÐ½ÑĤÐ°": 6266,
      "ĠÐ¿Ð¾ÐºÑĥÐ¿Ð°ÑĤÑĮ": 6267,
      "ĠÐĲÐ»Ð¸ÐºÐ°": 6268,
      "Ð¼ÑĭÑģÐ»ÐµÐ½": 6269,
      "ĠÑħÐµÑĪÑĤÐµÐ³": 6270,
      "?...": 6271,
      "ud": 6272,
      "Ùģ": 6273,
      "Ùį": 6274,
      "ÑĥÐµÑĪÑĮ": 6275,
      "ĠÑģÑĭÐ³": 6276,
      "ĠÐ²ÐµÑĤ": 6277,
      "Ð¼Ð°ÑĢÑĥÑģÑı": 6278,
      "ĠÑĤÐ¸": 6279,
      "ĠÐ±Ð¸ÑĤ": 6280,
      "ĠÑĢÐ°Ð½Ð¾": 6281,
      "ÑīÐ¸Ðº": 6282,
      "Ð¸Ð¼Ð¾ÑģÑĤÑĮ": 6283,
      "ĠÐ¿Ð¾ÑıÑģ": 6284,
      "ĠÐ²ÑģÃ«": 6285,
      "ĠÐĿÐ°Ð¿ÑĢÐ¸Ð¼ÐµÑĢ": 6286,
      "ĠÐ¿Ð¾Ð´ÑģÐºÐ°Ð·": 6287,
      "Ð¸Ð¿ÑıÐ¾": 6288,
      "â£¶": 6289,
      "ĠÐ´Ð²Ð¾": 6290,
      "ĠÐºÐ»Ð°ÑģÑģÐ½Ð¾": 6291,
      "ÑĥÑĥÑĥ": 6292,
      "Ð¤ÑĢÐµÐ¹Ð¼": 6293,
      "ĠÐ¿Ð¾ÑģÐ¼Ð¾ÑĤÑĢÐµÐ»": 6294,
      "ĠÑģÑĤÐ°ÑĢÑĭÐ¹": 6295,
      "ĠÐ»ÑİÐ´ÑĮÐ¼Ð¸": 6296,
      "ĠÐ¿ÑĢÐ¸Ð·Ð½": 6297,
      "ĠÐ¿Ð¾ÑģÐ»ÐµÐ´Ð½Ð¸Ðµ": 6298,
      "ĠÐ¾ÑĢÐ¸Ð³": 6299,
      "ĠÑįÐ»ÐµÐ¼ÐµÐ½ÑĤÐ¾Ð²": 6300,
      "ĠÐ´Ð¾ÐºÐ°Ð·Ð°ÑĤÐµÐ»ÑĮ": 6301,
      "ĠÐ²ÑģÑĤÑĥÐ¿Ð¸ÑĤÑĮ": 6302,
      "ĠÑģÑĥÐ±Ð±Ð¾ÑĤÑĥ": 6303,
      "rl": 6304,
      "word": 6305,
      "ĠðŁĶ¥": 6306,
      "Ð¸ÐµÐ¹": 6307,
      "ĠÑģÐ³": 6308,
      "ĠÐ´ÐµÐ¼": 6309,
      "Ð¾Ð³Ð¾Ð½": 6310,
      "ĠÐ»Ð¸ÑģÑĤ": 6311,
      "ÐŀÐ¾": 6312,
      "ÐŀÑģ": 6313,
      "ĠÐ³Ð¸ÑĦ": 6314,
      "Ġ10000": 6315,
      "ĠÐ¡ÐķÐĳÐķ": 6316,
      "Ġ(-": 6317,
      "ÐĹÐ°Ðº": 6318,
      "row": 6319,
      "ĠÐ²Ð¸Ð´Ñĥ": 6320,
      "ĠÐ»ÑİÐ±Ð¸ÑĪÑĮ": 6321,
      "ĠÐ»ÑİÐ±Ð¾Ð²ÑĮ": 6322,
      "Ð°Ð½Ð´Ñĭ": 6323,
      "ĠÐĽÑİÐ±": 6324,
      "Ð»ÐµÐ½Ð°": 6325,
      "ĠÐ´Ð½ÐµÐ¼": 6326,
      "ðŁŁ§": 6327,
      "ĠÐ·Ð½Ð°ÑĩÐµÐ½Ð¸Ð¹": 6328,
      "ĠÐ¸Ð´ÐµÑĤ": 6329,
      "ĠÐ´Ð¾ÐºÑĥÐ¼ÐµÐ½ÑĤ": 6330,
      "ĠÐ¾Ð±ÑĬÑıÑģÐ½Ñı": 6331,
      "ĠÐ¿Ð¾Ð³Ð¾Ð²Ð¾ÑĢ": 6332,
      "ĠÐ¿Ð¾ÑģÑĤÐ°ÑĢ": 6333,
      "ÐŁÑĢÐ¸ÑıÑĤÐ½Ð¾Ð³Ð¾": 6334,
      "ðŁĻģðŁĻģ": 6335,
      "ĠÑĥÐ¿ÑĢÐ¾ÑģÑĤÐ¸ÑĤÑĮ": 6336,
      "70": 6337,
      "ave": 6338,
      "Ġ//": 6339,
      "ĠðŁĮ": 6340,
      "ÑĢÑĮ": 6341,
      "ĠÐ½ÑĳÐ¼": 6342,
      "ÑĪÐ¸Ðµ": 6343,
      "Ð¿Ð¾Ð¿": 6344,
      "ĠÐ±Ð»ÐµÐ½": 6345,
      "Ð°Ð½Ñĥ": 6346,
      "Ð°Ð²Ð¸Ð¶Ñĥ": 6347,
      "ðŁĺĢ": 6348,
      "ĠÐ¡Ðľ": 6349,
      "ĠÐ°Ð²ÑĤÐ¾ÑĢ": 6350,
      "ðŁı½": 6351,
      "ĠÑĤÐ¸Ð¿Ñĥ": 6352,
      "ĠÑģÐ¾Ð±Ñĭ": 6353,
      "ĠÐ´Ð°Ð½Ð½ÑĭÐ¹": 6354,
      "ĠÐ¿ÑĢÐ¾ÑĪÐ»Ð°": 6355,
      "ĠÑģÐºÐ¸Ð½ÑĮ": 6356,
      "ĠÐ»ÐµÐ³ÑĩÐµ": 6357,
      "----": 6358,
      "ĠÑĥÐ²Ð¸Ð´ÐµÑĤÑĮ": 6359,
      "ĠÑĢÐµÐ·ÑĥÐ»ÑĮÑĤÐ°ÑĤÑĭ": 6360,
      "ĠÐ¿ÐµÑģÐ½Ñı": 6361,
      "ĠÐ½ÐµÐºÐ¾ÑĤÐ¾ÑĢÑĭÑħ": 6362,
      "ĠEng": 6363,
      "ĠÑĤÑĥÐ¿Ð¾": 6364,
      "ðŁ¤£ðŁ¤£ðŁ¤£ðŁ¤£": 6365,
      "ĠÐ´Ð¸ÑģÐºÐ¾ÑĢ": 6366,
      "ĠHT": 6367,
      "ÐŁÑĢÐ¸ÐºÐ¾Ð»ÑĮÐ½Ð¾": 6368,
      "ĠÐ»Ð¸Ð¼Ð¸ÑĤ": 6369,
      "ĠÐ±ÑĭÑģÑĤÑĢÐµÐµ": 6370,
      "ðŁĴİðŁĴİ": 6371,
      "=\"": 6372,
      "Ch": 6373,
      "ext": 6374,
      "help": 6375,
      "ld": 6376,
      "lad": 6377,
      "ĠÐ²Ð»Ð°Ð´": 6378,
      "ĠÐ²Ð·Ð°Ð¸Ð¼": 6379,
      "ĠÑĤÐ¾Ð²Ð°ÑĢ": 6380,
      "ĠÐ¼ÐµÑĢÐµ": 6381,
      "ÑĪÐµÐ¹": 6382,
      "Ð±Ð»Ð¾Ðº": 6383,
      "Ð¸Ð½ÑĤ": 6384,
      "ÐŀÐĵÐŀ": 6385,
      "ÐŁÐ¾ÑĤÐ¾Ð¼": 6386,
      "ĠÐ¾ÑĤÑĢÐ¸ÑĨ": 6387,
      "ĠÐ·Ð°ÑĤÐ¾": 6388,
      "ĠÐŁÑĢÐ°Ð²": 6389,
      "ÐŃÐ¢Ðŀ": 6390,
      "ĠÐ¸Ð½Ð²": 6391,
      "ĠÐ¾ÑĤÐ¿ÑĢÐ°Ð²ÐºÑĥ": 6392,
      "ĠÐ²Ð°ÑĢÐ½Ñĭ": 6393,
      "Ġskysmart": 6394,
      "ĠÑĢÐµÐ°Ð»": 6395,
      "ĠÑĤÐ²Ð¾Ñİ": 6396,
      "ĠÑĢÑĥÑģÑģÐºÐ¾Ð¼": 6397,
      "Ð¸Ð¼Ð¾ÑģÑĤÐ¸": 6398,
      "ĠðŁĳĩ": 6399,
      "9999999999999999": 6400,
      "ĠÐ¾ÑĦÐ¸ÑĨÐ¸": 6401,
      "ÐµÑģÐ¿ÐµÑĩ": 6402,
      "ĠÑĥÐ»ÑĥÑĩÑĪ": 6403,
      "ĠÐ²Ð·ÑĢÐ¾ÑģÐ»": 6404,
      "ĠÐĹÐ°Ð´Ð°ÑĩÐ°": 6405,
      "ÙįÙį": 6406,
      "Ġlo": 6407,
      "ÑĢÐµÐ¼ÐµÐ½": 6408,
      "ÑĥÐµÐ¼": 6409,
      "Ð»ÐµÐ½Ð¸Ð¹": 6410,
      "Ð´ÑĢÑĥÐ³": 6411,
      "ĠÐºÐ°Ñĩ": 6412,
      "ĠÑĤÐº": 6413,
      "ĠÑĤÐ¾Ð½": 6414,
      "ÐµÑĢÐ¿": 6415,
      "ÐµÐ»Ð¾ÑģÑĮ": 6416,
      "ĠÑįÐ¼Ð¾": 6417,
      "ÐĿÐ°Ð¿Ð¸ÑĪÐ¸": 6418,
      "ÑĢÑĥÑĩ": 6419,
      "ÐŁÐ¸ÑĪ": 6420,
      "ĠÑĤÐ°ÐºÐ¾Ð¼": 6421,
      "Ð¥Ðŀ": 6422,
      "Ð°Ð¿Ð¸Ñģ": 6423,
      "ĠÐļÐ¾Ð½": 6424,
      "ĠÑģÐ°Ð¼Ð¾": 6425,
      "ĠÐĹÐ°": 6426,
      "ĠÑģÐ¾Ð·Ð´Ð°Ð½Ð¸Ðµ": 6427,
      "ĠÐ¿Ð¾Ð½Ð¸Ð¼Ð°ÐµÑĪÑĮ": 6428,
      "ĠÐ¶Ð¸Ð²ÑĳÑĪÑĮ": 6429,
      "ÐĲÐĽÐĺ": 6430,
      "Ð¸ÑĤÐµÐ»ÑıÐ¼": 6431,
      "ĠÑģÑĤÐ°ÑĢÑĭÐµ": 6432,
      "ĠÐ·Ð°ÑĢÑıÐ´": 6433,
      "ĠÑĥÑĩÐ°ÑģÑĤÐ½Ð¸ÐºÐ¸": 6434,
      "ĠÑģÑĤÑĢÐ¾ÐºÐµ": 6435,
      "ÐĲÑĢÑĤ": 6436,
      "ĠÐ¿ÑĢÐ¾ÑĩÐ¸ÑĤÐ°ÑĤÑĮ": 6437,
      "ĠÐ¿ÑĢÐ¸Ð³Ð»Ð°ÑĪ": 6438,
      "ĠÐ¿Ð¾ÑĤÑĢÐµÐ±": 6439,
      "ÐŁÑĢÐ°Ð²Ð´Ð°": 6440,
      "Ġare": 6441,
      "ĠÐ½Ð°Ð¹Ð´Ñĥ": 6442,
      "staff": 6443,
      "ĠÑĤÑĥÐ»Ð±Ð¾ÐºÑģÐ°": 6444,
      "ML": 6445,
      "fe": 6446,
      "īŃ": 6447,
      "ĠÑģÑĢ": 6448,
      "ĠÑģÐ¾Ð¼": 6449,
      "ĠÐ¼ÑıÑģ": 6450,
      "ÐµÐ½Ð½ÑĥÑİ": 6451,
      "ĠÐ·Ð¸Ð¼": 6452,
      "ÑĥÐ´Ð°Ð»": 6453,
      "ÐŁÐ¾Ðº": 6454,
      "ÐļÑĥÐ¿": 6455,
      "ÑĢÐ°ÑĥÐ·": 6456,
      "ÑĦÐ°": 6457,
      "ĠÐ¾Ð±Ð°": 6458,
      "ator": 6459,
      "ĠÐ½Ð¾Ð²Ð¾Ð³Ð¾Ð´": 6460,
      "ĠÐ¿ÑĢÐ¸Ð²ÐµÑĤÐ¸Ðº": 6461,
      "ĠÐ¸ÑģÐºÑĥÑģ": 6462,
      "ĠÐ¿Ð¾Ð¹ÑĤÐ¸": 6463,
      "ĠÐ¿ÑĢÐ¸Ð·Ð½Ð°Ðº": 6464,
      "Ð©Ðķ": 6465,
      "ĠÐ²ÑĭÐ¿Ð¾Ð»Ð½Ñı": 6466,
      "ĠÐ¼ÐµÑĤÐ¾Ð´Ð°": 6467,
      "ÑĢÐ°Ð¶Ð´Ð°Ð½": 6468,
      "Ð¦ÐµÐ»ÑĮ": 6469,
      "ĠJava": 6470,
      "ĠÑħÐ¾Ð»Ð¾Ð´": 6471,
      "ĠÑģÑĤÐµÐ¿ÐµÐ½Ð¸": 6472,
      "ĠÐ±Ð»Ð¾Ð³": 6473,
      "ĠÐ¿Ð¾Ð´Ð²Ð°Ð»Ðµ": 6474,
      "pl": 6475,
      "tan": 6476,
      "Ø¹": 6477,
      "ĠÐ¿ÐµÑĤ": 6478,
      "ÑĭÐ³ÑĢ": 6479,
      "ĠÐ½Ð¾Ð¶": 6480,
      "ĠÐ²Ð²Ð¾Ð´": 6481,
      "ĠÐ²Ð½ÑĥÑĤÑĢÐ¸": 6482,
      "ĠÐºÐ°Ñģ": 6483,
      "ĠÑĤÐµÐ¿": 6484,
      "Ð¿Ð¾ÑĤÐ¾Ð¼": 6485,
      "Ð¾Ð»ÑĳÑĤ": 6486,
      "Ð¾Ð±Ð±Ð¸": 6487,
      "Ð°ÑĢÑĭ": 6488,
      "Ð¡Ð¡": 6489,
      "Ð¿ÑĢÐ¸": 6490,
      "ÐĽÐ°Ð¹Ð±ÑĢÐ°Ð½": 6491,
      "ÑĪÐµÐµ": 6492,
      "ĠÐĲÐĿ": 6493,
      "ĠÐ¿Ð¾Ð»ÑĥÑĩÑĥ": 6494,
      "ĠÐ²ÐµÑĢÑİ": 6495,
      "ity": 6496,
      "ĠÐ¾Ð±ÑīÐ¸Ð¹": 6497,
      "our": 6498,
      "ĠÐ±Ð°Ð±ÐºÐ¾Ð¹": 6499,
      "ĠÐ¿Ð¾ÑĪÑĳÐ»": 6500,
      "ĠÑģÑĩÐ¸ÑĤÐ°ÐµÑĤÑģÑı": 6501,
      "ĠÐ»ÑİÐ±Ð¸Ð¼ÑĭÐµ": 6502,
      "ĠÐ¸ÑĢÐ¸ÑģÐ°": 6503,
      "ĠÑģÑĤÐ°Ð½ÐµÑĤ": 6504,
      "Ø§ÙĦ": 6505,
      "ĠÐ´Ð¾Ð²Ð¾Ð»ÑĮÐ½Ð¾": 6506,
      "ĠÐ¾Ð±ÐµÐ¸Ñħ": 6507,
      "kkkkkkkk": 6508,
      "ĠÐ´Ð¸Ð·Ð°Ð¹Ð½": 6509,
      "ĠÑĢÐ°Ð·Ð»Ð¸ÑĩÐ½ÑĭÑħ": 6510,
      "ĠÐ°Ð»ÐµÑħ": 6511,
      ")ðŁĴ¬": 6512,
      "tle": 6513,
      "ĠÐ¿Ñĥ": 6514,
      "ÑĭÑĢÐµ": 6515,
      "Ð²ÑĢÐ¾Ð´Ðµ": 6516,
      "ĠÐºÐ¸Ð½Ð¾": 6517,
      "ĠÐ»Ð¸ÑĪ": 6518,
      "Ð½Ð¸ÑĨ": 6519,
      "Ð¿ÑĢÐ¸Ðº": 6520,
      "ĠÐ¸Ð½Ð³": 6521,
      "ÐĵÐ£": 6522,
      "ĠÐĹÐĿ": 6523,
      "Ð½Ð°ÑĩÐµ": 6524,
      "ĠÑĥÑģÐ¿ÐµÐ²": 6525,
      "ÐĺÐ·Ð²Ð¸Ð½Ð¸ÑĤÐµ": 6526,
      "ĠÐ·Ð°Ð½ÑıÑĤÐ¸Ñı": 6527,
      "ĠÐ¾ÑĤÐ»Ð¸ÑĩÐ½Ð¾": 6528,
      "ĠÐ·Ð°Ð²Ð¸ÑģÐ¸ÑĤ": 6529,
      "ÐĲÐ½Ð³ÐµÐ»Ð¸Ð½Ð°": 6530,
      "Ì¯Ì¯": 6531,
      "ha": 6532,
      "Ġ....": 6533,
      "Ð½Ð¾Ðº": 6534,
      "Ð±ÐµÐ·": 6535,
      "Ð³Ð¾Ð²Ð¾ÑĢ": 6536,
      "ÐĴÐķÐ¢": 6537,
      "ÐµÐ¹Ð½": 6538,
      "Ð¡ÐŁ": 6539,
      "Ð§ÐķÐľÐ£": 6540,
      "ÑģÐ¿Ð¾Ð¼": 6541,
      "ĠðŁĺĶ": 6542,
      "ĠÐ¿Ð¾Ð»ÑĥÑĩÐ¸Ð¼": 6543,
      "remi": 6544,
      "count": 6545,
      "ĠÐ¿ÐµÑĢÐ²ÑĭÐ¼": 6546,
      "}{\\": 6547,
      "Ð¿Ð¾Ð»ÑĥÑĩ": 6548,
      "able": 6549,
      "comm": 6550,
      "Ð»Ð¸ÑĩÐ½Ð¾": 6551,
      "ĠðŁ¤Ķ": 6552,
      "Ð½Ð¸ÑĩÐµÐ³Ð¾": 6553,
      "ĠÐºÐ¾Ð½ÐºÑĥÑĢÑģÐ°Ñħ": 6554,
      "ĠÐ¾ÑĤÐ²ÐµÑĩÐ°ÐµÑĤ": 6555,
      "ĠÐĲÑĢÑĤ": 6556,
      "âĿ¤ï¸ıâĿ¤ï¸ıâĿ¤ï¸ıâĿ¤ï¸ı": 6557,
      "Ð²Ð°ÑĢÐ½": 6558,
      "Ð²Ð°ÑĢÑı": 6559,
      "ĠÑģÐ½ÐµÐ³": 6560,
      "ĠÐ¿Ð¾ÑĤÑĢÐ°ÑĤ": 6561,
      "ĠÐ¿ÑĢÐ¸ÑģÑĭÐ»Ð°ÑĤÑĮ": 6562,
      "ĠÐ¶Ð¸Ð²Ð¾ÑĤÐ½ÑĭÑħ": 6563,
      "ĠÑĢÐµÐ³Ð¸ÑģÑĤÑĢÐ°": 6564,
      "ĠÑģÐ¿Ð¾ÐºÐ¾Ð¹Ð½Ð¾": 6565,
      "ĠÐ¿ÑĢÐ¾Ð³ÑĢÐ°Ð¼Ð¼Ð¸ÑģÑĤ": 6566,
      "ĠÐ½ÐµÑĢÐ°Ð²ÐµÐ½": 6567,
      "'t": 6568,
      "ĠÐĻ": 6569,
      "ÑĤÐ¾Ð½": 6570,
      "ÑıÐ»Ð°": 6571,
      "ĠÐºÐ¸ÑĤÐ°Ð¹": 6572,
      "Ð¾Ð´Ð¶Ð¾": 6573,
      "ĠÐľÐ°Ð¹Ð½ÐºÑĢÐ°ÑĦÑĤ": 6574,
      "ĠÑĥÑĩÐµÐ½": 6575,
      "Ð°ÑĨÐ¸ÐµÐ¹": 6576,
      "ĠÐ¾ÑĤÐºÐ°Ð·": 6577,
      "ands": 6578,
      "ĠÑĩÐ¸ÑĤÐ°Ð»": 6579,
      "Â»,": 6580,
      "ÑģÐºÐ°Ð¶Ð¸": 6581,
      "ĠÐ¿Ð¾Ð¼Ð¾Ð³Ð°ÐµÑĤ": 6582,
      "ĠÐ·Ð°ÑħÐ¾Ð¶Ñĥ": 6583,
      "ĠÐ¾ÑĤÐ²ÐµÑĩÐ°ÑĤÑĮ": 6584,
      "ĠÐĲÑĢÐ·Ñĥ": 6585,
      "ĠÐ³ÑĢÐ°Ð½Ð¸": 6586,
      "ĠÑģÐ»ÑĭÑĪÐ°Ð»": 6587,
      "ĠÑģÐµÑĢÑĮÑĳÐ·": 6588,
      "ðĴīŃ": 6589,
      "Ar": 6590,
      "pre": 6591,
      "Ð½Ð°Ð»": 6592,
      "Ð»Ð°Ð±": 6593,
      "ĠÐ½ÐµÐ³": 6594,
      "ÐµÐ½Ðµ": 6595,
      "ĠÑģÑĤÐ°Ð»Ð¸": 6596,
      "ĠÑĦÐ°Ð¹": 6597,
      "ĠÐŁÐķÐł": 6598,
      "ĠÑĢÐ°Ð·Ñĥ": 6599,
      "Ġ->": 6600,
      "ĠÑģÐ¼Ð¾Ð¶ÐµÑĤ": 6601,
      "ror": 6602,
      "ĠÐ²Ð¸Ð´Ð¸ÑĪÑĮ": 6603,
      "ÐĲÐĲÐĲÐĲÐĲ": 6604,
      "Ð¼Ð¾ÑĤÑĢÐ¸ÑĤÐµ": 6605,
      "ĠÐ²ÐµÑĢÐ½ÑĥÐ»Ð°ÑģÑĮ": 6606,
      "ĠÑģÐ¾Ð±Ð¸ÑĢ": 6607,
      "ðŁŁ©": 6608,
      "ĠÐ½ÐµÐ¿ÑĢ": 6609,
      "ĠÐºÑĥÑĢÑģ": 6610,
      "ĠÐ´Ð¸Ð°Ð»Ð¾Ð³": 6611,
      "ĠÐ¿Ð¾ÑĢÑıÐ´ÐºÐµ": 6612,
      "ĠÐ¾Ð¶Ð¸Ð´": 6613,
      "ðŁ¥ĦðŁ¥Ħ": 6614,
      "ðĴīŃðĴīŃ": 6615,
      "ãģ": 6616,
      "ÑıÑİÑĤ": 6617,
      "ĠÐ¿Ð¸ÑĢ": 6618,
      "ĠÑģÑĥÐ´ÑĮ": 6619,
      "ĠÐ´Ð¸Ð²": 6620,
      "ĠÐ¾ÑģÑĤÑĢ": 6621,
      "Ð¾Ð²ÑĥÑİ": 6622,
      "Ð¸ÐºÐµÑĢÑĭ": 6623,
      "Ð¢Ð¾ÑĤ": 6624,
      "Ð´Ð°Ñı": 6625,
      "Ð´Ð°ÐµÑĤÑģÑı": 6626,
      "Ð¥Ð¼": 6627,
      "ÑģÑĤÐ²ÑĥÑİ": 6628,
      "ÑĭÐ²Ð°ÑİÑĤÑģÑı": 6629,
      "ĠÐļÐ°Ð·": 6630,
      "ĠÐ¿Ð¾Ð»ÑĥÑĩÐ°ÑĤÑĮ": 6631,
      "ĠÑĩÐµÐ»Ð¾Ð²ÐµÑĩ": 6632,
      "Ð»ÐµÐ½Ð½ÑĭÐ¹": 6633,
      "ÑĥÑģÑĤÑı": 6634,
      "Ð¸ÑĦÐ¸Ð³Ð°": 6635,
      "ĠÐ°Ð½Ð³ÐµÐ»": 6636,
      "ĠÑĥÐ·Ð½Ð°": 6637,
      "ĠÑĥÐ³Ð¾Ð´Ð½Ð¾": 6638,
      "ÑĦÐ¸Ð³ÐµÑĤÑĮ": 6639,
      "ĠÐ¸Ð´ÐµÑİ": 6640,
      "ÐĹÐ°ÑĤÐ¾": 6641,
      "Ð»ÐµÑĤÐ²Ð¾ÑĢ": 6642,
      "ĠðŁĳĭ": 6643,
      "ĠÐµÐ´Ð¸Ð½ÑģÑĤÐ²ÐµÐ½": 6644,
      "Ð¾Ð¾Ð¾Ð¾Ð¾Ð¾Ð¾Ð¾Ð¾Ð¾Ð¾Ð¾Ð¾Ð¾Ð¾Ð¾": 6645,
      "ĠÐ²ÐµÑĩÐµÑĢÐ¾Ð¼": 6646,
      "ĠÐºÐ¾Ð½ÑĤÐµÐ½ÑĤ": 6647,
      "ÐŁÐ¾ÑģÐ»ÐµÐ´Ð½Ð¸Ð¹": 6648,
      "Ð£Ð¶Ð°Ñģ": 6649,
      "remium": 6650,
      "43": 6651,
      "</": 6652,
      "bra": 6653,
      "ia": 6654,
      "ie": 6655,
      "ÑĤÐµÐ¿ÐµÑĢÑĮ": 6656,
      "Ð¼Ð¸ÑĤÑĢ": 6657,
      "ĠÐºÐ°Ð·": 6658,
      "ĠÐºÐ°Ð±": 6659,
      "ÐµÐ½Ð³": 6660,
      "ÐµÐ½ÑĤÐµ": 6661,
      "ÑĪÐ°Ñı": 6662,
      "ĠÑĥÐ³ÑĢ": 6663,
      "ÑīÑĥÑī": 6664,
      "ĠÐ»Ð¸ÑĤ": 6665,
      "ÑĳÑģÑĤ": 6666,
      "Ð¢Ð¾Ð¿": 6667,
      "ÑģÑĤÐ²Ð¸Ðµ": 6668,
      "ĠÐ¿ÐµÑĢÐµÐº": 6669,
      "Ġ36": 6670,
      "ĠðŁĺ¢": 6671,
      "ĠÑģÐ°Ð¼Ð¾Ð¹": 6672,
      "ÑĥÑĪÐºÑĥ": 6673,
      "ÑģÑĭÐ»ÐºÑĥ": 6674,
      "ĠÐ¿Ð¾Ð¿Ð°Ð»": 6675,
      "Ð¼Ð¾ÑĤÑĢÐµÑĤÑĮ": 6676,
      "ÑĢÐ°ÑĤÐ¸ÑĤÐµ": 6677,
      "Ð¿Ð¾Ð»Ð¾Ð¶": 6678,
      "Ð¸ÑĩÐµÑģÐºÐ¾Ð¹": 6679,
      "ĠÐŁÑĢÐ¸ÑĩÐ¸Ð½Ð°": 6680,
      "ĠÐ±ÐµÑģÑģ": 6681,
      "ĠÐ¿ÑĢÐ¾Ð³ÑĢÐ°Ð¼Ð¼Ñĭ": 6682,
      "ĠÐ·Ð°ÑĢÐ¿Ð»Ð°ÑĤ": 6683,
      "ĠÐºÐ¾Ð½ÐºÑĥÑĢÑģÑĭ": 6684,
      "ĠÑĥÐ³Ð¾Ð»": 6685,
      "ĠÐ²Ð¾Ð·Ð¼Ð¾Ð¶Ð½Ð¾ÑģÑĤÑĮ": 6686,
      "ĠÑĢÐµÐ°ÐºÑĨÐ¸Ñı": 6687,
      "ĠÐ¿ÑĢÐ¸Ð»Ð¾Ð¶ÐµÐ½Ð¸Ñı": 6688,
      "423": 6689,
      "}}": 6690,
      "ĠÐ½Ð½": 6691,
      "ĠÐ²ÑĤÐ¾ÑĢÐ°Ñı": 6692,
      "ĠÐºÐ¸ÑĢ": 6693,
      "Ð°Ð»ÐµÐµ": 6694,
      "ĠÐ±Ð°ÑĤ": 6695,
      "ĠÐ±ÐµÐ¹": 6696,
      "ĠÐ¿ÑĢÑĭÐ³": 6697,
      "ĠÑĢÐµÐ²": 6698,
      "ĠÐ½Ð°ÑģÑĤÑĥÐ¿": 6699,
      "Ð¾ÑĢÐ°Ð²Ð»Ð¸Ð²": 6700,
      "ÐļÐ¾": 6701,
      "ÐĳÐ°Ð±ÐºÐ°": 6702,
      "ÑģÐ¿Ð¾ÐºÐ¾Ð¹Ð½Ð¾Ð¹": 6703,
      "ĠÐ´Ð¾ÑĪ": 6704,
      "ĠÐ²Ð¸Ð´Ð¾Ñģ": 6705,
      "ĠÐ³Ð¾Ð²Ð¾ÑĢÐ¸": 6706,
      "reate": 6707,
      "ÐĸÐµÑģÑĤÑĮ": 6708,
      "lic": 6709,
      "ĠÑģÐ¾Ð±Ð°ÐºÐ°": 6710,
      "ÐĲÐĽÐ¬": 6711,
      "ĠÑĢÐ¸ÑģÑĥÑİ": 6712,
      "ĠÑĨÐµÐ»Ð¾Ð¼": 6713,
      "ĠðŁ¤¯": 6714,
      "ÐĲÐĴÐ¥": 6715,
      "ĠÐ¾ÑģÐ½Ð¾Ð²Ð½Ð¾Ð¼": 6716,
      "ĠÐ½Ð°Ð±Ð»ÑİÐ´": 6717,
      "ĠÐ°Ð»Ð³Ð¾ÑĢÐ¸ÑĤ": 6718,
      "ðŁĺįðŁĺįðŁĺį": 6719,
      "ÐĿÐ¸ÐºÑĤÐ¾": 6720,
      "ĠÐ´Ð°Ð»ÐµÐºÐ¾": 6721,
      "ĠÐ¿ÑĢÐµÐ´Ð»Ð°Ð³Ð°ÐµÑĤÑģÑı": 6722,
      "ĠÐ½Ð¸ÑĩÐ¾": 6723,
      "ĠÑĥÐ´Ð¾Ð²Ð»ÐµÑĤÐ²Ð¾ÑĢ": 6724,
      "Ð¾Ð¿Ð¸ÑģÐ°Ð½Ð¸Ðµ": 6725,
      "ight": 6726,
      "ĠÑĤÐ°Ð»": 6727,
      "ÐµÑĤÐ¸Ðº": 6728,
      "Ð¾Ð»Ñı": 6729,
      "ĠÑĢÐµÑĩÑĮ": 6730,
      "ĠÐ½Ð°Ð¸Ð¼": 6731,
      "Ð°ÑģÐºÐ¸": 6732,
      "ÐŀÐ¾Ð¾Ð¾": 6733,
      "Ð¸ÑģÐ»Ð¸ÑĤÐµ": 6734,
      "ĠÑħÐ»ÐµÐ±": 6735,
      "ÐĺÐ¨": 6736,
      "ĠÐ²ÑĭÐ´ÐµÐ»": 6737,
      "ĠÑĢÐ°Ð·Ð¾Ð±ÑĢ": 6738,
      "ĠÐĿÐĲÐ¡": 6739,
      "Ð°ÑĩÐ¸": 6740,
      "ĠÐ½Ð¸ÐºÐ¾Ð¼Ñĥ": 6741,
      "ĠÐłÐŀÐĳ": 6742,
      "ĠÐ¾Ð¿ÐµÑĢÐ°ÑĤÐ¾ÑĢ": 6743,
      "ĠÐ¿Ð°ÑĢÐµÐ½ÑĮ": 6744,
      "ĠÐ¾Ð±ÑīÐµÐ½Ð¸Ñı": 6745,
      "ĠÐ¿Ð¾ÑĢÐ°": 6746,
      "ĠÐ´ÐµÐ²ÑĥÑĪÐºÐ°": 6747,
      "ĠÐ²ÑĤÐ¾ÑĢÐ¾Ð³Ð¾": 6748,
      "ill": 6749,
      "ĠÐ²ÑĭÐ¿Ð¾Ð»Ð½ÑıÑĤÑĮ": 6750,
      "Ġ._.": 6751,
      "ĠÑĪÐ¾ÐºÐ¾Ð»Ð°Ð´": 6752,
      "^{-": 6753,
      "ÑĢÐµÐ¼ÐµÐ½Ð½Ð¾": 6754,
      "ĠÐ¼Ð¾Ð»ÑĩÐ°Ð½Ð¸Ñı": 6755,
      "ðŁĺĦðŁĺĦ": 6756,
      "ĠÐ´ÑĢÐ¾Ð±Ð¸": 6757,
      "ÑģÐ¾": 6758,
      "ÑĢÐ¸Ð¿": 6759,
      "ÐºÐ¸Ð¼Ð¸": 6760,
      "ÑĪÐºÑĥ": 6761,
      "ĠÑĥÐ½Ð¸Ðº": 6762,
      "ĠÐ³ÑĥÐ»Ñı": 6763,
      "ÐĴÐ°ÑĢÐ½": 6764,
      "Ð½ÐµÑĩ": 6765,
      "Ð¾Ð·Ð°": 6766,
      "ÐŃÑįÑį": 6767,
      "ĠÐ¢ÐķÐĳÐ¯": 6768,
      "ĠÐ½Ð°Ð´Ð°": 6769,
      "ðŁĳº": 6770,
      "ĠÐ¿Ð¾ÐºÐ°Ð¶Ñĥ": 6771,
      "ĠÐ´Ð¾Ð»Ð³": 6772,
      "Ð¸ÑĢÐ¾Ð²Ð°Ð½Ð¸Ðµ": 6773,
      "ĠÐ¾ÑĤÐ²ÐµÑĤÐ°": 6774,
      "ÑĥÐ½ÐºÑĨÐ¸Ñı": 6775,
      "ĠÑģÑĤÑĥÐ´Ð¸Ð¸": 6776,
      "ðŁĵĿ": 6777,
      "ĠÐ·Ð°Ð½Ð¸Ð¼Ð°ÑĤÑĮÑģÑı": 6778,
      "ĠÐ¼Ð¾ÑĢÐµ": 6779,
      "ĠÑģÐ»ÑĥÑĪÐ°ÑĤÑĮ": 6780,
      "ĠÑĨÐ²ÐµÑĤÐ°": 6781,
      "ĠÐ¾ÑĨÐµÐ½Ð¸ÑĤÑĮ": 6782,
      "ĠÐ¿ÑĢÐ¾Ð¿ÑĥÑģÑĤÐ¸Ð»Ð°": 6783,
      "ĠÐ¼ÐµÑĩÑĤÑĭ": 6784,
      "ĠÑĢÐµÐ±ÐµÐ½": 6785,
      "ĠÑģÐ¾ÑĩÐ¸Ð½": 6786,
      "ĠÐºÐ¾Ð½ÑĤÑĢÐ¾Ð»ÑĮ": 6787,
      "ĠÐ·Ð°ÐºÐ°Ð½ÑĩÐ¸Ð²": 6788,
      "Ġli": 6789,
      "ĠðŁĺŃðŁĺŃðŁĺŃðŁĺŃ": 6790,
      "ÑĤÐ¾Ð¿": 6791,
      "Ð½ÐµÑĤÐµ": 6792,
      "ĠÑģÐ¿ÑĢ": 6793,
      "Ð²Ð²": 6794,
      "ÑĪÐ½Ð¸Ð¹": 6795,
      "ĠÐ±ÑĢÐ°ÑĥÐ·": 6796,
      "ĠÐ¿ÑĢÐ¸ÑĢ": 6797,
      "Ð±Ð±": 6798,
      "Ð¸Ð¼Ðµ": 6799,
      "ÐĴÐ¾Ð¿ÑĢÐ¾Ñģ": 6800,
      "ÐļÐ¾ÑĤ": 6801,
      "ĠÑģÑĤÑĢÑĥÐºÑĤ": 6802,
      "ÐµÐºÑĥ": 6803,
      "ÐľÐ£": 6804,
      "Ð¾Ð¿ÑĭÑĤ": 6805,
      "ĠÑĪÐ°Ð½": 6806,
      "ĠÑĪÐ¸Ð¿": 6807,
      "ĠÐ¡Ðŀ": 6808,
      "ĠÐ¿Ð¾Ð»Ð½ÑĭÐ¹": 6809,
      "ĠÐ¿Ð¾Ð´Ñģ": 6810,
      "ĠÐľÐ¾Ð¶ÐµÑĤ": 6811,
      "Ġ32": 6812,
      "ĠÐ½Ð°Ð¿ÑĢÐ°Ð²": 6813,
      "ĠÐ¼ÑĭÑģÐ»Ð¸": 6814,
      "ĠÐ¿Ð¸ÑģÑĮ": 6815,
      "ĠÐ¾ÑĤÐ²ÐµÑĤÑĭ": 6816,
      "ÐĴÑĭÐ´Ð°Ð½Ð¾": 6817,
      "Ð¸ÑĤÐµÐ»ÐµÐ¼": 6818,
      "Ð°ÑĤÐµÐ»ÐµÐ¹": 6819,
      "ÐĲÐĶÐĲÐĶ": 6820,
      "ĠÐ·Ð°ÑħÐ²Ð°ÑĤ": 6821,
      "ĠÑģÐ¿ÑĢÐ¾ÑģÐ¸Ð»": 6822,
      "ĠÑĤÐ¾ÐºÑģ": 6823,
      "ĠÐ¾Ð±ÑĬÐµÐºÑĤÐ¾Ð²": 6824,
      "ĠÐ¿Ð¾Ð»ÑĮÐ·Ð¾Ð²Ð°ÑĤÐµÐ»ÐµÐ¹": 6825,
      "ĠÐ´Ð»Ð¸Ð½Ñĭ": 6826,
      "ĠÐ·Ð°ÑħÐ¾Ð´Ð¸Ð»": 6827,
      "ĠÐ¾Ð±Ð¸Ð´ÐµÐ»": 6828,
      "ĠÐ¼ÐµÑĢÐ¾Ð¿ÑĢÐ¸ÑıÑĤ": 6829,
      "ĠÑĨÐ¸ÐºÐ»Ð°": 6830,
      "ðŁ¤ĵðŁ¤ĵ": 6831,
      "ĠÑįÐ½ÐµÑĢÐ³": 6832,
      "ÑħÐ¾ÑĢÐ¾ÑĪÐ¾": 6833,
      "âĨĴ": 6834,
      "Ð¾Ð³Ð¾Ð½ÑĮÐ¼": 6835,
      ":âĸ«ï¸ı": 6836,
      "Me": 6837,
      "ST": 6838,
      "ele": 6839,
      "Ġup": 6840,
      "Ð½Ð°Ð¼": 6841,
      "ÑĩÐµÐ¹": 6842,
      "ÑĭÐ´Ð°Ð½Ð¾": 6843,
      "ÑĪÐ¾Ñĥ": 6844,
      "Ð±ÑĢÐ°Ðº": 6845,
      "Ð¸Ð²Ð°Ð¹": 6846,
      "ĠÐ¾Ð±ÐµÑģÐ¿ÐµÑĩ": 6847,
      "are": 6848,
      "ĠÐ¢Ð¾Ð³Ð´Ð°": 6849,
      "ĠÐºÐ¾Ð½ÐµÑĩ": 6850,
      "Ð«ÐĽ": 6851,
      "ĠÑĥÑĩÑĳ": 6852,
      "ere": 6853,
      "ĠÐ¾Ð±ÑĬÑıÐ²": 6854,
      "ĠÑģÑĤÑĢÐ¾Ð¸ÑĤÐµÐ»ÐµÐ¹": 6855,
      "ĠÐ·Ð°ÑĢÐ°Ð±Ð°ÑĤ": 6856,
      "ĠÑĤÐµÐºÑģÑĤÐ°": 6857,
      "ĠÐ½Ð°Ð¿Ð¸ÑĪÐ¸ÑĤÐµ": 6858,
      "Ð²Ð¾Ð¾Ð±ÑīÐµ": 6859,
      "ÐĺÐĽÐĺ": 6860,
      "ĠÐ¸Ð·Ð¼ÐµÐ½Ñı": 6861,
      "ðŁĺ±ðŁĺ±ðŁĺ±": 6862,
      "228": 6863,
      "ĠÐ¿ÑĢÐ°Ð²Ð¸Ð»ÑĮÐ½ÑĭÐ¹": 6864,
      "ĠÑĥÐ´Ð¾Ð±Ð½Ð¾": 6865,
      "ĠÑĤÐ°Ð±Ð»Ð¸ÑĨÑĭ": 6866,
      "ĠÐ¾ÐºÐ¾Ð½ÑĩÐµÐ½": 6867,
      "ĠÑģÐ¾ÐºÑĢÐ°Ñī": 6868,
      "ĠÑģÑĨÐµÐ½Ð°ÑĢ": 6869,
      "ĠÐ³ÑĢÑĥÑģÑĤÐ½Ð¾": 6870,
      "ĠEnglish": 6871,
      "Ð¾Ð³Ð¾Ð½ÑĮÐ¼Ð°ÑĢÐ°ÑĦÐ¾Ð½": 6872,
      "58": 6873,
      "og": 6874,
      "¹ï¸ı": 6875,
      "Ð»ÐµÑĢ": 6876,
      "ÑĮÑĮ": 6877,
      "ÑĭÐ´": 6878,
      "ĠÐ²Ð¸Ð·": 6879,
      "ĠÐ²ÑĤÐ¾ÑĢÑĥÑİ": 6880,
      "ĠÐºÑĢÐ°ÑĪ": 6881,
      "ÑħÐ¿Ñħ": 6882,
      "ĠÐ´Ð¾Ð½": 6883,
      "Ð¾Ð²Ð°ÑĢÐ¸": 6884,
      "Ð¾Ð½ÑĥÑģ": 6885,
      "ĠÐ°ÐºÑĤ": 6886,
      "ÐĿÐ°ÐºÐ¾Ð½ÐµÑĨ": 6887,
      "ĠÐ³Ð°Ð·": 6888,
      "ÐŁÐĹ": 6889,
      "ĠÐ¿ÑĢÐ¾ÐµÐºÑĤÑĭ": 6890,
      "ark": 6891,
      "arr": 6892,
      "ÐŃÑĤ": 6893,
      "ÐŃÐ¼": 6894,
      "ÑĭÐ²Ð¾Ð´": 6895,
      "ĠÐ¢Ð¾Ð»ÑĮÐºÐ¾": 6896,
      "ĠÐ¾Ð´Ð½Ð¸Ð¼": 6897,
      "ĠÐļÑĢÐ°Ñģ": 6898,
      "ĠÐ²ÑĢÐµÐ´": 6899,
      "ĠÐĶÐ¸Ð¼Ð°": 6900,
      "ĠÐ´ÑĢÑĥÐ³Ð°Ñı": 6901,
      "ĠÐ±ÐµÑģÐºÐ¾Ð½": 6902,
      "ĠÑĩÐµÑĤÑĭÑĢÐµ": 6903,
      "ĠÐµÐ´Ð¸Ð½Ð¸": 6904,
      "ĠÐ¿ÑıÑĤÐ½Ð¸ÑĨÑĥ": 6905,
      "ĠÐ½Ð°Ð¸Ð±Ð¾Ð»ÑĮÑĪ": 6906,
      "àº¶àº¶àº¶àº¶": 6907,
      "ĠÐ½Ð°Ð¿Ð¾Ð¼Ð¸Ð½": 6908,
      "ĠÐ³ÑĥÐ³Ð»": 6909,
      "In": 6910,
      "cy": 6911,
      "Ġ_": 6912,
      "Ð»ÑĥÐ±": 6913,
      "ÑıÐ³": 6914,
      "ĠÐ½Ð¸Ð¶": 6915,
      "ĠÐºÐ¸Ñģ": 6916,
      "ĠÑĤÑĥÑĢ": 6917,
      "ĠÑĥÐ¿Ð¾Ð¼": 6918,
      "Ð·Ð²": 6919,
      "Ð°Ð²Ð¸Ñģ": 6920,
      "Ð°ÑģÐ¸Ð±": 6921,
      "ĠÐ»Ñĳ": 6922,
      "Ð½Ð¸ÑĩÐµ": 6923,
      "ĠÑĪÐ¾": 6924,
      "ĠÐĴÐŀ": 6925,
      "ĠÐ¡Ð¾Ð½": 6926,
      "ĠÑģÐ¾ÑģÑĤÐ°Ð²Ð»ÑıÐµÑĤ": 6927,
      "ÑĭÐ²Ð°ÑĤÑĮÑģÑı": 6928,
      "ðŁĴĹ": 6929,
      "Ð°Ð³Ð¸": 6930,
      "ÐĵÐĶÐĲ": 6931,
      "ĠÐ¸Ð¼ÐµÐ»": 6932,
      "âĿķ": 6933,
      "ĠÑĥÐ±ÑĢÐ°ÑĤÑĮ": 6934,
      "ĠÐºÐ¾Ð½ÐºÑĥÑĢÑģÐ°": 6935,
      "ĠÐ³Ð¾Ð»Ð¾ÑģÐ¾Ð²Ð°Ð½Ð¸Ðµ": 6936,
      "Ġex": 6937,
      "ĠÐ¸ÑģÐ¿Ð¾Ð»ÑĮÐ·ÑĥÐµÐ¼": 6938,
      "ĠÑĢÐµÐ°ÐºÑĨÐ¸Ñİ": 6939,
      "ĠÐ¿ÑĢÐ¾Ð¸Ð·Ð²ÐµÐ´ÐµÐ½Ð¸Ñı": 6940,
      "Ð¸Ð¸Ð¸Ð¸Ð¸Ð¸Ð¸Ð¸": 6941,
      "ĠÐ·Ð°Ð±Ð°Ð½ÑıÑĤ": 6942,
      "âģ¬,": 6943,
      "ÐĳÑĥÐ´ÐµÑĤ": 6944,
      "ðĵĢ": 6945,
      "ÐĳÑĭÐ»Ð¾": 6946,
      "ĠÐ°Ð³ÑĢÐµÑģÑģ": 6947,
      "Ð¿ÑĢÐ¾ÑģÑĤÐ¸ÑĤÐµ": 6948,
      "32": 6949,
      "44": 6950,
      "Po": 6951,
      "],": 6952,
      "Ľâł": 6953,
      "ÐĲÐ»": 6954,
      "ĠÑĩÑĳÑĤ": 6955,
      "Ð¶Ñĥ": 6956,
      "ĠÐ°Ñģ": 6957,
      "ÐµÐ´ÐµÐ»ÑĮ": 6958,
      "ÐŁÐµÑĩÐ°ÑĤÐ°ÐµÑĤ": 6959,
      "ÐĺÐł": 6960,
      "ÐµÐºÑģÑĤ": 6961,
      "ÐĽÐĺÐĿ": 6962,
      "Ð¸Ð±Ð¸ÑĢ": 6963,
      "ĠÐºÑĢÑĩ": 6964,
      "ĠÐ½Ð°ÑĩÐ°Ð»ÑģÑı": 6965,
      "ĠÑĢÐ°Ð±Ð¾ÑĤÐ°Ñİ": 6966,
      "ĠÐ²ÐµÑĢÑħ": 6967,
      "Ð¸ÑģÑĤÐµÑĢ": 6968,
      "ĠÑĢÐ°ÑģÐº": 6969,
      "ĠÑħÐ¾ÑĢÐ¾ÑĪÐ¸Ðµ": 6970,
      "Ð»Ð°Ð²Ð½Ð¾Ðµ": 6971,
      "ĠÐ¼ÐµÐ¼Ñĭ": 6972,
      "ĠÐ½Ð°Ð¸Ð±Ð¾Ð»ÐµÐµ": 6973,
      "Join": 6974,
      "Ð¡ÐºÐ¾ÑĢÐµÐµ": 6975,
      "\":": 6976,
      "AR": 6977,
      "Premium": 6978,
      "import": 6979,
      "Ð°ÐŁ": 6980,
      "Ð´Ð¸ÑĤÐµ": 6981,
      "Ð¼Ð¾Ð³Ñĥ": 6982,
      "ĠÐ´Ð¸Ð½": 6983,
      "Ð¿Ð¾Ð²": 6984,
      "ĠÐ¿ÑĢÐ¾Ñĩ": 6985,
      "Ð°ÑĢÑı": 6986,
      "ÐĴÐ°Ð¼": 6987,
      "Ð¸Ð²Ð°ÐµÐ¼": 6988,
      "ĠÐ¾Ð±ÑīÐµÑģÑĤÐ²": 6989,
      "Ð°Ð¿Ð¸Ð±Ð°ÑĢÐ°": 6990,
      "Ð½Ð¸Ð·": 6991,
      "ÐµÐ²Ð¾": 6992,
      "ÐĳÐ»Ð¸": 6993,
      "ĠÑģÑĤÑĢÐ¾ÐºÐ°": 6994,
      "ĠÑĥÑĩÑĥÑģÑĮ": 6995,
      "ĠÐĺÐĿ": 6996,
      "ĠÐ°Ð½Ð°Ð»Ð¸Ð·": 6997,
      "ĠÑĢÐ°ÑģÑĪ": 6998,
      "ĠÐºÑĢÑĥÐ³": 6999,
      "ĠÐ·Ð½Ð°Ð½Ð¸Ñı": 7000,
      "ello": 7001,
      "ĠÐ¿Ð¾Ð½ÑıÐ»Ð¸": 7002,
      "ĠÐ³Ð»ÑĥÐ¿": 7003,
      "ĠÑĤÐ²Ð¾Ñĳ": 7004,
      "ĠÑĤÐ²Ð¾ÐµÐ³Ð¾": 7005,
      "ĠÐ´ÐµÐ²Ð¾ÑĩÐºÐ¸": 7006,
      "ĠÑįÑĦÐ¸ÑĢÑĭ": 7007,
      "ÑħÐ°ÑħÐ°ÑħÐ°ÑħÐ°Ñħ": 7008,
      "ĠÑģÐ¿Ð¸ÑģÐºÐµ": 7009,
      "Ð¸ÑĢÐ¾Ð²Ð°ÑĤÑĮÑģÑı": 7010,
      "ĠÑĥÑĢÐ°Ð²Ð½": 7011,
      "ÐŁÐ¾Ð½ÐŁÐ¾Ð½": 7012,
      "ĠÑĥÐºÐ°Ð·Ð°Ð½": 7013,
      "ĠÐ²ÑģÑıÐºÐ¸Ðµ": 7014,
      "ĠÑģÐµÐºÑĢÐµÑĤÐ½Ð¾Ðµ": 7015,
      "ĠÐ²Ð¾ÑģÐ¿": 7016,
      "size": 7017,
      "ĠÐ¸Ð¼ÐµÑİÑĤ": 7018,
      "ðŁ¤ĳðŁ¤ĳ": 7019,
      "JoinBot": 7020,
      "PremiumJoinBot": 7021,
      "Ð¾Ð²Ðµ": 7022,
      "Ð°Ð½Ð°Ð½": 7023,
      "ĠÐµÐ²": 7024,
      "ÐĺÐ´Ð¸": 7025,
      "ĠÐ²ÑĭÐ³": 7026,
      "Ð°ÐµÑĤÐµÑģÑĮ": 7027,
      "ÑįÐ´": 7028,
      "ĠÐ¿Ð¾Ð´ÑģÐºÐ°Ð¶Ð¸ÑĤÐµ": 7029,
      "ÑĢÐ¾ÑģÑĤ": 7030,
      "string": 7031,
      "Ð»ÐµÐºÐ°": 7032,
      "ĠÐ¸Ð³ÑĢÐ°ÑİÑĤ": 7033,
      "ĠÐ¾ÑĤÐ¿ÑĢÐ°Ð²Ð»Ñİ": 7034,
      "ĠÐ¾ÑĤÐ²ÐµÑĤÐ¸Ð»Ð°": 7035,
      "ĠÐ½ÐµÐ¹ÑĢÐ¾Ð½": 7036,
      "âĢįðŁĴ": 7037,
      "ĠÐ¿ÑĢÐ¸ÑĪÐ»Ñİ": 7038,
      "ĠÐ½Ð°Ð·Ð²Ð°ÑĤÑĮ": 7039,
      "ĠÑģÑĢÐµÐ´Ð¸": 7040,
      "ĠÐºÐ½Ð¸Ð¶": 7041,
      "ĠÐ·Ð°Ð³Ð°Ð´": 7042,
      "ĠÐ¾ÑĤÐºÑĢÑĭÑĤÑĮ": 7043,
      "Ð¥ÐĲÐĲÐ¥": 7044,
      "ĠÑĥÑģÐ»ÑĭÑĪ": 7045,
      "page": 7046,
      "\\[\\": 7047,
      "ĠÐ¾Ð±ÑĥÑĩÐµÐ½Ð¸Ñı": 7048,
      "Ð·Ð°Ð¿ÑĢÐµÑĤ": 7049,
      "ðŁ«łðŁ«łðŁ«łðŁ«łðŁ«łðŁ«łðŁ«łðŁ«ł": 7050,
      "ĠÐ·Ð°ÐºÐ»ÑİÑĩÐ°ÐµÑĤÑģÑı": 7051,
      "ÑİÐ·ÐµÑĢ": 7052,
      "ĠÐ¿ÐµÑĢÐµÐ¹ÑĤÐ¸": 7053,
      "ĠÐ²ÑģÐµÐ»ÐµÐ½Ð½Ð¾Ð¹": 7054,
      "(\\": 7055,
      "Ð¸ÐµÐ¼": 7056,
      "Ð»Ð´": 7057,
      "ÐºÑģ": 7058,
      "ĠÑģÐ°Ð´": 7059,
      "ĠÑĤÐ°ÑĢ": 7060,
      "ĠÐ¼Ð¾Ð±": 7061,
      "ĠÐ¾ÑīÑĥÑī": 7062,
      "ĠÑĩÐµÐ¼Ñĥ": 7063,
      "Ð·Ð°Ð²ÑĤÑĢÐ°": 7064,
      "ĠÑıÐ´ÐµÑĢ": 7065,
      "ĠÐµÑħÐ°ÑĤÑĮ": 7066,
      "ÐĿÐĺ": 7067,
      "ĠÐ³Ð¾Ñģ": 7068,
      "ÑĢÐ°Ñħ": 7069,
      "Ð¡Ð»Ð¸ÑĪÐºÐ¾Ð¼": 7070,
      "Ð£Ñĩ": 7071,
      "Ð£Ñħ": 7072,
      "ĠÐ¾Ð±ÑĮ": 7073,
      "ÐĶÐ°Ð½Ñı": 7074,
      "ĠÐľÐµÐ½Ñı": 7075,
      "input": 7076,
      "ĠÐºÐ¾ÑĤÐ¾ÑĢÑĭÐ¼": 7077,
      "Ð¸Ð¸Ð¸": 7078,
      "ÑģÑĤÐ¸Ð¶": 7079,
      "Ġ:/": 7080,
      "ĠÑģÐ¼Ð¾ÑĤÑĢÐ¸": 7081,
      "ĠÐ½Ð°Ð·ÑĭÐ²Ð°ÑĤÑĮ": 7082,
      "ĠÐ´Ð½ÐµÐ²": 7083,
      "ĠÐºÐ²Ð°Ñģ": 7084,
      "Ġthat": 7085,
      "ĠÑģÑĩÐ¸ÑĤÐ°ÑĤÑĮ": 7086,
      "ÐĲÐŃÐĲÐŃ": 7087,
      "ĠÐ¾ÑģÐºÐ¾ÑĢÐ±Ð»ÐµÐ½Ð¸Ðµ": 7088,
      "ĠÐ¼Ð°Ð¼Ñĭ": 7089,
      "Ð»ÑĭÐ±": 7090,
      "ĠÐ´Ð»Ð¸Ð½Ñĥ": 7091,
      "ĠÐ¿ÑĢÐ¸Ð³Ð¾ÑĤÐ¾Ð²": 7092,
      "Ġ&=": 7093,
      "ĠÑģÐ¾ÑģÐµÐ´": 7094,
      "ĠÐ·Ð°Ð¿ÑĢÐµÑĤÐ¸Ð»Ð¸": 7095,
      "ĠÐ¼Ð¾Ð·Ð³": 7096,
      "×Ļ×": 7097,
      "ĠÐ¿ÑĥÐ½ÐºÑĤ": 7098,
      "Ser": 7099,
      "ev": 7100,
      "flo": 7101,
      "ly": 7102,
      "Ø³": 7103,
      "ĠÐ¼Ð¸ÑĢÐ°": 7104,
      "ÐµÐ½Ð·": 7105,
      "Ð°Ð»ÐµÐºÑģ": 7106,
      "ĠÐµÑī": 7107,
      "ĠÐ»Ð¸Ñģ": 7108,
      "ĠÐ³ÑĢÐ¾Ð¼": 7109,
      "ÐĴÐĲ": 7110,
      "Ð¾Ð·Ð°Ð²": 7111,
      "ĠÐ¿ÑĢÐ¾ÑģÑĤÐ¸": 7112,
      "ÑįÐ½Ð´": 7113,
      "ĠÑĪÐ°Ð½Ñģ": 7114,
      "Ð»Ð°Ñı": 7115,
      "ĠÐĴÑģÐµÐ¼": 7116,
      "ĠÐ¿Ð¾Ð´Ð³Ð¾ÑĤÐ¾Ð²": 7117,
      "ÐĵÐ¾Ð»Ð¾Ñģ": 7118,
      "ance": 7119,
      "ĠÐ´ÑĢÑĥÐ³Ñĥ": 7120,
      "Ð¾Ð»ÑĮÐ·Ð¾Ð²Ð°ÑĤÐµÐ»ÑĮ": 7121,
      "rain": 7122,
      "ĠÐ§ÐĲÐ¢": 7123,
      "ĠÐ´Ð²ÐµÑĢÑĮ": 7124,
      "ðŁı¼": 7125,
      "ĠÐ°ÑĢÐ°Ð±": 7126,
      "ĠÑĥÐ¼ÐµÐ½ÑĮÑĪ": 7127,
      "âĸĶ": 7128,
      "ĠÐ½Ð°ÑĪÑĥ": 7129,
      "ĠÐ´ÐµÐ²Ð¸Ð·": 7130,
      "ĠÐ¿Ð¾ÑģÐ»ÐµÐ´Ð¾Ð²Ð°ÑĤÐµÐ»ÑĮ": 7131,
      "ÑħÐ°ÑħÐ°ÑħÐ°": 7132,
      "ĠÑĥÑĩÐ°ÑģÑĤÐ½Ð¸ÐºÐ¾Ð¼": 7133,
      "Ġthis": 7134,
      "ÑĦÐ¸Ð³Ð°": 7135,
      "ĠÐ²ÐºÑĥÑģÐ½Ð¾": 7136,
      "ĠÐ·Ð°ÑıÐ²ÐºÐ¸": 7137,
      "ĠÐĲÐ»Ð¸ÑģÐ°": 7138,
      "ðŁĺ¢ðŁĺ¢": 7139,
      "ÐĺÐĺÐĺÐĺÐĺÐĺÐĺÐĺ": 7140,
      "ĠÑģÑĥÑĤÐ¸": 7141,
      "ĠÑģÐ¾Ð±Ð¸ÑĢÐ°ÑİÑģÑĮ": 7142,
      "ĠÐ³ÑĢÐ°Ð´ÑĥÑģÐ¾Ð²": 7143,
      "ĠÑĥÐ¼ÐµÐµÑĪÑĮ": 7144,
      "ĠÐ´ÐµÐºÐ°Ð±": 7145,
      "ĠÐ½Ð¾ÑĥÑĤÐ±ÑĥÐº": 7146,
      "ai": 7147,
      "Ùĥ": 7148,
      "ÑĥÑĢÑĥ": 7149,
      "ÑĥÐºÐ¸": 7150,
      "ĠÐºÐ°": 7151,
      "ÑĪÑĤ": 7152,
      "ĠÑĩÑĥÐ²ÑģÑĤÐ²": 7153,
      "Ð±Ð¾Ð»": 7154,
      "ÑĢÐ°ÐµÑĪÑĮ": 7155,
      "ÑĦÑĥ": 7156,
      "ĠÑģÐºÐ°Ð¼": 7157,
      "ĠÑĦÐ¾ÑĢÑĤ": 7158,
      "ĠÑģÐ¾ÐµÐ´Ð¸Ð½": 7159,
      "ÐŁÑĢÐ¾Ð´": 7160,
      "ĠÐ³Ð¾Ð²Ð¾ÑĢÐ¸ÑĤÐµ": 7161,
      "ĠÐłÐµÑĪ": 7162,
      "ĠÑĨÐµÐ»Ð¸": 7163,
      "ĠÐ¸ÑģÐ¿ÑĥÐ³": 7164,
      "Ð»Ð¸Ð½Ð³": 7165,
      "ĠÐ¼Ð¾Ð´ÐµÑĢÑĭ": 7166,
      "ĠÐ°Ð´Ð¼": 7167,
      "Ð¸Ð½ÑĥÑĤÑĮ": 7168,
      "ðŁį¿": 7169,
      "ĠÐĿÐķÐ¢": 7170,
      "ĠÐ²ÑĤÐ¾ÑĢÐ¾Ð¼": 7171,
      "ĠÐ¿ÑĢÐ¸Ð²Ð¾Ð´": 7172,
      "ĠÐ¼Ð½Ð¾Ð¶Ðµ": 7173,
      "âĺłâĺł": 7174,
      "ĠÐ¾ÑĪÐ¸Ð±ÐºÐ¸": 7175,
      "ĠÐ·Ð°Ð¿ÑĢÐµÑīÐµÐ½Ð¾": 7176,
      "ĠÐ¼Ð½Ð¾Ð³Ð¸Ñħ": 7177,
      "Ð¢Ð¸Ð¿Ð°": 7178,
      "ĠÐ¼Ð¸Ð»Ð»Ð¸Ð¾Ð½": 7179,
      "ðŁĴĢðŁĴĢðŁĴĢðŁĴĢðŁĴĢðŁĴĢðŁĴĢðŁĴĢ": 7180,
      "ÐµÐ»ÑĳÐ½Ð°Ñı": 7181,
      "ĠÐ´Ð²ÑĥÐ¼Ñı": 7182,
      "from": 7183,
      "iv": 7184,
      "})": 7185,
      "âĪ": 7186,
      "Ġan": 7187,
      "ĠÐ¼Ð°ÑĢÐ¼": 7188,
      "ðŁķ": 7189,
      "ĠÑĩÑĥÐ´": 7190,
      "ÐµÐ½Ð¸Ð²": 7191,
      "ÐµÐ½Ð¸Ð»Ð¸": 7192,
      "ÐµÐ´Ð¶": 7193,
      "Ð¡Ð¾Ð·Ð´": 7194,
      "ĠÐ¾ÑĤÐ¿": 7195,
      "ĠÐ¾Ð±ÑīÐµÐµ": 7196,
      "Ġ250": 7197,
      "ĠÐĲÐ¥": 7198,
      "ðŁĴļ": 7199,
      "ĠÐļÐ¾ÑĢ": 7200,
      "ĠÐ¾Ð¿Ð°Ñģ": 7201,
      "ĠÑĤÐ¾ÑĩÐ½ÐµÐµ": 7202,
      "ĠÐ¿ÑĢÐ¸ÐºÐ»ÑİÑĩ": 7203,
      "ĠÐ½Ð¸Ð¶Ðµ": 7204,
      "ild": 7205,
      "ÑĢÐ¾Ð¼Ðµ": 7206,
      "Ð¡ÑĤÑĢÐ°Ð½": 7207,
      "ĠÑģÐµÑģÑĤÑĢÑĭ": 7208,
      "ĠÐ¿Ð¾Ð´ÑĥÐ¼Ð°Ð»Ð°": 7209,
      "ĠÐ¿Ð¾ÑģÑĤÑĢÐ¾Ð¹ÐºÑĥ": 7210,
      "ĠÑģÐ¾Ð´ÐµÑĢÐ¶Ð¸ÑĤ": 7211,
      "ĠÐ³Ð¾Ð»Ð¾Ð²Ñĥ": 7212,
      "ÑĢÐ¾ÑĪÐ°Ð¹": 7213,
      "ĠÑģÐºÑĢÐ¸Ð½ÑĪ": 7214,
      "ĠÐºÐ¸Ð½ÑĥÐ»": 7215,
      "âķĲâķĲ": 7216,
      "ĊĠĠĠĠĠĠĠĠĠĠĠĠĠĠĠ": 7217,
      "ĠÐ´Ð¾Ð¿Ð¾Ð»Ð½Ð¸ÑĤÐµÐ»ÑĮ": 7218,
      "ĠHTML": 7219,
      "bin": 7220,
      "}.\\]": 7221,
      "Ŀï¸ı": 7222,
      "ĠÐ´ÑĥÑħ": 7223,
      "ÐµÑĢÐ¾Ð¹": 7224,
      "ĠÐ·Ð¾Ð¼": 7225,
      "ĠÐ°Ð»Ð¸Ðº": 7226,
      "ÐĴÐ¡": 7227,
      "ÐĶÐµÐ½ÑĮ": 7228,
      "Ð¾Ð¿Ð¾Ð»": 7229,
      "Ð¸Ð±ÑĥÑĤ": 7230,
      "ÐĹÐ°Ð´": 7231,
      "ÐĵÑĢÑĥ": 7232,
      "ĠÐ¿Ð¾Ð»ÑĥÑĩÐ¸ÑĪÑĮ": 7233,
      "ĠÐĺÐĵ": 7234,
      "Ð°ÑĤÐµÐ»ÑĮÐ½ÑĭÐ¹": 7235,
      "ĠÐ¼Ð¸Ð½Ð¸": 7236,
      "Ġ:_": 7237,
      "ĠÐºÐ¾ÑĢÐ°Ð±": 7238,
      "chat": 7239,
      "Ġimport": 7240,
      "andom": 7241,
      "ĠÐ½ÐµÐ´Ð¾": 7242,
      "ĠÑģÐ°Ð¹ÑĤÐ¾Ð²": 7243,
      "ĠÐ¿Ð¾ÑıÐ²Ð¸Ð»ÑģÑı": 7244,
      "ĠÑĦÐ¸Ð·Ð¸ÐºÑĥ": 7245,
      "ĠÐ·Ð°Ð¿ÑĢÐµÑīÐµÐ½Ð°": 7246,
      "ĠÐ¼Ð°ÑĤÐµÐ¼Ð°ÑĤÐ¸ÐºÑĥ": 7247,
      "ĠÐ¿ÑĢÐ¾ÑĩÐ¸ÑĤÐ°Ð»": 7248,
      "ÐľÐ¾Ð¸": 7249,
      "ĠÑĨÐ¸ÑĦÑĢÐ°": 7250,
      "ĠÐ¿Ð¾Ð¼ÐµÐ½ÑıÑĤÑĮ": 7251,
      "ĠÐ½ÐµÐ·Ð½Ð°Ñİ": 7252,
      "ĠÐ»Ð¸Ð½ÐµÐ¹": 7253,
      "ðŁĺ¶âĢįðŁĮ«": 7254,
      "duct": 7255,
      "ĠÐ±ÐµÑģÑģÐ¼ÑĭÑģÐ»ÐµÐ½": 7256,
      "Ð¾ÑĢÐ°Ð²Ð»Ð¸Ð²Ð°Ð¹": 7257,
      "Pro": 7258,
      "_-": 7259,
      "ac": 7260,
      "act": 7261,
      "now": 7262,
      "ķ×": 7263,
      "ķï¸ı": 7264,
      "Ð°ÑĨ": 7265,
      "ÑĭÑĤÐ°": 7266,
      "Ð´Ð°Ð¹": 7267,
      "ĠÐºÑģÑĤ": 7268,
      "ĠÑĩÐ¸Ð¿": 7269,
      "ĠÑĢÐ¾": 7270,
      "Ð³Ð°Ð´": 7271,
      "Ð¸Ð»Ð¾Ñģ": 7272,
      "ÐĴÐķÐł": 7273,
      "ĠÐŁÐ¾Ð½": 7274,
      "ĠÐĿÐĲÐĶ": 7275,
      "ÐµÐ²ÐµÑĢ": 7276,
      "ĠÐ¿Ð¾Ð»Ð½Ð¾": 7277,
      "Ð»ÑİÑģÑĮ": 7278,
      "ĠÐ¾Ð´Ð½Ð°ÐºÐ¾": 7279,
      "ĠÑĤÑĢÐµÐ½Ð¸": 7280,
      "ĠÐ·Ð°Ð¿ÑĥÑģÑĤ": 7281,
      "ĠÐ·Ð°Ð¿ÑĥÑģÐºÐ°": 7282,
      "ĠÐ¾ÑĤÐ¿ÑĢÐ°Ð²Ð¸Ð»Ð°": 7283,
      "ĠÐ¾Ð¿ÑĤÐ¸Ð¼": 7284,
      "ĠÑģÐ¾Ð·Ð´Ð°Ð½Ð¸Ñİ": 7285,
      "ĠÐ¸ÑģÑĩ": 7286,
      "ĠÑĥÐ²ÐµÐ´Ð¾Ð¼": 7287,
      "Ġid": 7288,
      "ĠÐŁÑĢÐ¸Ð²": 7289,
      "ĠÑĨÐµÐ»ÑĭÐ¹": 7290,
      "ĠÐ¿Ð»Ð¾ÑħÐ¾Ðµ": 7291,
      "ĠÐ¿ÑĢÐ¸ÑģÐ¾ÐµÐ´Ð¸Ð½": 7292,
      "ÑĥÐ»ÑıÑĤÐ¾ÑĢ": 7293,
      "que": 7294,
      "ĠÑģÑĤÐ¸ÐºÐµÑĢÐ¾Ð²": 7295,
      "ĠÑĥÑĢÐ¾Ð²Ð½Ñı": 7296,
      "ĠÐ¿Ð¾Ð½ÑĢÐ°Ð²Ð¸ÑĤÑģÑı": 7297,
      "ĠÐ¿ÑĢÐµÐ´Ð»Ð¾Ð¶ÐµÐ½Ð¸Ñı": 7298,
      "ĠÑĢÐµÐ°ÐºÑĨÐ¸Ð¸": 7299,
      "ĠÐ¿ÑĢÐ¾Ð³ÑĢÐ°Ð¼Ð¼Ð¸ÑĢÐ¾Ð²Ð°Ð½Ð¸Ðµ": 7300,
      "vice": 7301,
      "ĠÐ°Ð»ÐµÐºÑģÐ°": 7302,
      "à£§à£§à£§à£§à£§à£§à£§à£§à£§à£§à£§à£§à£§à£§à£§à£§": 7303,
      "ðŁİĦðŁİĦ": 7304,
      "ĠÑįÐ»ÐµÐºÑĤÑĢÐ¾Ð½Ð½Ð¾Ð¹": 7305,
      "ĠÑĢÐ¾Ð·ÑĭÐ³ÑĢÑĭÑĪ": 7306,
      "76": 7307,
      "Dmit": 7308,
      "web": 7309,
      "ÑĤÐ²": 7310,
      "ÑıÐµÐ¼": 7311,
      "ÐµÐĴ": 7312,
      "ĠÑĤÐ¾Ð¹": 7313,
      "Ð¾Ð»Ñĩ": 7314,
      "ĠÑĥÐ»ÑĭÐ±": 7315,
      "ÐµÐ´ÐµÐ²": 7316,
      "ĠÐĿÐŀ": 7317,
      "ĠÐ¡ÐĴÐŀ": 7318,
      "Ð¾ÑĤÑĢÐµÐ±": 7319,
      "ĠÐŀÑģ": 7320,
      "ĠÐ´Ð¾ÑģÑĤÐ¸Ð¶": 7321,
      "ÑĤÑĭÑħ": 7322,
      "ĠÐ·Ð°Ð´Ð¾Ð½Ð°ÑĤ": 7323,
      "Ð°Ð½Ð´ÑĢ": 7324,
      "ĠÐĽÐ®": 7325,
      "ĠÑĢÐ¾Ð±ÑĥÐºÑģ": 7326,
      "ĠÐ¾Ð±ÑīÐ°ÑİÑģÑĮ": 7327,
      "ĠÑĩÐµÐ»Ð¾Ð²ÐµÐºÐ¾Ð¼": 7328,
      "ĠÐŁÑĢÐ¸Ð¼": 7329,
      "ĠÐ½ÐµÐ¼ÐµÑĨ": 7330,
      "ĠÑĢÐ°Ð´Ð°": 7331,
      "ĠÑıÐ·ÑĭÐºÐ°": 7332,
      "ĠÑĪÑĥÑĤÐºÑĥ": 7333,
      "ĠÑĢÐ°Ð·Ð±Ð¸ÑĢÐ°": 7334,
      "Ð¸Ð¼Ð¾ÑĦÐµÑı": 7335,
      "Ð¥ÐĲÐ¥ÐĲÐ¥ÐĲÐ¥ÐĲÐ¥ÐĲ": 7336,
      "ÑıÑİÑī": 7337,
      "ĠÑģÐ»Ð¾Ð½Ð¸ÐºÐ°": 7338,
      "ÑĬÑıÑģÐ½Ð¸ÑĤÐµ": 7339,
      "Ð¾Ð²Ð°ÑĢÐ¸Ñī": 7340,
      "ack": 7341,
      "warn": 7342,
      "ÑĢÐ¾Ð²Ð°ÑĤÑĮ": 7343,
      "ÑĩÑĤÐ¾Ð±Ñĭ": 7344,
      "ĠÑĤÑİ": 7345,
      "ÐµÐ½Ð½ÑĭÐ¼": 7346,
      "ÑĪÑĪ": 7347,
      "ÑĪÐµÐ³Ð¾": 7348,
      "Ð±ÐµÐ´": 7349,
      "ĠÐ½Ð°ÑĤ": 7350,
      "Ð°Ð²Ð°Ð¹": 7351,
      "Ð¾Ð±ÐµÐ´": 7352,
      "ĠÑħÐ²": 7353,
      "ĠÑħÐ¾Ð¼": 7354,
      "ĠÐ¶Ð°Ð½": 7355,
      "ÐºÑĥÐ¿": 7356,
      "Ð§Ð¢Ðŀ": 7357,
      "ĠÐ¿ÐµÑĢÐµÑĩ": 7358,
      "ĠÐ·Ð°Ð¿Ð¾Ð»Ð½": 7359,
      "ĠÐ·Ð°Ð´Ð°Ð»Ð¸": 7360,
      "ÐĸÐ°Ð»ÐºÐ¾": 7361,
      "ĠÐºÐ¾ÑĢÐ½ÐµÐ¹": 7362,
      "ĠÐ¿Ð¾Ð²ÐµÐ´": 7363,
      "?????": 7364,
      "ĠSQL": 7365,
      "ĠÐ²ÑĤÐ¾ÑĢÑĭÑħ": 7366,
      "ĠÐ¾ÑģÑĤÐ°Ð»ÑģÑı": 7367,
      "ĠÐ¼Ð½Ð¾Ð¶": 7368,
      "2022": 7369,
      "ĠÐ°Ð½Ð³Ð»Ð¸Ð¹ÑģÐºÐ¾Ð¼Ñĥ": 7370,
      "ĠÑĦÐ¸Ð·Ð¸ÐºÐ°": 7371,
      "ĠÐ´ÐµÐ¹ÑģÑĤÐ²Ð¸Ðµ": 7372,
      "ĠÐ¿ÑĭÑĤÐ°Ð»ÑģÑı": 7373,
      "ðŁĩ·": 7374,
      "ĠÐ¼Ð°Ð»ÐµÐ½ÑĮÐºÐ¸Ð¹": 7375,
      "Ð´Ð°Ð²Ð°Ð¹ÑĤÐµ": 7376,
      ",,,,": 7377,
      "ĠÑĤÑĢÑĥÐ´Ð½Ð¾": 7378,
      "ĠÐ¿Ð¾Ð·Ð½Ð°ÐºÐ¾Ð¼Ð¸ÑĤÑĮÑģÑı": 7379,
      "date": 7380,
      "ÑģÐ´ÐµÐ»": 7381,
      "ÑĢÐµÐ²": 7382,
      "Ð°Ðļ": 7383,
      "ĠÑģÑħ": 7384,
      "ĠÑģÐ°Ð»": 7385,
      "Ð°Ð»Ð¸Ðº": 7386,
      "ĠÑĢÐ¿": 7387,
      "ÐŁÐ¾Ð¿ÑĢÐ¾Ð±ÑĥÐ¹": 7388,
      "Ð¡Ð¼": 7389,
      "ÐĺÑģÐºÐ°Ð½Ð´ÐµÑĢ": 7390,
      "ĠÐ²ÑĭÐ»Ð¾Ð¶": 7391,
      "Ð¥ÐŁÐ¥ÐŁÐ¥": 7392,
      "Ð½Ð¾Ð²ÑĢÐµÐ¼ÐµÐ½Ð½Ð¾": 7393,
      "ĠÐŃÑĤÐ°": 7394,
      "ĠÐ´Ð²Ð¸Ð³": 7395,
      "ĠÐ°Ð´ÐµÐºÐ²Ð°ÑĤ": 7396,
      "ĠÐ¸ÑģÐ¿Ð¾Ð»ÑĮÐ·ÑĥÑİ": 7397,
      "ĠÐºÐ¾ÑĢÐµÐ½ÑĮ": 7398,
      "âĿ¤âĿ¤": 7399,
      "Ġ2022": 7400,
      "ÑģÑĤÐ°Ð½Ð°Ð²Ð»Ð¸Ð²": 7401,
      "ðŁĮ±": 7402,
      "ĠÐ²ÑĤÐ¾ÑĢÐ¾Ðµ": 7403,
      "ĠÐ½ÑĢÐ°Ð²ÑıÑĤÑģÑı": 7404,
      "ÐŁÐ¾ÑįÑĤÐ¾Ð¼Ñĥ": 7405,
      "mathrm": 7406,
      "ĠÐ¿Ð¾Ð±ÐµÐ´Ð¸ÑĤÐµÐ»ÐµÐ¹": 7407,
      "ĠÐ¸Ð·Ð¼ÐµÐ½Ð¸Ð»": 7408,
      "ÐŁÐ¾ÑģÐ¼Ð¾ÑĤÑĢÐ¸": 7409,
      "ĠÐ¼Ð°ÑĤÐµÐ¼Ð°ÑĤÐ¸ÐºÐµ": 7410,
      "ĠÑģÐ¸Ð¼Ð²Ð¾Ð»Ð¾Ð²": 7411,
      "ĠÐ¿Ð¾Ð·Ð²Ð¾Ð»ÑıÐµÑĤ": 7412,
      "ĠÐ½Ð°ÑģÑĤÐ¾Ð»ÑĮÐºÐ¾": 7413,
      "ĠÑĥÐ¿ÑĢÐ°Ð²Ð»ÐµÐ½Ð¸Ñı": 7414,
      "ÒĪÒĪ": 7415,
      "ĠÐĴÑĭÑĩÐ¸ÑģÐ»Ð¸ÑĤÐµ": 7416,
      "Dmitry": 7417,
      ".âĢĶ": 7418,
      "78": 7419,
      "xy": 7420,
      "Ġat": 7421,
      "ÑģÐ¾Ð¼": 7422,
      "ÑģÐµÐ¹ÑĩÐ°Ñģ": 7423,
      "ĠÐºÐ°Ð»": 7424,
      "Ð¿Ð¸Ñĩ": 7425,
      "ÐĿÐ°ÑĪ": 7426,
      "Ð¸Ð»Ñı": 7427,
      "Ð¸Ð²Ð°ÑĤÑĮÑģÑı": 7428,
      "ĠÐ²ÑĭÑģÐºÐ°Ð·": 7429,
      "ĠÑģÐºÐ»Ð°Ð´": 7430,
      "ÑıÑĤÐµÐ»ÑĮ": 7431,
      "ðŁĴį": 7432,
      "ÐĳÐ¾Ð»ÑĮÑĪÐµ": 7433,
      "ĠÐ¿ÑĢÐ°Ð²Ð¸Ð»Ð¾": 7434,
      "ĠÐ¸ÑģÐ¿Ð¾Ð»Ð½": 7435,
      "Ð¸ÑĢÐ¾Ð²Ð°Ð»Ð¸": 7436,
      "ĠÑħÐ¾ÑĢÐ¾ÑĪÐµÐ³Ð¾": 7437,
      "ÑĥÑħÐ°": 7438,
      "ÑĤÑĢÐ¸Ð±ÑĥÑĤ": 7439,
      "ĠSt": 7440,
      "ĠÐ¿Ð¾ÑģÐ»ÐµÐ´Ð½ÐµÐµ": 7441,
      "Ð¸ÑĢÑĥÐµÐ¼": 7442,
      "ĠÐ²ÑĭÐ¿Ð¾Ð»Ð½Ð¸ÑĤÑĮ": 7443,
      "ĠÐ¿Ð¾ÑĪÑĥÑĤ": 7444,
      "ðŁĴĢðŁĴĢðŁĴĢ": 7445,
      "ÐºÐ¾ÑĢÐ¾ÑĩÐµ": 7446,
      "ĠÐºÐ°ÑĤÐ°Ð»Ð¾Ð³": 7447,
      "ĠÑĥÑģÐ»Ð¾Ð²Ð¸Ñı": 7448,
      "ĠÑĤÑĢÐ°Ð½ÑģÐ»ÑıÑĨÐ¸Ð¸": 7449,
      "ÐĺÐ³ÑĢÐ°": 7450,
      ")/": 7451,
      "75": 7452,
      "Parent": 7453,
      "data": 7454,
      "sc": 7455,
      "top": 7456,
      "ÌĪ": 7457,
      "Ùĭ": 7458,
      "Ġ**": 7459,
      "ĠÐ²Ð¿ÐµÑĢ": 7460,
      "ĠÑĤÑĢÐ°Ð²": 7461,
      "ĠÐ¼ÐµÑħ": 7462,
      "ĠÐ´ÑĥÑĢ": 7463,
      "ðŁĺĮ": 7464,
      "ÐŀÑħ": 7465,
      "ÐĿÐ°ÑģÑĤ": 7466,
      "ĠÐ¿Ð¾ÐµÑħ": 7467,
      "ÐļÐ¢Ðŀ": 7468,
      "ÐĺÐĴ": 7469,
      "Ð§ÐµÐ¼": 7470,
      "ĠÐ¿ÐµÑĢÐµÑĢ": 7471,
      "ĠÐ¿ÐµÑĢÐµÐ·": 7472,
      "ÐµÑĩÐºÐ¾": 7473,
      "ĠÑĤÑĢÐµÑħ": 7474,
      "ĠÐºÑĢÐ°Ð¹": 7475,
      "ĠÐłÐķ": 7476,
      "ĠÐ°Ð²ÑĤÐ¾Ð±": 7477,
      "ĠÐ¿Ð°ÑĢÐºÑĥÑĢ": 7478,
      "Ġsh": 7479,
      "ĠÐ¿ÑĢÐ¾Ð²ÐµÑģÑĤÐ¸": 7480,
      "ĠÐ²ÑĭÐ±ÐµÑĢ": 7481,
      "ĠÐ°Ð½Ð³Ð»": 7482,
      "ĠÐ°Ð½Ð³ÐµÐ»Ð¸Ð½Ð°": 7483,
      "ĠÐ¿ÑĢÐ¸ÑĪÑĳÐ»": 7484,
      "ĠÐ²Ð·Ð¾ÑĢÐ²": 7485,
      "Ð°ÑĤÐµÐ»Ñı": 7486,
      "ĠÐ²ÑĭÐ¿Ð¾Ð»Ð½ÐµÐ½Ð¸Ñı": 7487,
      "Ð¼Ð¼Ð¼": 7488,
      "ĠÐ³Ð¾Ð»Ð¾ÑģÐ¾Ð²": 7489,
      "ĠÐ¾Ð´Ð½Ð¾Ð¼Ñĥ": 7490,
      "ĠÐ¿ÑĢÐ¸ÑĩÐµÐ¼": 7491,
      "user": 7492,
      "ĠÐ¼Ð°ÑĪÐ¸Ð½": 7493,
      "ĠÑģÐ¼Ð¾Ð³Ð»Ð°": 7494,
      "âķ²âķ±": 7495,
      "ĠÐ·Ð½Ð°Ð¼ÐµÐ½Ð°ÑĤÐµÐ»ÑĮ": 7496,
      "ĠÑĩÐ°ÑīÐµ": 7497,
      "ðŁŁ§ðŁŁ§": 7498,
      "ÐµÐ´ÐµÐ»ÑĮÐ½Ð¸Ðº": 7499,
      ")\\": 7500,
      "BC": 7501,
      "Se": 7502,
      "bi": 7503,
      "ist": 7504,
      "Ø©": 7505,
      "ĊĊ": 7506,
      "Ġ???": 7507,
      "ÐµÑīÑĳ": 7508,
      "ĠÑĩÑĥÐ¶": 7509,
      "ĠÐ¿ÑĢÐ¸Ðµ": 7510,
      "ÐµÐ»Ð»ÐµÐº": 7511,
      "ĠÑıÐ½": 7512,
      "ÐļÐ¾Ð³Ð¾": 7513,
      "ÐµÐ³Ð¾ÑĢ": 7514,
      "Ð£Ðĸ": 7515,
      "ÐĽÐķ": 7516,
      "ard": 7517,
      "ĠÑģÐ²ÐµÑĤÐ°": 7518,
      "ĠÑģÐ°Ð¼ÑĭÑħ": 7519,
      "ĠÑĤÑĢÐµÑĤ": 7520,
      "ĠÐ´Ð°ÑĳÑĤ": 7521,
      "ÑģÑĭÐ»ÐºÐ¸": 7522,
      "ĠÐ²ÑĢÐµÐ¼ÐµÐ½ÐµÐ¼": 7523,
      "ĠÐ²Ð¾Ð·Ð½Ð¸Ðº": 7524,
      "ĠÐ·Ð°Ð²Ð¸Ð´": 7525,
      "Ð¡ÐºÐ°Ð¶Ð¸": 7526,
      "ĠÐ³Ð¾Ð»Ð¾Ð²Ð°": 7527,
      "ĠÐ¶Ð¸Ð·Ð½": 7528,
      "ÐŀÑĤÐºÑĥÐ´Ð°": 7529,
      "ĠÐ·Ð²ÐµÐ·Ð´": 7530,
      "Ð£ÑĢÐ°Ð°Ð°": 7531,
      "ĠÑģÐ´Ð¾Ñħ": 7532,
      "ĠÐ»ÑĥÑĩÑĪÐ°Ñı": 7533,
      "ĠÐ±ÑĢÐ°ÑĤÐ°": 7534,
      "ĠÐĸÐķ": 7535,
      "ĠÐ¿Ð¾Ð¿ÑĢÐ¾Ð±ÑĥÐ¹": 7536,
      "ĠÑįÐ»ÐµÐ¼ÐµÐ½ÑĤÐ°": 7537,
      "ĠÑįÐ»ÐµÐ¼ÐµÐ½ÑĤÑĭ": 7538,
      "ĠÐ¼Ð°Ð¼Ðµ": 7539,
      "ĠÑĤÐµÑĢÐ¼Ð¸Ð½": 7540,
      "ĠÐ¿ÐµÑĢÐµÑħÐ¾Ð´": 7541,
      "ĠÐ¸Ð½ÑĦÐ°": 7542,
      "ĠÑĤÐ¾ÑĢÑĤ": 7543,
      "ÐĲÐ´Ð¼Ð¸Ð½Ñĭ": 7544,
      "ĠÐ¼ÐµÐ´Ð¸Ð°": 7545,
      "commands": 7546,
      "42311": 7547,
      "TP": 7548,
      "af": 7549,
      "ll": 7550,
      "over": 7551,
      "ust": 7552,
      "ĠØ§ÙĦ": 7553,
      "ÑģÐµÑĢ": 7554,
      "Ð»ÑĥÐ¶": 7555,
      "ÐºÐ¾ÑģÑĤÑĮ": 7556,
      "ĠÐ²Ð¾Ðº": 7557,
      "ĠÐ²ÐµÑģÑĤÐ¸": 7558,
      "Ð²ÐµÑģÑĮ": 7559,
      "ÐµÑĤÐºÐ°": 7560,
      "Ð°Ð»Ð¾Ð²": 7561,
      "ĠÐ±Ð¾ÑĢ": 7562,
      "ĠÐ°ÑĥÐ´": 7563,
      "Ð¸Ð½Ð¾Ð¼": 7564,
      "Ð¸Ð²Ð°ÐµÑĪÑĮ": 7565,
      "ĠÐ²ÑĭÑĩÐ¸ÑĤ": 7566,
      "Ð»ÑıÐ¹": 7567,
      "Ð°Ð¿Ð°Ð·": 7568,
      "ĠÐĴÐ»Ð°Ð´": 7569,
      "ÑĭÐ²Ð°ÐµÑĪÑĮ": 7570,
      "ĠÐľÐ¾Ð´ÐµÑĢÐ°ÑĤÐ¾ÑĢ": 7571,
      "ĠÐ¢ÑĥÑĤ": 7572,
      "ĠÑģÑĤÑĢÐµÐ»": 7573,
      "ĠÐ´ÑĢÑĥÐ³Ð¸Ð¼Ð¸": 7574,
      "ÐµÑĢÑĮÑĤÐµ": 7575,
      "ĠÐ°Ð½Ð¾Ð½": 7576,
      "ĠÑĢÐ°Ð±Ð¾ÑĤÐµ": 7577,
      "Ð²ÐµÑĢÑħ": 7578,
      "ĠÐºÑĢÑĥÑĩÐµ": 7579,
      "ĠÐ¸Ð½ÑĤÐµÑĢÐ½ÐµÑĤÐµ": 7580,
      "ĠÐ¥Ð¾ÑĤÑı": 7581,
      "ĠÐ³Ð¾Ð»ÑĥÐ±": 7582,
      "âķĳ": 7583,
      "ĠÐ¿Ð¾Ð·Ð²Ð¾Ð½": 7584,
      "ĠÐ¿ÑĢÐ¸ÑĪÐ»Ð¾": 7585,
      "dots": 7586,
      "ĠÐ¸Ð½ÑĦÐ¾ÑĢÐ¼Ð°ÑĨÐ¸Ñı": 7587,
      "ĠÑģÑĥÐ¼Ð¼Ñĭ": 7588,
      "ĠÐ½Ð°Ð¶Ð°ÑĤÑĮ": 7589,
      "ĠÐ²Ð¾Ð´Ñĥ": 7590,
      "ĠÐ·Ð°ÐºÑĢÐµÐ¿Ðµ": 7591,
      "ĠÐ´Ð¾Ð¿ÑĥÑģÑĤÐ¸Ð¼": 7592,
      "Ð²ÑħÐ²": 7593,
      "ĠÐºÐ½Ð¾Ð¿ÐºÐ°": 7594,
      "ĠÐ³Ð¾Ð»Ð¾Ð²Ðµ": 7595,
      "Ð½Ð¾ÑĢÐ¼": 7596,
      "ĠÐ²ÐµÑĢÑģÐ¸Ñı": 7597,
      "Ġarr": 7598,
      "Ð¡Ð¼Ð¾ÑĤÑĢÑı": 7599,
      "ÐľÐ¾Ð»Ð¾Ð´ÐµÑĨ": 7600,
      "ĠÑģÐ²ÐµÑĢÑħÑĥ": 7601,
      "Ð¼Ð¸ÑĤÑĢÐ¸Ð¹": 7602,
      "09": 7603,
      "mil": 7604,
      "yy": 7605,
      "Ð¸ÑĨÐ°": 7606,
      "Ð¼ÐµÑģÑĤ": 7607,
      "Ð²Ð»": 7608,
      "Ð²ÐµÑģÑĤ": 7609,
      "ĠÑĢÐ°Ð½": 7610,
      "ĠÑĢÐµÐ¼": 7611,
      "Ð°Ð½Ð½ÑĭÐµ": 7612,
      "ÐĲÐ¤": 7613,
      "ĠÐ°Ð»Ð¾": 7614,
      "Ð¸Ð½ÑĤÐµÑĢÐµÑģ": 7615,
      "ÐµÐ´Ð»Ð¸Ð²": 7616,
      "Ð°Ð¿ÑĢ": 7617,
      "Ġ2000": 7618,
      "ÐµÐ½ÑĮÐºÐ¸Ð¹": 7619,
      "ĠÑĢÐ°Ð·ÑĭÐ³ÑĢ": 7620,
      "ðŁ¤Ł": 7621,
      "ĠÐ¿Ð¾ÑģÐ¿": 7622,
      "ĠÑģÐ°Ð¼Ð¾Ð¼Ñĥ": 7623,
      "ÑĥÐºÑģÑĭ": 7624,
      "ange": 7625,
      "ÐµÐ¶Ð°ÑĤÑĮ": 7626,
      "ĠÐĳÐµÐ»": 7627,
      "ÑĥÐ¶Ð´Ð°Ñİ": 7628,
      "ÐµÑģÑıÑĨ": 7629,
      "ĠÐ·Ð°Ð²ÐµÑĢÑĪ": 7630,
      "ĠÐ½Ð°Ð²Ñĭ": 7631,
      "ĠÑĢÐµÑĪÐ¸Ð»Ð¸": 7632,
      "ÑĭÑĩÐ½Ð¾": 7633,
      "ĠÐ»Ð°Ð³Ð°ÐµÑĤ": 7634,
      "Ð¾Ð¶Ð´ÐµÐ½Ð¸Ðµ": 7635,
      "ĠÐ·Ð°ÑĢÐµÐ³Ð¸ÑģÑĤÑĢ": 7636,
      "ĠIn": 7637,
      "ĠðŁ¤§": 7638,
      "ĠðŁ¤¨": 7639,
      "ÐŀÑĤÑĩÐµÑĤ": 7640,
      "ĠÐ¤ÑĥÐ½ÐºÑĨÐ¸Ñı": 7641,
      "mail": 7642,
      "ĠÐ¾Ð±ÑĭÑĩÐ½ÑĭÐ¹": 7643,
      "ĠÐ¸Ð³ÑĢÐ°Ð»Ð¸": 7644,
      "ĠÑĥÐ²Ð¸Ð´ÐµÐ»Ð°": 7645,
      "ĠÐ¿ÐµÑĢÐµÐ¿ÑĥÑĤ": 7646,
      "ĠÐ·Ð°Ð¹Ð´Ñĥ": 7647,
      "ĠÑĢÐ°Ð·Ð²Ð¸ÑĤ": 7648,
      "mov": 7649,
      "ĠÐ»ÐµÐ¶Ð¸ÑĤ": 7650,
      "ĠÑģÑĤÐµÐ¿ÐµÐ½ÑĮ": 7651,
      "ðŁĶ¥ðŁĶ¥ðŁĶ¥ðŁĶ¥ðŁĶ¥ðŁĶ¥ðŁĶ¥ðŁĶ¥": 7652,
      "ĠÑģÑĢÐ°Ð²Ð½": 7653,
      "ĠÐ¡Ð¾Ð·Ð´Ð°Ð¹ÑĤÐµ": 7654,
      "ĠÐºÐ»Ð°Ð²Ð¸": 7655,
      "51": 7656,
      "ful": 7657,
      "no": 7658,
      "±âķ²âķ±": 7659,
      "Ð°Ðľ": 7660,
      "ĠÑģÐ¾Ð³": 7661,
      "ĠÑģÐ¾ÑĤ": 7662,
      "ĠÐºÐ°ÑİÑĤ": 7663,
      "ĠÐ¼ÑĥÑģ": 7664,
      "ĠÐ¼Ð°Ð¹Ð½ÐºÑĢÐ°ÑĦÑĤ": 7665,
      "ĠÐ¸Ð½Ð°ÑĩÐµ": 7666,
      "ÐµÑĤÐºÐ¸": 7667,
      "ĠÐ¿ÑĢÐµÑģÑĤ": 7668,
      "Ð·Ð°Ð±": 7669,
      "ÐĲÐ£": 7670,
      "Ð¢ÐµÐ¼": 7671,
      "Ð¢ÑĢÐµÑĪ": 7672,
      "ĠÑħÑĢ": 7673,
      "ĠÑħÑįÑĪ": 7674,
      "ĠÐŁÐ¾ÑĩÐµÐ¼Ñĥ": 7675,
      "ĠÐŁÐµÑĢÐ²": 7676,
      "Ð¾ÑģÑĤÐ¾Ð¸ÑĤ": 7677,
      "!!ï¸ı": 7678,
      "ĠÐ¢Ð£Ð¢": 7679,
      "ĠÐ¾Ð´Ð½Ð¸": 7680,
      "ðŁ¥±": 7681,
      "ÐŁÑĢÑıÐ¼": 7682,
      "ĠÐĺÑģÐºÐ°Ð½Ð´ÐµÑĢ": 7683,
      "ĠÐ¼Ð¾ÐµÐ¼": 7684,
      "ĠÐ»ÑİÐ±ÑıÑĤ": 7685,
      "ĠÐ»ÑİÐ±ÑĥÑİ": 7686,
      "ĠÐ³Ð¾Ð²Ð¾ÑĢÑı": 7687,
      "ÐĸÐµÐ»Ð°Ñİ": 7688,
      "ĠÐĹÐµÐ»ÑĳÐ½Ð°Ñı": 7689,
      "ĠÑħÐ¾ÑĤÐµÐ»Ð¸": 7690,
      "ĠÑĢÐ°ÑģÐ¿": 7691,
      "ĠÑģÑĤÑĢÐ¸Ð¼Ð°Ñħ": 7692,
      "Ð¸ÑĩÐµÑģÐºÐ°Ñı": 7693,
      "ÐºÐ°ÐºÐ°Ñı": 7694,
      "ĠÐ²Ð¾Ð¿ÑĢÐ¾ÑģÐ¾Ð²": 7695,
      "ĠAbra": 7696,
      "ĠÐ°ÐºÑĤÐ¸Ð²Ð½Ð¾ÑģÑĤÑĮ": 7697,
      "Ġwith": 7698,
      "ĠÐ½Ð°Ð¿Ð¸ÑĪÑĥÑĤ": 7699,
      "ĠÑĪÑĥÑĤÐºÐ¸": 7700,
      "ĠÐ°ÑĢÑĤÐºÐ¾ÑĢ": 7701,
      "ĠÐ½ÐµÐ´ÐµÐ»Ðµ": 7702,
      "ĠÑģÑĬÐµÐ»": 7703,
      "ÑĥÑİÑĤÑģÑı": 7704,
      "ĠÐ¿Ð»Ð¾ÑīÐ°Ð´": 7705,
      "ĠÐ±Ð¾Ð³Ð°ÑĤ": 7706,
      "ĠÑħÑĢÐ°Ð½ÐµÐ½Ð¸Ñı": 7707,
      "ĠÐ½Ð°ÑĩÐ½ÑĳÑĤÑģÑı": 7708,
      "âĭ±âķ²âķ±": 7709,
      "ĠAbramov": 7710,
      "My": 7711,
      "Script": 7712,
      "Top": 7713,
      "ox": 7714,
      "ĠðŁį": 7715,
      "Ġab": 7716,
      "Ĳ×": 7717,
      "Ð°ÑĤÐ¾ÑĢ": 7718,
      "ÑĮÐµ": 7719,
      "ÑĭÐ¶": 7720,
      "ĠÐ½Ð³": 7721,
      "ĠÐ½ÐµÑĢÐ²": 7722,
      "ĠÐ²ÐµÑīÐµ": 7723,
      "Ð´Ð°Ð¶Ðµ": 7724,
      "ĠÐ¿ÑĢÐµÐ·": 7725,
      "Ð½Ð¾ÑĪ": 7726,
      "Ð±Ð¾ÑĢ": 7727,
      "ĠÑĥÐ´Ð°": 7728,
      "ĠÑĢÑĥÑĩ": 7729,
      "ĠÑıÐ¹": 7730,
      "ĠÑıÑģÐ½Ð¾": 7731,
      "ÐĲÐª": 7732,
      "Ð¸Ð¼Ð¸Ð½": 7733,
      "ÑĢÐ°Ñı": 7734,
      "ÐľÐ½Ð¾Ð³Ð¾": 7735,
      "ĠÐ¶Ð¸Ð²ÐµÑĤ": 7736,
      "ĠÐ¶ÐµÑģÑĤÑĮ": 7737,
      "ĠÐ¾Ð±Ð·": 7738,
      "ÐłÐĲÐĶ": 7739,
      "ĠÐŁÐ¾Ð¹": 7740,
      "ĠÑģÐ¼Ðµ": 7741,
      "ĠÐ¾Ð´Ð½Ð¾Ð²ÑĢÐµÐ¼ÐµÐ½Ð½Ð¾": 7742,
      "ðŁĳĪ": 7743,
      "ĠÐ¿Ð¾Ð»ÑĥÑĩÐ¸ÑĤÐµ": 7744,
      "ĠÐºÐ»Ð°ÑģÑģÐ½Ð°Ñı": 7745,
      "ĠÐ¼Ð¾Ð´ÑĥÐ»ÑĮ": 7746,
      "ÐŀÐŀÐĳ": 7747,
      "ĠÐ¾Ð±ÑīÐµÐ½Ð¸Ðµ": 7748,
      "golive": 7749,
      "Ġget": 7750,
      "Ð°ÑĤÑĥÑĢÑĭ": 7751,
      "ĠÐ¼ÑĥÐ·ÑĭÐºÐ°": 7752,
      "ĠÐ´Ð°Ð»ÐµÐµ": 7753,
      "ðŁĺģðŁĺģ": 7754,
      "ðŁĳģðŁĳģðŁĳģðŁĳģ": 7755,
      "ĠÐ±ÑĥÐ´ÑĥÑīÐµÐ¼": 7756,
      "ÐĿÐ«ÐĻ": 7757,
      "ĠÐ¾ÑĢÐ¸Ð³Ð¸Ð½": 7758,
      "ove": 7759,
      "per": 7760,
      "sen": 7761,
      "},": 7762,
      "ÑıÑİÑģÑĮ": 7763,
      "Ð¼Ð¾ÑĢ": 7764,
      "ĠÐ¸Ð²Ð°Ð½": 7765,
      "ÑħÐ²Ð°ÑĤÐ¸ÑĤ": 7766,
      "ĠÐ¿ÑĢÐ¾Ð³Ñĥ": 7767,
      "ðŁĺ¤": 7768,
      "Ð°ÑĢÐ½ÑĭÐ¹": 7769,
      "ĠÐ²ÑģÐµÐ¼Ñĥ": 7770,
      "ĠÑģÑĤÐ¸Ð»ÑĮ": 7771,
      "ÑĥÑĩÐ½Ð¾": 7772,
      "Ð¸Ð·Ð¼": 7773,
      "ĠÐ¡Ð¾ÑģÑĤÐ¾Ð¸ÑĤ": 7774,
      "ÐŃÑĤÐ°": 7775,
      "Ð°Ð³Ð¼ÐµÐ½ÑĤ": 7776,
      "ÐĳÐ°Ð½": 7777,
      "Ð°Ð°Ð°Ð°Ð°Ð°Ð°": 7778,
      "Ġ33": 7779,
      "ĠÐ¢Ðĵ": 7780,
      "ĠÐĺÐ²Ð°Ð½": 7781,
      "ream": 7782,
      "â£¿â£": 7783,
      "âłĢâłĢâłĢ": 7784,
      "ĠÐ¾ÑĤÐºÑĢÑĭÐ²": 7785,
      "!!!!!!": 7786,
      "ĠÐ¿Ð¾Ð²ÑĭÑĪ": 7787,
      "Ð¼Ð°Ðµ": 7788,
      "ÑĤÐ°ÐºÐ¸": 7789,
      "ĠÑĥÑģÐ¿ÐµÑħ": 7790,
      "ĠÐºÑĢÐ°ÑģÐ¸Ð²Ð°Ñı": 7791,
      "ĠÐ²ÐºÐ»ÑİÑĩÐ¸ÑĤÑĮ": 7792,
      "ĠÐ³Ð»Ð°Ð²Ð½ÑĭÐ¹": 7793,
      "Ð¾Ð»Ð½ÑĨÐµ": 7794,
      "ĠÐ·Ð°ÐºÐ¾Ð½ÑĩÐ¸Ð»ÑģÑı": 7795,
      "ĠÐ¸Ð·Ð¼ÐµÐ½Ð¸ÑĤÑĮ": 7796,
      "ĠÐºÑĥÑĢÑģÐµ": 7797,
      "ĠÐ¿ÑĥÑĤÐµÑĪÐµ": 7798,
      "ĠÐ¿ÑĢÐ¾ÑĪÐ»Ð¾Ð³Ð¾": 7799,
      "ĠÑĨÐ¸ÑĦÑĢÑĭ": 7800,
      "ĠÑĥÑģÑĤÐ°Ð»": 7801,
      "ÐĳÑĥÐ´Ñĥ": 7802,
      "ĠÐ¿ÑĢÐµÐ´Ð¼ÐµÑĤÑĭ": 7803,
      "ĠÐ¾Ð±Ð¸Ð´Ð½Ð¾": 7804,
      "ÐĲÐĲÐĲÐĲÐĲÐĲÐĲÐĲÐĲÐĲÐĲÐĲÐĲÐĲÐĲÐĲÐĲÐĲÐĲÐĲÐĲÐĲÐĲÐĲÐĲÐĲÐĲÐĲÐĲÐĲÐĲÐĲ": 7805,
      "ĠÐ¼ÐµÑĢÑĩ": 7806,
      "ÐµÐµÐµÐµÐµÐµÐµÐµÐµÐµÐµÐµÐµÐµÐµÐµ": 7807,
      "ðŁļĢ": 7808,
      "â¬Ľï¸ı": 7809,
      "âĭ°": 7810,
      "ðŁĹ¿ðŁĹ¿ðŁĹ¿ðŁĹ¿ðŁĹ¿ðŁĹ¿ðŁĹ¿ðŁĹ¿": 7811,
      "ĠÐ·Ð¾Ð¼Ð±Ð¸": 7812,
      "Ð¸Ð»Ð¾ÑģÐ¾ÑĦ": 7813,
      "âĭ±âķ²âķ±âĭ°": 7814,
      "LE": 7815,
      "SE": 7816,
      "ny": 7817,
      "},$": 7818,
      "Ð½Ð¸ÑĤÐ¸": 7819,
      "ĠÐ²Ð¸Ð¿": 7820,
      "Ð´ÑĥÑĤ": 7821,
      "ĠÐ¾Ñħ": 7822,
      "Ð¾Ð²Ð¾Ð³Ð¾": 7823,
      "ÐµÑĢÑģ": 7824,
      "ÐµÑĢÐ¼": 7825,
      "ĠÐ¿ÑĢÐ¾ÑĤ": 7826,
      "Ð±ÑĥÑĢÐ³": 7827,
      "ĠÑĢÐµÐ»": 7828,
      "ĠÑĢÑĥÐ´Ð¸Ðº": 7829,
      "Ð¾ÑĢÐ´": 7830,
      "ÐĲÐ©": 7831,
      "Ð¥Ð¾ÑĤÑĮ": 7832,
      "ÐĶÐµÐ²": 7833,
      "ĠÐŁÐļ": 7834,
      "Ð»Ð¾Ñĥ": 7835,
      "Ġ$|": 7836,
      "Ð°Ð»ÑĮÐ½Ð¾Ð¼": 7837,
      "ĠÑĥÑĩÐ¸ÑĤÑģÑı": 7838,
      "ĠÐ½Ð¸ÐºÐ¸": 7839,
      "ĠÐ½Ð°Ð·ÑĭÐ²Ð°ÑİÑĤ": 7840,
      "Ð¨Ðķ": 7841,
      "âĺ¹ï¸ı": 7842,
      "ĠÐ¥ÐŀÐ§": 7843,
      "ĠÐ´Ð¾Ð±Ð°Ð²Ð»Ñİ": 7844,
      "ĠÐ´Ð¾Ð±Ð°Ð²Ð¸Ð»Ð¸": 7845,
      "ĠIT": 7846,
      "ĠÐºÑĥÐ¿Ð¸Ð»Ð°": 7847,
      "ĠÐºÐ¾Ð»Ð¸ÑĩÐµÑģÑĤÐ²Ð°": 7848,
      "ĠÐ¿Ð¾ÑĪÐ»Ð¸": 7849,
      "ĠÑħÐ¾ÑĤÐµÐ»Ð¾ÑģÑĮ": 7850,
      "ÑģÑĤÐ°Ð²Ð»ÑıÑİÑĤ": 7851,
      "Ð½Ð¸ÑĩÐ°ÑĤÑĮ": 7852,
      "ÐĲÐ¥ÐĲÐ¥ÐĲÐ¥ÐĲ": 7853,
      "ĠÑĤÑĥÑĤÐ¾ÑĢ": 7854,
      "ĠÐ¿ÑĢÐ¸Ð´ÑĥÐ¼Ð°ÑĤÑĮ": 7855,
      "asha": 7856,
      "ĠÐ²ÑĭÑĢÐ°Ð¶ÐµÐ½Ð¸Ñı": 7857,
      "ĠÑģÐ¸ÑģÑĤÐµÐ¼Ñĥ": 7858,
      "ĠÐ²ÐºÐ»Ð°Ð´": 7859,
      "ĠÑģÐ¸ÑĤÑĥÐ°ÑĨÐ¸Ñı": 7860,
      "Ð¶ÐµÐ»Ð¸ÐºÐ°": 7861,
      "ĠÐ¿Ð°ÑĢÑĤÐ½": 7862,
      "Ð½Ð°ÑĢÑĥÐ¶": 7863,
      "ĠÑģÐ½Ð¸Ð¶": 7864,
      "Maria": 7865,
      "ĠÐ½Ð°ÐºÐ°Ð·Ð°Ð½Ð¸Ðµ": 7866,
      "AA": 7867,
      "fun": 7868,
      "val": 7869,
      "ĠðŁĻĥ": 7870,
      "ĠÐ¼Ð°Ñı": 7871,
      "ÑĤÑĮÑģÑı": 7872,
      "Ð¾ÑĢÐµ": 7873,
      "Ð¸ÐºÐ°Ð½": 7874,
      "ĠÐ»ÐµÐ·": 7875,
      "ÑĳÐ½Ñĭ": 7876,
      "Ð¢ÑĢ": 7877,
      "Ð¡Ð¾Ð±": 7878,
      "Ð¡Ð¾Ð½Ñı": 7879,
      "ÐĺÐ¥": 7880,
      "ĠÐ¶ÐµÐ½Ð°": 7881,
      "ÐłÐµ": 7882,
      "ĠÑĪÑĥÑĩÑĥ": 7883,
      "ĠÐ¸Ð½Ñģ": 7884,
      "ĠÐļÐ¢Ðŀ": 7885,
      "ÑīÑĳÐ½": 7886,
      "ĠÐ¿Ð¾ÑĩÐ¸Ð½": 7887,
      "ĠÐ£ÐĸÐķ": 7888,
      "ĠÑĢÐ°ÑģÐ¿ÑĢÐ¾": 7889,
      "ĠÐ¾ÑĤÐºÑĢ": 7890,
      "ĠÐ±Ð°Ð½Ðµ": 7891,
      "ĠÐ±ÐµÑģÐ¸ÑĤ": 7892,
      "ĠÐ¼Ð¾Ð³Ð»Ð°": 7893,
      "ĠÐ¿ÑĢÑıÐ¼Ð¾Ð¹": 7894,
      "ĠÐ¸Ð´ÐµÐ¹": 7895,
      "ĠÐ²ÐµÐ´ÑĥÑī": 7896,
      "ĠÐ¾ÑĤÐºÑĢÑĭÑĤÐ¸Ðµ": 7897,
      "Ð¼Ð¾Ñı": 7898,
      "ĠÑģÐ¿ÑĢÐ¾ÑģÐ¸Ð»Ð°": 7899,
      "very": 7900,
      "ĠÐ³ÑĢÐ¸Ð±": 7901,
      "ĠÐ¿ÑĢÐµÐ´Ð»Ð¾Ð¶ÐµÐ½Ð¸Ðµ": 7902,
      "ðŁĺĬðŁĺĬ": 7903,
      "ĠÑĤÐµÑĢÐ¿": 7904,
      "ĠÐĲÐ½Ð³ÐµÐ»": 7905,
      "ĠÐ¿Ð¾Ð»Ð¾Ð²Ð¸Ð½Ñĥ": 7906,
      "ãĥĦ": 7907,
      "ĠÐ¾ÑĤÑģÑĥÑĤÑģÑĤÐ²": 7908,
      "ĠÐ¸Ð·Ð¾Ð±ÑĢÐ°Ð¶ÐµÐ½Ð¸Ñı": 7909,
      "ĠÑģÐ¸ÑģÑĤÐµÐ¼Ñĭ": 7910,
      "ĠÑģÑĤÐ°Ð½Ð´Ð°ÑĢÑĤ": 7911,
      "âĢįâĻĤï¸ı": 7912,
      "ĠÐ»ÑĳÐ³": 7913,
      "52": 7914,
      "79": 7915,
      "SQL": 7916,
      "ain": 7917,
      "cd": 7918,
      "so": 7919,
      "ĳ×": 7920,
      "ÑĤÐ¾Ðº": 7921,
      "ÑĤÐ¾Ð¶Ðµ": 7922,
      "Ð»ÑĥÐ´": 7923,
      "ÑĮÑİÑĤ": 7924,
      "ĠÐ²Ð¾Ð²": 7925,
      "Ð¼Ð°ÑĤÑĭ": 7926,
      "Ð¿Ð°Ñħ": 7927,
      "ĠÐ¿ÑĢÐ¾ÑģÑĮ": 7928,
      "Ð³ÑĢÑĥ": 7929,
      "ÐĿÐ°ÑĢ": 7930,
      "ĠÑģÐºÐ¾Ð¿": 7931,
      "ÐĶÐŀ": 7932,
      "ÐłÐ«": 7933,
      "Ð¿ÑĢÐ¾Ð²": 7934,
      "ĠÑģÐ¿ÑıÑĤ": 7935,
      "ĠÐ¿Ð¾Ð´ÑĢÑıÐ´": 7936,
      "ĠÐ²ÐµÑĢÑĪ": 7937,
      "ĠÑĥÑĤÑĢ": 7938,
      "ĠÑĥÐ´Ð°ÑĢ": 7939,
      "ĠÑģÐµÑĢÐ¸Ð°Ð»": 7940,
      "Ġprint": 7941,
      "ĠÐ°Ð´Ð¼Ð¸Ð½Ð°Ð¼": 7942,
      "ĠÑģÐ¾Ð²ÑĢÐµÐ¼ÐµÐ½": 7943,
      "ÑģÑĤÐ²ÐµÐ½Ð½ÑĭÐµ": 7944,
      "ĠÐ¿Ð¾ÐºÐ°Ð·ÑĭÐ²Ð°ÐµÑĤ": 7945,
      "ĠÐ¾ÑĪÐ¸Ð±ÐºÑĥ": 7946,
      "ĠÐ¿ÑĢÐ¾ÑģÑĤÐ¸ÑĤÐµ": 7947,
      "ĠÐ¸ÑĢÐ¸ÑģÐºÐ°": 7948,
      "ĠÑĥÑģÑĤÑĢÐ°": 7949,
      "ĠÐ¼ÐµÐ½Ñİ": 7950,
      "âĥ£": 7951,
      "ĠÐºÐ°Ð½Ð¸ÐºÑĥÐ»": 7952,
      "ĠÑĤÐ°Ð½ÑĨ": 7953,
      "form": 7954,
      "ĠÐ½Ð¾Ð³Ð¸": 7955,
      "ĠÐ·Ð°ÑĢÐ°Ð±Ð¾ÑĤÐ°ÑĤÑĮ": 7956,
      "ðŁĳĢðŁĳĢ": 7957,
      "ĠÐĲÐĽÐķÐļÐ¡": 7958,
      "ĠÑĤÐ¸Ð»ÑĮÐ´Ðµ": 7959,
      "ĠÑĤÑıÐ¶ÐµÐ»Ð¾": 7960,
      "':": 7961,
      "42": 7962,
      "ip": 7963,
      "zor": 7964,
      "Ġun": 7965,
      "ÐºÑĢÐ°Ñģ": 7966,
      "ĠÑģÐ°Ñħ": 7967,
      "ĠÐºÑĥÑĪÐ°ÑĤÑĮ": 7968,
      "Ð¿ÐµÑĢÐ²": 7969,
      "ĠÑıÑĢ": 7970,
      "Ð°ÑĤÐ¾Ð¼": 7971,
      "ĠÐ°Ð¼ÐµÑĢ": 7972,
      "ÐŀÐ´Ð¸Ð½": 7973,
      "Ð»ÑıÐ»": 7974,
      "ĠÐ¾Ð±Ð½Ð°ÑĢÑĥÐ¶": 7975,
      "ĠÑĦÑĥÑĢ": 7976,
      "ĠÑĦÑĢÑĥÐºÑĤ": 7977,
      "ÐĽÐ°Ð²Ð°Ð½Ð´Ð°": 7978,
      "ĠÐ¿Ð¾Ð´ÑģÑĤÐ°Ð²Ð¸ÑĤÑĮ": 7979,
      "ĠÑģÐ²Ð¸Ð´": 7980,
      "ÐĹÐ°Ñħ": 7981,
      "Ð»ÑİÐ´Ð¸": 7982,
      "Ð¸Ð³ÑĢÐ°": 7983,
      "ĠÐĶÐ°Ð½Ñı": 7984,
      "ĠðŁĺ³": 7985,
      "ĠÑħÐ¾ÑĤÐ¸Ð¼": 7986,
      "ĠÐ¾ÑģÐ²": 7987,
      "ĠÐ½Ð°ÑĪÐ¸Ñħ": 7988,
      "ĠÐ´Ð°Ð²Ð°Ð»Ð¸": 7989,
      "ĠÐ¿Ð¾Ð½Ð¸Ð¼Ð°ÑĤÑĮ": 7990,
      "ĠÐºÐ°Ð½Ð¾Ð½": 7991,
      "tem": 7992,
      "ĠÐ½Ð°Ð¿Ð¸ÑĪÐµÑĤ": 7993,
      "ĠÑİÐ·": 7994,
      "ĠÑħÐ¾Ð´Ð¸Ð»": 7995,
      "ĠÐ³ÐµÐ½ÐµÑĢ": 7996,
      "ðŁ¥°ðŁ¥°ðŁ¥°": 7997,
      "ĠÐ¾Ð³Ñį": 7998,
      "ĠÑĢÑĥÐºÐ¾Ð²Ð¾Ð´": 7999,
      "????????????????": 8000,
      "ĠÐ²ÐµÑĢÑģÐ¸Ñİ": 8001,
      "ĠÑĨÐ¸ÐºÐ»": 8002,
      "ĠÐ¡Ð¿Ð°ÑģÐ¸Ð±Ð¾": 8003,
      "ÐºÐ°ÑĤÐµÑĢ": 8004,
      "ÐĴÐĴÐĴÐĴÐĴÐĴÐĴÐĴÐĴÐĴÐĴÐĴÐĴÐĴÐĴÐĴ": 8005,
      "ĠÑģÐµÑĢÐ²ÐµÑĢÐ°": 8006,
      "ĠÐĺÑĢÐ¸ÑģÐ°": 8007,
      "ðŁĲĪðŁĲĪ": 8008,
      "ÙĭÙĭ": 8009,
      ",@": 8010,
      "Re": 8011,
      "sof": 8012,
      "á´": 8013,
      "ĠÐ¿ÑĥÐ³": 8014,
      "ĠÑģÑħÐ¾Ð´": 8015,
      "ĠÐ²Ð»Ð¸": 8016,
      "ĠÐºÐ¾Ð´Ðµ": 8017,
      "ĠÑĤÐ¸Ñħ": 8018,
      "ĠÐ¸Ð½Ð¸ÑĨÐ¸Ð°Ð»Ð¸Ð·": 8019,
      "Ð¾Ð¹ÑĤÐ¸": 8020,
      "ÐŀÑģÑĤ": 8021,
      "Ð¾ÐºÐ¼Ð°ÑĢÑĥÑģÑı": 8022,
      "Ð°Ð´Ñĭ": 8023,
      "ĠÑħÐ°Ð¹": 8024,
      "ÐĺÑħ": 8025,
      "ÐľÐľ": 8026,
      "ÐľÐ¸Ð¼Ð¾ÑĦÐµÐ¹": 8027,
      "Ð°Ð¶Ð°": 8028,
      "ĠÐ¸Ð·Ð¸": 8029,
      "ĠÑĪÐ°ÑĪ": 8030,
      "ĠÐ¡ÐĽÐŀ": 8031,
      "Ð°Ð³Ðµ": 8032,
      "ÑĤÐ¸Ð¿Ð¾": 8033,
      "ðŁ¤ª": 8034,
      "ĠÑģÐ´ÐµÐ»Ð°Ð¹": 8035,
      "Ġ42": 8036,
      "Ð°ÑĨÐ¸Ð¹": 8037,
      "ĠÐ´Ð²ÐµÑĢÐ¸": 8038,
      "ÐĸÐĿÐŀ": 8039,
      "ĠÐ´ÑĥÐ¼Ð°ÑĤÑĮ": 8040,
      "ĠÐ´Ð¾Ð»Ð»": 8041,
      "ĠÑģÐ¼Ð¾ÑĤÑĢÑıÑĤ": 8042,
      "ĠÑĩÐ¸ÑģÐ»Ð¸ÑĤ": 8043,
      "ĠÐĵÐ¾": 8044,
      "ĠÐ¿Ð°ÑĢÐ°Ð¼ÐµÑĤ": 8045,
      "ĠÐºÐ¾ÑĢÐ¾Ð±": 8046,
      "ĠÐ¾Ð±ÑĬÐµÐºÑĤÐ°": 8047,
      "ĠÐ¸Ð½ÑĤÐµÑĢÐµÑģÐ½Ð¾Ðµ": 8048,
      "Ġnew": 8049,
      "ĠÐ°ÐºÑĤÐ¸Ð²Ð°": 8050,
      "ĠÐ¿ÑĢÐ¾ÑģÐ¸Ð»": 8051,
      "ĠÐ¿Ð»Ð¾ÑħÐ¾Ð³Ð¾": 8052,
      "ĠÐºÑĥÐ¿Ð»Ñİ": 8053,
      "ÐĲÐ¡Ðĺ": 8054,
      "Ġres": 8055,
      "ĠÐ²ÑĭÐ¹ÑĤÐ¸": 8056,
      "ÑıÑīÐ¸Ð¹": 8057,
      "ĠÐ¾ÑĨÐµÐ½ÐºÑĥ": 8058,
      "ĠÐ¼Ð¾Ð´ÐµÑĢÐ¾Ð²": 8059,
      "ĠÐºÐ°ÑĢÑĤÐ¸Ð½ÐºÑĥ": 8060,
      "!!!!!!!!!!!!!!!!": 8061,
      "ðŁĺŃðŁĺŃðŁĺŃðŁĺŃðŁĺŃðŁĺŃðŁĺŃðŁĺŃðŁĺŃðŁĺŃðŁĺŃðŁĺŃðŁĺŃðŁĺŃðŁĺŃðŁĺŃ": 8062,
      "ĠÐ¸Ð½Ð´ÐµÐºÑģ": 8063,
      "ĠÐ¿ÑĢÐ¾ÐºÐ°Ñĩ": 8064,
      "ĠÐ±ÐµÑģÐµÐ´Ñĭ": 8065,
      "ðŁĨĺðŁĨĺ": 8066,
      "ĠÐ±Ð¾Ð»ÑĮÑĪÐ¸Ð½ÑģÑĤÐ²Ð¾": 8067,
      "ĠÐŁÐ¾Ð¹Ð¼Ð¸ÑĤÐµ": 8068,
      "?(": 8069,
      "dd": 8070,
      "ess": 8071,
      "Ġ000": 8072,
      "Ġhe": 8073,
      "Ġ^^": 8074,
      "Ð°Ð¸": 8075,
      "Ð»ÐµÐ²": 8076,
      "ĠÐ²Ð»ÑİÐ±": 8077,
      "ĠÐ·Ð¾Ð»": 8078,
      "ÐĿÐµÐ»ÑĮÐ·Ñı": 8079,
      "ÐĿÐĺÐļ": 8080,
      "ÐĶÐ¾Ð±Ð°Ð²": 8081,
      "ÑģÑĤÐ²Ð¸Ñı": 8082,
      "ĠÑģÐ»Ð°Ð±": 8083,
      "ĠÐŁÐł": 8084,
      "ÐĽÐµÐ³": 8085,
      "ÐĽÐĲÐ¡": 8086,
      "ĠÐĿÐĲÐ¨": 8087,
      "Ð»ÑİÑĩÐ¸ÑĤ": 8088,
      "ĠÑĤÑĢÐ¾Ð³": 8089,
      "Ġ48": 8090,
      "ðŁĶ¤": 8091,
      "Ð¡Ð¿Ð°Ð¼": 8092,
      "ĠÐ½Ð°ÑĪÐµÐ³Ð¾": 8093,
      "ĠÐºÐ°Ð¶Ð´Ð¾Ð¼": 8094,
      "ĠÐºÐ°Ð¶Ð´Ð¾Ð¼Ñĥ": 8095,
      "ðŁĺįðŁĺĺ": 8096,
      "ĠÐ¿ÑĢÐ¾ÑĪÐ»Ð¾": 8097,
      "ĠÑĤÐµÐ¼Ðµ": 8098,
      "ĠÐºÐ°Ð½Ð°Ð»Ð°": 8099,
      "ĠÑĥÐ±Ð¸Ð²Ð°ÑĤÑĮ": 8100,
      "ĠÐ·Ð°ÑĢÐµÐ³": 8101,
      "ĠÑģÐºÐ°Ð¶ÐµÑĤ": 8102,
      "ĠÑįÐºÑģÑĤÑĢ": 8103,
      "ĠÑģÐ»ÐµÐ´ÑĥÑİÑīÐ¸Ñħ": 8104,
      "ĠÐ»ÑĥÑĩÑĪÐ¸Ðµ": 8105,
      "\\],": 8106,
      "ĠÐ¿Ð¾Ð¸Ð³ÑĢÐ°ÐµÐ¼": 8107,
      "))))))))": 8108,
      "ĠÐ¿ÑĢÐ¸Ð³Ð»Ð°Ñģ": 8109,
      "ĠÐ´Ð¸Ð°Ð¿Ð°Ð·": 8110,
      "ĠÐľÐ¾ÑģÐºÐ²Ñĭ": 8111,
      "ĠÐ¿ÑĢÐ°Ð²Ð¸Ð»Ð°Ñħ": 8112,
      "ÑĢÐ¾ÑĪÑĥ": 8113,
      "ĠÑģÐ¸Ð»Ñĭ": 8114,
      "ĠÐ¾ÐºÐ°Ð·ÑĭÐ²Ð°ÐµÑĤÑģÑı": 8115,
      "ĠÑĢÐµÑģÑĤÐ¾ÑĢ": 8116,
      "angle": 8117,
      "ĠÐ¿ÑģÐ¸ÑħÐ¾Ð»Ð¾Ð³": 8118,
      "ĠÐ¾Ð±ÑģÑĥÐ¶Ð´Ð°ÑĤÑĮ": 8119,
      "ĠÑĥÐ¿ÑĢÐ¾ÑīÐ°ÐµÑĤÑģÑı": 8120,
      "ĠÐ²ÑĭÐºÐ»Ð°Ð´": 8121,
      "AMP": 8122,
      "ĠÐ²Ð¾Ð·Ð´ÑĥÑħ": 8123,
      "ĠÐ¸Ð½Ð³Ð»Ð¸ÑĪ": 8124,
      "Con": 8125,
      "nop": 8126,
      "ÙĤ": 8127,
      "ĠÐ¿Ð»Ð¸": 8128,
      "ĠÑģÐ»Ð¸": 8129,
      "ĠÐ²Ð½ÑĥÑĤ": 8130,
      "ĠÑĤÐµÐ³": 8131,
      "Ð¾Ð²Ñĥ": 8132,
      "ĠÐ±Ð¾Ð³Ñĥ": 8133,
      "Ð±Ðµ": 8134,
      "Ð±Ð°Ð±ÐºÐ°": 8135,
      "ÐĲÐ¦": 8136,
      "Ð¸Ð½ÑĤÐµÑĢÐµÑģÐ½Ð¾": 8137,
      "ĠÐ»ÑĮ": 8138,
      "ĠÐ»Ð´": 8139,
      "Ð¸Ð»Ð»Ð¸": 8140,
      "ÐļÐ¥": 8141,
      "ĠÐ¿ÑĢÐ¾ÐµÐºÑĤÐ°": 8142,
      "ÐµÐ·Ð´Ð°": 8143,
      "ÐµÐ¿ÑĤ": 8144,
      "ĠÑģÐ²Ñı": 8145,
      "Ð°Ð»Ð¸ÑģÑĤ": 8146,
      "ðŁ¥Ģ": 8147,
      "ÐµÐ¶Ñĥ": 8148,
      "ĠÐĳÐ°Ð±ÐºÐ°": 8149,
      "ĠÐ¸Ð¼ÐµÐ½ÐµÐ¼": 8150,
      "ĠÐ·Ð°Ð´Ð¾Ð½": 8151,
      "ĠÑĢÐ¾Ð±Ð»Ð¾ÐºÑģÑĥ": 8152,
      "Ð°Ð½Ð´ÐµÑĢÐ°": 8153,
      "ĠÐ°ÑĢÑĤÑĭ": 8154,
      "riend": 8155,
      "ĠÑĩÐµÑĢÐµÐ¿": 8156,
      "Ġspe": 8157,
      "ĠÐºÐ¾Ð¼Ð¿Ð¾Ð½": 8158,
      "Ġpl": 8159,
      "Ð¿Ð¸ÑģÐ°Ð½Ð¸Ðµ": 8160,
      "ĠÐŁÐŀÐĶ": 8161,
      "ÐŀÑĤÐ¿ÑĢÐ°Ð²": 8162,
      "ĠÐ°Ð½Ð³Ð»Ð¸Ð¹ÑģÐºÐ¾Ð³Ð¾": 8163,
      "ĠÐ¿Ð¾ÑģÑĤÐ°Ð²Ð¸Ð»Ð¸": 8164,
      "ĠÐ¿Ð¾Ð±ÐµÐ´Ð¸Ð»": 8165,
      "ull": 8166,
      "ĠÐ½ÐµÐ¹ÑĢÐ¾ÑģÐµÑĤ": 8167,
      "ĠÐ´Ð»Ð¸Ð½Ð°": 8168,
      "ĠÑģÐ»ÑĭÑĪÑĥ": 8169,
      "ĠÑĥÐ¼Ð½Ð¾Ð¶Ð¸ÑĤÑĮ": 8170,
      "ĠÑĤÐ²Ð¾ÑĢÑĩÐµÑģ": 8171,
      "Ð«Ð«Ð«Ð«": 8172,
      "ĠÑģÐ¾Ð²ÐµÑĤÑĥÑİ": 8173,
      "ĠÐ¿Ð¾Ð´ÑĤÐ²ÐµÑĢÐ¶": 8174,
      "ðŁĺ´ðŁĺ´": 8175,
      "ĠÑĤÐµÑĤÑĢÐ°Ð´": 8176,
      "binom": 8177,
      "AC": 8178,
[...]
